<pad>	0
<bos>	0
<eos>	0
<unk>	0
<user>	0
<assistant>	0
<0x00>	0
<0x01>	0
<0x02>	0
<0x03>	0
<0x04>	0
<0x05>	0
<0x06>	0
<0x07>	0
<0x08>	0
<0x09>	0
<0x0A>	0
<0x0B>	0
<0x0C>	0
<0x0D>	0
<0x0E>	0
<0x0F>	0
<0x10>	0
<0x11>	0
<0x12>	0
<0x13>	0
<0x14>	0
<0x15>	0
<0x16>	0
<0x17>	0
<0x18>	0
<0x19>	0
<0x1A>	0
<0x1B>	0
<0x1C>	0
<0x1D>	0
<0x1E>	0
<0x1F>	0
<0x20>	0
<0x21>	0
<0x22>	0
<0x23>	0
<0x24>	0
<0x25>	0
<0x26>	0
<0x27>	0
<0x28>	0
<0x29>	0
<0x2A>	0
<0x2B>	0
<0x2C>	0
<0x2D>	0
<0x2E>	0
<0x2F>	0
<0x30>	0
<0x31>	0
<0x32>	0
<0x33>	0
<0x34>	0
<0x35>	0
<0x36>	0
<0x37>	0
<0x38>	0
<0x39>	0
<0x3A>	0
<0x3B>	0
<0x3C>	0
<0x3D>	0
<0x3E>	0
<0x3F>	0
<0x40>	0
<0x41>	0
<0x42>	0
<0x43>	0
<0x44>	0
<0x45>	0
<0x46>	0
<0x47>	0
<0x48>	0
<0x49>	0
<0x4A>	0
<0x4B>	0
<0x4C>	0
<0x4D>	0
<0x4E>	0
<0x4F>	0
<0x50>	0
<0x51>	0
<0x52>	0
<0x53>	0
<0x54>	0
<0x55>	0
<0x56>	0
<0x57>	0
<0x58>	0
<0x59>	0
<0x5A>	0
<0x5B>	0
<0x5C>	0
<0x5D>	0
<0x5E>	0
<0x5F>	0
<0x60>	0
<0x61>	0
<0x62>	0
<0x63>	0
<0x64>	0
<0x65>	0
<0x66>	0
<0x67>	0
<0x68>	0
<0x69>	0
<0x6A>	0
<0x6B>	0
<0x6C>	0
<0x6D>	0
<0x6E>	0
<0x6F>	0
<0x70>	0
<0x71>	0
<0x72>	0
<0x73>	0
<0x74>	0
<0x75>	0
<0x76>	0
<0x77>	0
<0x78>	0
<0x79>	0
<0x7A>	0
<0x7B>	0
<0x7C>	0
<0x7D>	0
<0x7E>	0
<0x7F>	0
<0x80>	0
<0x81>	0
<0x82>	0
<0x83>	0
<0x84>	0
<0x85>	0
<0x86>	0
<0x87>	0
<0x88>	0
<0x89>	0
<0x8A>	0
<0x8B>	0
<0x8C>	0
<0x8D>	0
<0x8E>	0
<0x8F>	0
<0x90>	0
<0x91>	0
<0x92>	0
<0x93>	0
<0x94>	0
<0x95>	0
<0x96>	0
<0x97>	0
<0x98>	0
<0x99>	0
<0x9A>	0
<0x9B>	0
<0x9C>	0
<0x9D>	0
<0x9E>	0
<0x9F>	0
<0xA0>	0
<0xA1>	0
<0xA2>	0
<0xA3>	0
<0xA4>	0
<0xA5>	0
<0xA6>	0
<0xA7>	0
<0xA8>	0
<0xA9>	0
<0xAA>	0
<0xAB>	0
<0xAC>	0
<0xAD>	0
<0xAE>	0
<0xAF>	0
<0xB0>	0
<0xB1>	0
<0xB2>	0
<0xB3>	0
<0xB4>	0
<0xB5>	0
<0xB6>	0
<0xB7>	0
<0xB8>	0
<0xB9>	0
<0xBA>	0
<0xBB>	0
<0xBC>	0
<0xBD>	0
<0xBE>	0
<0xBF>	0
<0xC0>	0
<0xC1>	0
<0xC2>	0
<0xC3>	0
<0xC4>	0
<0xC5>	0
<0xC6>	0
<0xC7>	0
<0xC8>	0
<0xC9>	0
<0xCA>	0
<0xCB>	0
<0xCC>	0
<0xCD>	0
<0xCE>	0
<0xCF>	0
<0xD0>	0
<0xD1>	0
<0xD2>	0
<0xD3>	0
<0xD4>	0
<0xD5>	0
<0xD6>	0
<0xD7>	0
<0xD8>	0
<0xD9>	0
<0xDA>	0
<0xDB>	0
<0xDC>	0
<0xDD>	0
<0xDE>	0
<0xDF>	0
<0xE0>	0
<0xE1>	0
<0xE2>	0
<0xE3>	0
<0xE4>	0
<0xE5>	0
<0xE6>	0
<0xE7>	0
<0xE8>	0
<0xE9>	0
<0xEA>	0
<0xEB>	0
<0xEC>	0
<0xED>	0
<0xEE>	0
<0xEF>	0
<0xF0>	0
<0xF1>	0
<0xF2>	0
<0xF3>	0
<0xF4>	0
<0xF5>	0
<0xF6>	0
<0xF7>	0
<0xF8>	0
<0xF9>	0
<0xFA>	0
<0xFB>	0
<0xFC>	0
<0xFD>	0
<0xFE>	0
<0xFF>	0
▁t	-0
▁a	-1
in	-2
he	-3
re	-4
on	-5
er	-6
▁the	-7
at	-8
▁s	-9
es	-10
▁c	-11
en	-12
▁o	-13
al	-14
an	-15
it	-16
ing	-17
or	-18
is	-19
▁w	-20
▁f	-21
▁p	-22
▁an	-23
ou	-24
▁in	-25
ed	-26
▁b	-27
ar	-28
▁m	-29
▁to	-30
▁and	-31
ion	-32
▁of	-33
▁d	-34
ic	-35
om	-36
le	-37
ent	-38
st	-39
▁e	-40
▁re	-41
▁h	-42
▁th	-43
ro	-44
as	-45
ct	-46
▁n	-47
▁T	-48
▁l	-49
et	-50
il	-51
ve	-52
▁is	-53
ly	-54
▁g	-55
▁y	-56
ol	-57
▁A	-58
ut	-59
ow	-60
ur	-61
im	-62
id	-63
ce	-64
ation	-65
▁for	-66
▁S	-67
se	-68
ra	-69
▁I	-70
▁u	-71
ig	-72
ver	-73
ch	-74
▁C	-75
ot	-76
▁be	-77
▁you	-78
▁st	-79
▁on	-80
ay	-81
est	-82
▁The	-83
ul	-84
ate	-85
ir	-86
ith	-87
▁con	-88
▁that	-89
▁ex	-90
am	-91
ad	-92
if	-93
el	-94
ment	-95
▁as	-96
▁pro	-97
her	-98
nd	-99
qu	-100
ers	-101
▁with	-102
▁com	-103
th	-104
▁it	-105
▁wh	-106
▁R	-107
▁(	-108
▁M	-109
ge	-110
nt	-111
▁r	-112
▁P	-113
▁or	-114
▁=	-115
▁B	-116
ies	-117
▁he	-118
iv	-119
▁are	-120
▁"	-121
ive	-122
um	-123
▁W	-124
res	-125
▁al	-126
ial	-127
▁ne	-128
ke	-129
ity	-130
ore	-131
ess	-132
ab	-133
od	-134
▁de	-135
▁H	-136
ist	-137
▁v	-138
ere	-139
pe	-140
▁-	-141
ill	-142
▁D	-143
▁N	-144
▁E	-145
▁F	-146
us	-147
▁fr	-148
ld	-149
oc	-150
and	-151
ter	-152
ain	-153
igh	-154
ant	-155
▁comp	-156
os	-157
▁su	-158
pp	-159
▁your	-160
▁ab	-161
out	-162
ort	-163
ions	-164
ac	-165
▁can	-166
▁$	-167
▁from	-168
▁exp	-169
em	-170
▁fin	-171
▁sh	-172
▁ch	-173
ear	-174
op	-175
▁at	-176
▁le	-177
ine	-178
▁L	-179
▁by	-180
ure	-181
end	-182
ri	-183
\\	-184
▁O	-185
ight	-186
▁ha	-187
▁int	-188
▁se	-189
un	-190
art	-191
▁G	-192
▁this	-193
▁we	-194
ome	-195
ud	-196
pt	-197
ound	-198
ost	-199
all	-200
ust	-201
ance	-202
ect	-203
--	-204
iz	-205
ould	-206
are	-207
▁cont	-208
▁us	-209
gh	-210
our	-211
▁wor	-212
ue	-213
ag	-214
▁pl	-215
▁ad	-216
▁qu	-217
▁about	-218
▁not	-219
ical	-220
ard	-221
ak	-222
▁was	-223
▁Th	-224
xt	-225
▁Y	-226
anc	-227
age	-228
ide	-229
▁en	-230
▁per	-231
▁U	-232
ount	-233
▁res	-234
▁their	-235
orm	-236
ast	-237
ep	-238
▁In	-239
og	-240
ough	-241
▁have	-242
▁inc	-243
▁year	-244
cc	-245
▁im	-246
ual	-247
ated	-248
▁\\	-249
act	-250
ric	-251
▁whe	-252
▁k	-253
ell	-254
ong	-255
▁J	-256
ther	-257
du	-258
ber	-259
ks	-260
ip	-261
ap	-262
▁inv	-263
▁mon	-264
▁they	-265
ich	-266
▁te	-267
old	-268
ations	-269
ach	-270
ult	-271
▁+	-272
ans	-273
ff	-274
ous	-275
urn	-276
able	-277
▁do	-278
▁has	-279
▁all	-280
red	-281
▁ar	-282
form	-283
▁more	-284
any	-285
▁li	-286
▁go	-287
ert	-288
▁'	-289
ress	-290
▁will	-291
▁j	-292
▁un	-293
▁me	-294
▁which	-295
ime	-296
ame	-297
▁imp	-298
ie	-299
▁up	-300
ry	-301
▁new	-302
▁Rs	-303
ary	-304
▁St	-305
oo	-306
ase	-307
▁cl	-308
row	-309
ake	-310
av	-311
ments	-312
▁other	-313
▁acc	-314
▁invest	-315
▁dis	-316
pl	-317
▁quest	-318
ens	-319
▁prov	-320
▁one	-321
very	-322
ia	-323
ancial	-324
ark	-325
ib	-326
fere	-327
ru	-328
ign	-329
▁out	-330
▁so	-331
▁ret	-332
▁like	-333
ings	-334
oll	-335
▁into	-336
now	-337
ence	-338
vel	-339
ven	-340
ities	-341
',	-342
▁but	-343
▁than	-344
ile	-345
▁them	-346
▁inst	-347
▁sp	-348
ice	-349
▁financial	-350
▁how	-351
so	-352
arn	-353
ract	-354
▁form	-355
line	-356
ater	-357
ating	-358
▁As	-359
nder	-360
ors	-361
sw	-362
ces	-363
one	-364
ition	-365
▁This	-366
▁over	-367
▁dif	-368
▁It	-369
ang	-370
▁ass	-371
au	-372
▁am	-373
ons	-374
ail	-375
ass	-376
ond	-377
ative	-378
▁bec	-379
▁tw	-380
▁its	-381
▁x	-382
ack	-383
oin	-384
▁spe	-385
▁fe	-386
▁off	-387
▁ro	-388
ific	-389
rib	-390
▁*	-391
ction	-392
▁tra	-393
▁time	-394
▁app	-395
ents	-396
ates	-397
ays	-398
ire	-399
▁who	-400
----	-401
▁also	-402
king	-403
▁know	-404
▁em	-405
ful	-406
ord	-407
▁what	-408
▁return	-409
▁val	-410
ite	-411
▁pe	-412
▁these	-413
▁add	-414
rough	-415
▁if	-416
ne	-417
▁rec	-418
▁pric	-419
ub	-420
ise	-421
▁sc	-422
▁month	-423
▁Wh	-424
ose	-425
▁some	-426
▁cons	-427
▁Ch	-428
▁Re	-429
▁ind	-430
▁comm	-431
lp	-432
vers	-433
▁K	-434
▁need	-435
":	-436
▁bet	-437
ally	-438
▁tr	-439
▁under	-440
▁part	-441
▁answ	-442
ish	-443
▁any	-444
▁num	-445
ory	-446
ind	-447
▁years	-448
▁help	-449
erv	-450
▁when	-451
▁|	-452
ree	-453
ace	-454
▁our	-455
ild	-456
▁differe	-457
ove	-458
irst	-459
▁You	-460
ood	-461
▁would	-462
pect	-463
ts	-464
▁cre	-465
olog	-466
ob	-467
▁V	-468
lic	-469
▁his	-470
les	-471
aly	-472
lud	-473
▁ag	-474
▁head	-475
ople	-476
ased	-477
erson	-478
ics	-479
get	-480
te	-481
▁there	-482
▁bu	-483
▁may	-484
▁each	-485
▁pr	-486
ious	-487
▁act	-488
▁such	-489
▁rep	-490
▁ent	-491
iven	-492
▁sa	-493
▁spec	-494
▁grow	-495
ower	-496
erest	-497
erm	-498
ures	-499
▁rel	-500
▁inform	-501
per	-502
ll	-503
hen	-504
ax	-505
fter	-506
▁two	-507
▁pre	-508
ets	-509
ple	-510
▁pos	-511
we	-512
ause	-513
ribut	-514
▁her	-515
▁through	-516
▁cost	-517
▁How	-518
▁people	-519
oy	-520
ange	-521
uring	-522
▁were	-523
▁produ	-524
▁includ	-525
▁answer	-526
fit	-527
ener	-528
▁An	-529
ov	-530
▁[	-531
ock	-532
ility	-533
▁des	-534
▁every	-535
wn	-536
lect	-537
▁dec	-538
als	-539
oth	-540
ey	-541
▁sy	-542
▁headline	-543
own	-544
▁ins	-545
▁interest	-546
▁rate	-547
fore	-548
stand	-549
und	-550
▁first	-551
ian	-552
▁question	-553
▁use	-554
ren	-555
ph	-556
▁fl	-557
vent	-558
▁requ	-559
▁rem	-560
)^	-561
▁work	-562
▁i	-563
▁stud	-564
▁analy	-565
▁mark	-566
▁expert	-567
▁could	-568
▁ext	-569
tal	-570
ram	-571
rit	-572
ollow	-573
ata	-574
▁Com	-575
ook	-576
▁where	-577
▁price	-578
▁eff	-579
▁number	-580
▁Un	-581
▁equ	-582
ath	-583
▁He	-584
▁total	-585
▁Q	-586
ivid	-587
",	-588
enc	-589
▁compound	-590
▁Ne	-591
ward	-592
mer	-593
▁follow	-594
▁different	-595
ck	-596
▁sm	-597
▁provide	-598
▁had	-599
aking	-600
eth	-601
▁ra	-602
cess	-603
▁man	-604
alth	-605
▁If	-606
▁resp	-607
▁ris	-608
▁contribut	-609
▁inter	-610
▁she	-611
▁tal	-612
ral	-613
▁co	-614
▁value	-615
io	-616
ually	-617
▁long	-618
▁No	-619
▁information	-620
▁gr	-621
▁news	-622
▁find	-623
▁text	-624
▁learn	-625
ible	-626
▁real	-627
ption	-628
▁disc	-629
▁expl	-630
▁after	-631
▁because	-632
▁reg	-633
ily	-634
ject	-635
ft	-636
led	-637
ient	-638
▁result	-639
▁does	-640
ied	-641
▁sent	-642
sel	-643
ident	-644
).	-645
ween	-646
ern	-647
▁only	-648
▁money	-649
▁/	-650
▁mu	-651
▁ke	-652
▁my	-653
hed	-654
stem	-655
▁str	-656
▁inf	-657
▁while	-658
▁col	-659
imes	-660
▁gold	-661
▁between	-662
reat	-663
ever	-664
▁many	-665
▁should	-666
▁var	-667
▁no	-668
ather	-669
▁been	-670
▁poin	-671
ife	-672
ular	-673
chn	-674
▁using	-675
ting	-676
▁data	-677
▁questions	-678
▁det	-679
),	-680
ues	-681
ational	-682
▁finance	-683
gan	-684
▁ac	-685
hip	-686
erg	-687
▁cur	-688
▁What	-689
▁make	-690
ives	-691
velop	-692
▁person	-693
▁get	-694
ick	-695
▁trans	-696
▁pay	-697
▁pres	-698
▁Con	-699
cent	-700
ential	-701
▁exper	-702
oes	-703
▁So	-704
▁ph	-705
▁amount	-706
▁ann	-707
▁sec	-708
▁plan	-709
▁understand	-710
▁own	-711
▁incre	-712
▁exam	-713
▁just	-714
ars	-715
▁import	-716
▁bl	-717
▁growth	-718
▁provid	-719
con	-720
▁used	-721
▁given	-722
▁sub	-723
▁call	-724
iment	-725
▁instal	-726
▁–	-727
▁sol	-728
ience	-729
▁Pro	-730
ps	-731
▁world	-732
▁fund	-733
▁gener	-734
ict	-735
▁start	-736
▁well	-737
ices	-738
ited	-739
ool	-740
arg	-741
ink	-742
▁most	-743
▁much	-744
▁Al	-745
▁then	-746
▁sim	-747
hes	-748
ider	-749
▁They	-750
▁ty	-751
ade	-752
ten	-753
▁both	-754
▁even	-755
▁bel	-756
▁play	-757
▁sign	-758
▁same	-759
▁fut	-760
ution	-761
ize	-762
pport	-763
iss	-764
▁set	-765
▁Qu	-766
▁For	-767
▁system	-768
▁company	-769
▁Ex	-770
itive	-771
ized	-772
▁develop	-773
▁mat	-774
▁before	-775
iqu	-776
rac	-777
▁down	-778
▁talk	-779
ble	-780
▁back	-781
▁account	-782
▁techn	-783
▁high	-784
▁att	-785
▁som	-786
▁We	-787
ince	-788
▁investment	-789
▁top	-790
▁format	-791
▁end	-792
put	-793
ify	-794
▁]	-795
▁count	-796
▁market	-797
▁mod	-798
▁conc	-799
▁during	-800
ys	-801
▁che	-802
iness	-803
its	-804
cul	-805
▁serv	-806
ask	-807
▁Ad	-808
▁To	-809
ateg	-810
--------	-811
**	-812
ning	-813
▁tax	-814
▁health	-815
##	-816
ired	-817
li	-818
ants	-819
▁commun	-820
akes	-821
dition	-822
▁De	-823
▁day	-824
▁lead	-825
ank	-826
▁min	-827
▁**	-828
▁car	-829
▁sur	-830
▁address	-831
▁profit	-832
▁might	-833
▁adv	-834
meric	-835
▁ob	-836
▁Se	-837
ines	-838
nce	-839
oci	-840
other	-841
▁pur	-842
com	-843
▁following	-844
▁sentiment	-845
up	-846
▁br	-847
ze	-848
aw	-849
arm	-850
▁art	-851
▁said	-852
▁med	-853
▁When	-854
▁role	-855
ene	-856
inal	-857
day	-858
▁cor	-859
ivers	-860
estion	-861
▁New	-862
▁those	-863
."	-864
▁fam	-865
por	-866
ros	-867
▁share	-868
ology	-869
▁way	-870
ists	-871
▁appro	-872
ural	-873
ex	-874
ically	-875
ving	-876
ital	-877
▁see	-878
eng	-879
▁offer	-880
ng	-881
ends	-882
▁let	-883
▁bre	-884
▁Your	-885
▁again	-886
text	-887
▁pol	-888
▁cle	-889
chool	-890
▁Americ	-891
▁loc	-892
▁bus	-893
ered	-894
▁cal	-895
▁gu	-896
gg	-897
▁future	-898
▁dep	-899
▁hig	-900
▁care	-901
iving	-902
ON	-903
▁based	-904
▁Question	-905
▁ev	-906
conom	-907
ages	-908
ix	-909
ature	-910
▁main	-911
ism	-912
ins	-913
▁less	-914
ories	-915
▁fun	-916
ash	-917
▁However	-918
▁around	-919
▁read	-920
▁sk	-921
▁ear	-922
▁small	-923
▁life	-924
land	-925
ows	-926
▁fact	-927
▁Now	-928
▁pub	-929
▁step	-930
ember	-931
▁respons	-932
▁Does	-933
ustom	-934
▁why	-935
▁important	-936
eg	-937
▁\\[	-938
▁hist	-939
▁infl	-940
▁redu	-941
ced	-942
▁specific	-943
▁being	-944
venue	-945
ense	-946
bers	-947
rent	-948
ds	-949
ness	-950
▁\\]	-951
self	-952
ave	-953
▁percent	-954
over	-955
▁prog	-956
▁pot	-957
ruct	-958
▁comple	-959
iel	-960
▁found	-961
▁product	-962
▁assum	-963
▁By	-964
▁annual	-965
▁av	-966
▁Inc	-967
ability	-968
uc	-969
ptions	-970
▁dist	-971
▁aut	-972
▁ref	-973
▁take	-974
▁effect	-975
..	-976
▁instalment	-977
▁But	-978
imate	-979
iew	-980
air	-981
▁example	-982
arch	-983
▁right	-984
ploy	-985
▁deb	-986
▁process	-987
▁made	-988
▁rese	-989
▁Ext	-990
▁dra	-991
▁business	-992
▁task	-993
▁water	-994
▁These	-995
▁ca	-996
}{	-997
▁That	-998
▁There	-999
▁hum	-1000
ergy	-1001
▁gl	-1002
▁good	-1003
ves	-1004
▁term	-1005
oss	-1006
▁,	-1007
tern	-1008
▁\	-1009
▁name	-1010
ases	-1011
ved	-1012
▁better	-1013
▁sell	-1014
▁“	-1015
▁want	-1016
ividual	-1017
ead	-1018
▁higher	-1019
▁class	-1020
▁called	-1021
▁power	-1022
illion	-1023
▁child	-1024
tle	-1025
▁fri	-1026
▁ed	-1027
ted	-1028
frac	-1029
ork	-1030
▁Int	-1031
▁too	-1032
cept	-1033
▁lo	-1034
ouse	-1035
▁econom	-1036
▁custom	-1037
▁est	-1038
▁X	-1039
▁earn	-1040
▁points	-1041
ext	-1042
▁Extract	-1043
▁Im	-1044
▁individual	-1045
▁def	-1046
▁three	-1047
ledge	-1048
▁monthly	-1049
▁though	-1050
▁{	-1051
iod	-1052
arge	-1053
▁contin	-1054
▁risk	-1055
▁di	-1056
▁sal	-1057
▁feel	-1058
ization	-1059
nect	-1060
ety	-1061
▁chang	-1062
,"	-1063
▁pat	-1064
ertain	-1065
▁Comp	-1066
ross	-1067
ody	-1068
▁express	-1069
iron	-1070
▁state	-1071
ency	-1072
▁buy	-1073
▁within	-1074
▁past	-1075
▁revenue	-1076
▁present	-1077
▁net	-1078
▁nam	-1079
▁Yes	-1080
▁neg	-1081
cial	-1082
▁Let	-1083
ull	-1084
read	-1085
▁cent	-1086
▁One	-1087
▁calcul	-1088
▁hand	-1089
ique	-1090
▁ident	-1091
▁very	-1092
▁poss	-1093
▁lower	-1094
▁don	-1095
▁consider	-1096
sis	-1097
▁knowledge	-1098
ething	-1099
▁often	-1100
▁against	-1101
▁}	-1102
ains	-1103
▁did	-1104
▁gra	-1105
de	-1106
▁positive	-1107
SON	-1108
▁context	-1109
▁various	-1110
▁Ar	-1111
▁partic	-1112
▁Pl	-1113
▁including	-1114
ending	-1115
ways	-1116
ute	-1117
▁potential	-1118
▁create	-1119
▁prop	-1120
tt	-1121
▁something	-1122
blem	-1123
▁op	-1124
▁stock	-1125
▁now	-1126
uss	-1127
▁signific	-1128
ox	-1129
▁build	-1130
▁sl	-1131
▁months	-1132
▁perform	-1133
itions	-1134
asing	-1135
viron	-1136
ources	-1137
▁iss	-1138
way	-1139
▁invol	-1140
ences	-1141
▁vis	-1142
ional	-1143
ah	-1144
▁period	-1145
co	-1146
▁design	-1147
stit	-1148
▁keep	-1149
agine	-1150
oriz	-1151
▁Us	-1152
▁grou	-1153
▁aff	-1154
▁toget	-1155
▁together	-1156
ensive	-1157
▁cap	-1158
▁personal	-1159
▁without	-1160
▁lit	-1161
▁eng	-1162
▁report	-1163
▁accur	-1164
aterial	-1165
▁prot	-1166
▁prices	-1167
▁And	-1168
▁pop	-1169
▁rather	-1170
orn	-1171
▁problem	-1172
▁program	-1173
$.	-1174
ling	-1175
▁gover	-1176
▁Fr	-1177
▁sit	-1178
▁<	-1179
▁JSON	-1180
▁home	-1181
▁clear	-1182
ared	-1183
▁include	-1184
▁pract	-1185
▁&	-1186
▁level	-1187
ological	-1188
ivity	-1189
▁understanding	-1190
▁school	-1191
▁going	-1192
▁support	-1193
redit	-1194
▁.	-1195
irect	-1196
▁Ass	-1197
▁rele	-1198
▁food	-1199
▁del	-1200
bs	-1201
ocus	-1202
der	-1203
▁ap	-1204
▁due	-1205
▁public	-1206
▁insight	-1207
▁making	-1208
▁current	-1209
▁dem	-1210
▁results	-1211
▁govern	-1212
▁last	-1213
▁impro	-1214
ier	-1215
▁ens	-1216
▁change	-1217
aining	-1218
▁ser	-1219
▁cult	-1220
▁list	-1221
utral	-1222
ries	-1223
▁experi	-1224
▁happ	-1225
ances	-1226
▁upon	-1227
▁stand	-1228
wards	-1229
▁Step	-1230
▁oper	-1231
▁connect	-1232
less	-1233
▁typ	-1234
▁tre	-1235
be	-1236
▁conf	-1237
▁named	-1238
ention	-1239
▁dr	-1240
▁provided	-1241
▁init	-1242
▁learning	-1243
▁chall	-1244
▁analysis	-1245
▁required	-1246
▁Or	-1247
imal	-1248
▁significant	-1249
▁organ	-1250
ote	-1251
▁Ind	-1252
rel	-1253
ocial	-1254
ek	-1255
vironment	-1256
▁still	-1257
▁bene	-1258
▁employ	-1259
iversity	-1260
▁analyze	-1261
oring	-1262
els	-1263
▁Sh	-1264
ode	-1265
orpor	-1266
arget	-1267
ason	-1268
▁rat	-1269
angu	-1270
to	-1271
▁show	-1272
▁best	-1273
ters	-1274
▁accurate	-1275
▁must	-1276
ron	-1277
▁second	-1278
ision	-1279
▁means	-1280
▁Be	-1281
▁negative	-1282
▁hold	-1283
ty	-1284
▁debt	-1285
▁mean	-1286
nces	-1287
▁focus	-1288
inc	-1289
▁prom	-1290
▁another	-1291
▁draw	-1292
▁With	-1293
▁others	-1294
aring	-1295
▁impact	-1296
▁Sc	-1297
▁percentage	-1298
▁low	-1299
ined	-1300
▁pass	-1301
ified	-1302
lus	-1303
ived	-1304
ale	-1305
▁common	-1306
▁fore	-1307
▁fig	-1308
ills	-1309
verage	-1310
▁known	-1311
▁beh	-1312
▁large	-1313
▁char	-1314
▁mem	-1315
▁sing	-1316
▁expect	-1317
az	-1318
ining	-1319
▁mov	-1320
▁things	-1321
▁target	-1322
▁prof	-1323
▁sever	-1324
IP	-1325
▁run	-1326
▁body	-1327
▁income	-1328
▁think	-1329
oot	-1330
▁Fin	-1331
ris	-1332
▁American	-1333
ering	-1334
▁final	-1335
raph	-1336
▁],	-1337
▁"<	-1338
▁energy	-1339
▁aspect	-1340
▁neutral	-1341
▁ide	-1342
▁family	-1343
int	-1344
▁needs	-1345
▁him	-1346
▁study	-1347
▁short	-1348
▁allow	-1349
▁eas	-1350
▁purch	-1351
▁She	-1352
>>	-1353
ulation	-1354
▁elect	-1355
oh	-1356
▁gre	-1357
ccess	-1358
▁mus	-1359
▁several	-1360
▁research	-1361
▁topics	-1362
▁const	-1363
▁detail	-1364
by	-1365
▁key	-1366
▁costs	-1367
ished	-1368
▁Given	-1369
▁rece	-1370
▁Sp	-1371
▁mult	-1372
▁event	-1373
br	-1374
▁entities	-1375
▁look	-1376
mat	-1377
▁`	-1378
▁vari	-1379
ection	-1380
▁United	-1381
lish	-1382
▁credit	-1383
▁writ	-1384
▁land	-1385
▁relations	-1386
▁saf	-1387
▁unt	-1388
▁students	-1389
amp	-1390
▁open	-1391
▁avail	-1392
▁sil	-1393
ality	-1394
▁project	-1395
▁move	-1396
▁fac	-1397
ield	-1398
▁addresses	-1399
ann	-1400
▁indust	-1401
istant	-1402
▁direct	-1403
▁environment	-1404
▁responses	-1405
aj	-1406
ury	-1407
icle	-1408
▁formul	-1409
ilar	-1410
▁changes	-1411
▁worth	-1412
▁met	-1413
▁bal	-1414
▁access	-1415
duct	-1416
▁US	-1417
ware	-1418
▁certain	-1419
▁extensive	-1420
▁strateg	-1421
▁sha	-1422
ethod	-1423
ney	-1424
▁fil	-1425
▁unique	-1426
uro	-1427
▁##	-1428
▁Wor	-1429
▁rest	-1430
▁history	-1431
▁enough	-1432
▁Is	-1433
▁explore	-1434
▁orig	-1435
▁team	-1436
The	-1437
orizon	-1438
ides	-1439
▁among	-1440
▁try	-1441
ording	-1442
▁function	-1443
▁cour	-1444
year	-1445
▁repres	-1446
come	-1447
round	-1448
▁ve	-1449
▁belie	-1450
▁along	-1451
▁turn	-1452
ithm	-1453
▁contro	-1454
ner	-1455
▁doll	-1456
ooks	-1457
ee	-1458
▁come	-1459
▁leg	-1460
▁bro	-1461
▁po	-1462
▁place	-1463
▁ess	-1464
▁On	-1465
▁coin	-1466
▁become	-1467
▁meas	-1468
▁gain	-1469
ination	-1470
▁lab	-1471
▁determ	-1472
▁until	-1473
▁next	-1474
related	-1475
▁human	-1476
▁test	-1477
▁here	-1478
outh	-1479
ery	-1480
▁case	-1481
▁type	-1482
orts	-1483
ively	-1484
▁sum	-1485
ug	-1486
hens	-1487
▁friends	-1488
▁strong	-1489
▁available	-1490
etic	-1491
▁charact	-1492
▁langu	-1493
▁enc	-1494
▁ele	-1495
▁social	-1496
>",	-1497
err	-1498
crib	-1499
▁Cl	-1500
▁rates	-1501
▁since	-1502
iate	-1503
▁oil	-1504
▁material	-1505
▁loss	-1506
par	-1507
▁relationship	-1508
St	-1509
▁actually	-1510
▁manage	-1511
ior	-1512
▁Can	-1513
▁exact	-1514
fully	-1515
▁always	-1516
▁benefit	-1517
▁challeng	-1518
▁At	-1519
▁few	-1520
▁ratio	-1521
view	-1522
▁special	-1523
▁times	-1524
urther	-1525
▁today	-1526
med	-1527
ditionally	-1528
▁lim	-1529
▁educ	-1530
▁later	-1531
▁aspects	-1532
▁someone	-1533
▁Em	-1534
▁Med	-1535
▁ways	-1536
▁point	-1537
▁Res	-1538
▁near	-1539
▁job	-1540
ently	-1541
▁Ret	-1542
▁method	-1543
▁card	-1544
app	-1545
▁big	-1546
▁children	-1547
▁Eng	-1548
aut	-1549
▁great	-1550
omen	-1551
hers	-1552
▁comput	-1553
renc	-1554
▁kind	-1555
ocation	-1556
ium	-1557
ilities	-1558
▁air	-1559
cing	-1560
▁success	-1561
▁inflation	-1562
▁supp	-1563
▁across	-1564
▁CA	-1565
hor	-1566
ooking	-1567
▁law	-1568
here	-1569
▁million	-1570
▁experience	-1571
▁el	-1572
▁hour	-1573
ret	-1574
▁government	-1575
orth	-1576
▁early	-1577
▁ever	-1578
▁deep	-1579
▁associ	-1580
rodu	-1581
▁vol	-1582
▁old	-1583
▁light	-1584
▁invested	-1585
▁User	-1586
▁tool	-1587
▁possible	-1588
ats	-1589
ument	-1590
▁contribution	-1591
▁local	-1592
▁sav	-1593
▁compre	-1594
▁polic	-1595
▁expressed	-1596
▁Cons	-1597
▁technology	-1598
port	-1599
▁assumed	-1600
▁compounding	-1601
val	-1602
▁fre	-1603
▁Imagine	-1604
▁makes	-1605
▁categ	-1606
▁general	-1607
▁single	-1608
▁increase	-1609
work	-1610
▁above	-1611
ograph	-1612
▁horizon	-1613
ots	-1614
ames	-1615
▁development	-1616
▁initial	-1617
▁glob	-1618
▁divid	-1619
▁FV	-1620
▁Additionally	-1621
atures	-1622
▁bank	-1623
reet	-1624
verse	-1625
▁par	-1626
ems	-1627
RL	-1628
anks	-1629
man	-1630
▁After	-1631
iting	-1632
▁$\\	-1633
▁States	-1634
▁Person	-1635
▁occ	-1636
▁My	-1637
▁diff	-1638
▁user	-1639
▁situ	-1640
ton	-1641
▁Cent	-1642
▁request	-1643
▁appe	-1644
▁addition	-1645
oura	-1646
▁option	-1647
▁entity	-1648
etimes	-1649
▁port	-1650
▁complex	-1651
▁comb	-1652
izing	-1653
side	-1654
▁story	-1655
▁put	-1656
▁average	-1657
▁area	-1658
▁group	-1659
rec	-1660
▁reduce	-1661
▁jour	-1662
▁comprehens	-1663
▁discuss	-1664
▁numbers	-1665
▁:	-1666
umber	-1667
▁able	-1668
elf	-1669
▁mil	-1670
▁having	-1671
mon	-1672
isc	-1673
▁silver	-1674
the	-1675
anies	-1676
:**	-1677
ditions	-1678
▁funds	-1679
▁z	-1680
ogn	-1681
ina	-1682
ator	-1683
▁difference	-1684
for	-1685
▁week	-1686
▁usually	-1687
▁Return	-1688
atural	-1689
▁services	-1690
▁instead	-1691
thing	-1692
▁En	-1693
▁insightful	-1694
▁related	-1695
▁intern	-1696
▁say	-1697
▁Some	-1698
▁Context	-1699
▁caus	-1700
ohn	-1701
▁economic	-1702
▁stay	-1703
▁whole	-1704
▁All	-1705
▁Des	-1706
pportun	-1707
lusion	-1708
▁consum	-1709
▁bir	-1710
ik	-1711
▁everyone	-1712
atic	-1713
▁phys	-1714
▁hard	-1715
▁sold	-1716
ids	-1717
onse	-1718
ication	-1719
▁tem	-1720
vest	-1721
▁maint	-1722
▁compounds	-1723
rect	-1724
▁record	-1725
atch	-1726
▁comprehensive	-1727
ients	-1728
▁online	-1729
▁essential	-1730
▁options	-1731
▁treat	-1732
pr	-1733
▁protect	-1734
▁struct	-1735
▁vers	-1736
ormal	-1737
▁((	-1738
GR	-1739
▁answers	-1740
▁book	-1741
▁days	-1742
▁bas	-1743
▁profess	-1744
▁country	-1745
osed	-1746
arent	-1747
▁house	-1748
▁ask	-1749
▁customer	-1750
▁Z	-1751
▁affect	-1752
apter	-1753
▁es	-1754
rop	-1755
irc	-1756
▁First	-1757
aging	-1758
earch	-1759
▁compet	-1760
▁core	-1761
▁full	-1762
▁opportun	-1763
▁improve	-1764
▁works	-1765
▁helps	-1766
▁Te	-1767
▁activ	-1768
▁bo	-1769
▁Cal	-1770
fort	-1771
▁figure	-1772
----------------	-1773
▁multip	-1774
▁Ph	-1775
▁exc	-1776
▁Company	-1777
▁mag	-1778
▁Le	-1779
ued	-1780
▁close	-1781
//	-1782
▁doing	-1783
aily	-1784
▁University	-1785
ggest	-1786
▁extra	-1787
▁Col	-1788
of	-1789
▁Euro	-1790
▁four	-1791
▁John	-1792
▁similar	-1793
▁ensure	-1794
oose	-1795
▁resources	-1796
▁presented	-1797
▁larg	-1798
▁factors	-1799
▁Corpor	-1800
▁guid	-1801
▁balance	-1802
aves	-1803
urs	-1804
▁products	-1805
▁News	-1806
idd	-1807
sc	-1808
illed	-1809
rain	-1810
▁CAGR	-1811
▁give	-1812
▁post	-1813
://	-1814
aces	-1815
ajor	-1816
▁performance	-1817
▁working	-1818
▁order	-1819
▁Since	-1820
▁standard	-1821
▁response	-1822
ream	-1823
▁industry	-1824
▁language	-1825
$,	-1826
▁associated	-1827
▁represent	-1828
urity	-1829
▁SIP	-1830
asc	-1831
▁propert	-1832
oid	-1833
lement	-1834
▁Am	-1835
ici	-1836
▁While	-1837
yc	-1838
ME	-1839
▁pain	-1840
lex	-1841
▁estab	-1842
?"	-1843
ane	-1844
▁non	-1845
▁equity	-1846
ised	-1847
vant	-1848
omm	-1849
▁individuals	-1850
▁coins	-1851
▁concept	-1852
▁fall	-1853
__	-1854
enses	-1855
enced	-1856
acy	-1857
▁Su	-1858
▁community	-1859
enn	-1860
▁expertise	-1861
lying	-1862
▁free	-1863
▁bond	-1864
ration	-1865
▁particular	-1866
▁crit	-1867
▁values	-1868
▁instru	-1869
ferences	-1870
ocks	-1871
▁respect	-1872
▁break	-1873
▁cash	-1874
me	-1875
ably	-1876
imately	-1877
▁global	-1878
▁control	-1879
ained	-1880
aper	-1881
▁scient	-1882
▁towards	-1883
▁mar	-1884
lished	-1885
atives	-1886
▁influ	-1887
▁markets	-1888
ones	-1889
gin	-1890
▁living	-1891
▁abs	-1892
▁prob	-1893
▁dig	-1894
▁far	-1895
mber	-1896
▁--	-1897
▁reply	-1898
cost	-1899
ource	-1900
▁dev	-1901
▁matters	-1902
▁capital	-1903
ball	-1904
▁content	-1905
ding	-1906
▁suggest	-1907
▁pie	-1908
ission	-1909
▁sure	-1910
ored	-1911
joy	-1912
▁goal	-1913
▁skills	-1914
▁companies	-1915
▁five	-1916
iction	-1917
istic	-1918
aid	-1919
▁Bl	-1920
▁away	-1921
▁daily	-1922
▁young	-1923
▁sym	-1924
▁quick	-1925
▁dise	-1926
incip	-1927
▁NA	-1928
une	-1929
ising	-1930
▁Assistant	-1931
▁comes	-1932
▁expected	-1933
▁left	-1934
af	-1935
▁input	-1936
oms	-1937
rite	-1938
▁instalments	-1939
...	-1940
▁issues	-1941
▁cr	-1942
ended	-1943
selves	-1944
▁object	-1945
arr	-1946
▁investor	-1947
osp	-1948
icial	-1949
▁pred	-1950
▁systems	-1951
▁cell	-1952
▁sw	-1953
▁fav	-1954
▁sound	-1955
date	-1956
arter	-1957
▁stories	-1958
▁Europe	-1959
ables	-1960
cer	-1961
▁formula	-1962
▁bud	-1963
▁Reg	-1964
aster	-1965
ont	-1966
chie	-1967
▁collect	-1968
▁bi	-1969
ither	-1970
▁major	-1971
ai	-1972
rist	-1973
▁says	-1974
▁<<	-1975
▁returns	-1976
▁cho	-1977
▁author	-1978
▁further	-1979
▁demand	-1980
▁creating	-1981
▁charg	-1982
▁areas	-1983
▁shares	-1984
▁tri	-1985
apt	-1986
▁side	-1987
iver	-1988
▁contributed	-1989
▁histor	-1990
▁separ	-1991
arc	-1992
▁types	-1993
ancing	-1994
▁natural	-1995
▁May	-1996
▁words	-1997
ger	-1998
On	-1999
▁XB	-2000
▁#	-2001
▁App	-2002
▁XBRL	-2003
▁meet	-2004
pecial	-2005
▁colle	-2006
▁accounts	-2007
aken	-2008
▁city	-2009
▁compared	-2010
utes	-2011
▁terms	-2012
▁soci	-2013
ms	-2014
urance	-2015
rix	-2016
▁mind	-2017
oun	-2018
action	-2019
not	-2020
▁describ	-2021
▁model	-2022
▁solution	-2023
alf	-2024
▁polit	-2025
▁concise	-2026
▁ded	-2027
cut	-2028
▁coll	-2029
abor	-2030
▁applic	-2031
▁little	-2032
icult	-2033
▁challenges	-2034
▁needed	-2035
hold	-2036
▁remember	-2037
▁htt	-2038
▁gen	-2039
▁activities	-2040
times	-2041
ental	-2042
▁require	-2043
▁emb	-2044
▁AI	-2045
▁enjoy	-2046
▁Gr	-2047
nov	-2048
▁forward	-2049
▁original	-2050
▁self	-2051
ray	-2052
▁correct	-2053
▁soft	-2054
▁hours	-2055
▁meaning	-2056
▁increasing	-2057
▁Ear	-2058
icient	-2059
ips	-2060
ires	-2061
omes	-2062
erc	-2063
▁simple	-2064
ush	-2065
ixed	-2066
▁range	-2067
▁World	-2068
▁doc	-2069
▁least	-2070
standing	-2071
▁taking	-2072
olute	-2073
ples	-2074
▁countries	-2075
utions	-2076
▁base	-2077
box	-2078
ibility	-2079
▁beaut	-2080
hat	-2081
▁Tr	-2082
ges	-2083
ER	-2084
▁calculate	-2085
▁informative	-2086
ift	-2087
▁necess	-2088
▁allows	-2089
▁tell	-2090
ready	-2091
▁service	-2092
ctor	-2093
▁benefits	-2094
▁ones	-2095
aps	-2096
Only	-2097
▁achie	-2098
▁heart	-2099
▁conditions	-2100
▁arr	-2101
aged	-2102
ope	-2103
ply	-2104
▁Over	-2105
inating	-2106
ditional	-2107
▁women	-2108
▁approx	-2109
ird	-2110
▁space	-2111
▁hy	-2112
▁frequ	-2113
▁err	-2114
▁weight	-2115
▁National	-2116
▁Mar	-2117
▁course	-2118
lier	-2119
iation	-2120
right	-2121
ley	-2122
▁budget	-2123
▁sometimes	-2124
▁whether	-2125
%,	-2126
▁already	-2127
▁view	-2128
ios	-2129
▁compounded	-2130
▁Aust	-2131
▁convers	-2132
▁Af	-2133
ew	-2134
▁yourself	-2135
▁pers	-2136
▁management	-2137
ership	-2138
▁happen	-2139
▁anim	-2140
▁Comm	-2141
like	-2142
idence	-2143
▁princip	-2144
▁der	-2145
▁Sec	-2146
▁loan	-2147
▁recogn	-2148
inks	-2149
▁prim	-2150
lease	-2151
ison	-2152
fer	-2153
▁Tw	-2154
▁series	-2155
▁sun	-2156
rap	-2157
▁Under	-2158
▁ey	-2159
▁equal	-2160
▁travel	-2161
▁Have	-2162
▁throughout	-2163
▁Me	-2164
overed	-2165
▁expenses	-2166
▁character	-2167
▁game	-2168
▁experiences	-2169
▁love	-2170
▁consist	-2171
▁became	-2172
▁mom	-2173
ators	-2174
▁friend	-2175
▁likely	-2176
▁events	-2177
▁never	-2178
▁line	-2179
light	-2180
ring	-2181
▁circ	-2182
▁relevant	-2183
▁members	-2184
ags	-2185
▁code	-2186
▁press	-2187
ole	-2188
▁building	-2189
)^(	-2190
▁books	-2191
▁reason	-2192
dom	-2193
▁Through	-2194
ok	-2195
ands	-2196
augh	-2197
rict	-2198
▁below	-2199
imum	-2200
▁wond	-2201
▁twe	-2202
olution	-2203
▁prevent	-2204
▁max	-2205
▁yet	-2206
▁check	-2207
let	-2208
sh	-2209
▁longer	-2210
▁ru	-2211
▁journey	-2212
▁exist	-2213
▁Instit	-2214
▁entire	-2215
▁increased	-2216
▁concern	-2217
▁valu	-2218
▁investments	-2219
▁difficult	-2220
▁music	-2221
vious	-2222
▁age	-2223
▁Consider	-2224
ipp	-2225
▁equation	-2226
ott	-2227
▁sales	-2228
aim	-2229
▁thought	-2230
▁shows	-2231
▁levels	-2232
ample	-2233
▁Answ	-2234
▁measure	-2235
▁dollars	-2236
▁rises	-2237
▁live	-2238
▁pattern	-2239
▁popular	-2240
▁mach	-2241
▁billion	-2242
oon	-2243
▁lives	-2244
.,	-2245
▁Bob	-2246
▁win	-2247
▁situation	-2248
▁behav	-2249
▁Sy	-2250
Stock	-2251
▁regard	-2252
ilt	-2253
▁itself	-2254
anced	-2255
▁education	-2256
▁Bi	-2257
▁exactly	-2258
ithmetic	-2259
ength	-2260
▁ste	-2261
otal	-2262
▁fasc	-2263
iques	-2264
term	-2265
▁ill	-2266
▁remaining	-2267
▁arithmetic	-2268
▁Answer	-2269
oted	-2270
▁Read	-2271
▁looking	-2272
fl	-2273
▁sense	-2274
▁Pe	-2275
▁Just	-2276
▁mention	-2277
isions	-2278
cks	-2279
ules	-2280
▁ge	-2281
▁experienced	-2282
state	-2283
pro	-2284
▁seem	-2285
▁emot	-2286
▁join	-2287
▁Rem	-2288
▁fram	-2289
▁apprec	-2290
▁et	-2291
▁cause	-2292
▁according	-2293
▁cru	-2294
hicle	-2295
▁regular	-2296
▁webs	-2297
pecially	-2298
▁Gener	-2299
▁foot	-2300
▁really	-2301
▁Here	-2302
uries	-2303
uct	-2304
step	-2305
eter	-2306
▁encoura	-2307
▁carefully	-2308
▁Invest	-2309
eral	-2310
▁tools	-2311
count	-2312
▁started	-2313
▁either	-2314
my	-2315
▁effective	-2316
boxed	-2317
▁ant	-2318
unt	-2319
▁selling	-2320
▁policy	-2321
▁idea	-2322
ival	-2323
inary	-2324
▁exploring	-2325
▁parent	-2326
▁div	-2327
▁emerg	-2328
▁problems	-2329
▁Cre	-2330
▁cut	-2331
nam	-2332
▁Time	-2333
".	-2334
▁Car	-2335
▁Sub	-2336
new	-2337
▁Well	-2338
▁trade	-2339
aries	-2340
▁engine	-2341
▁From	-2342
inking	-2343
▁overall	-2344
▁exch	-2345
Gold	-2346
▁Canad	-2347
▁choose	-2348
▁flow	-2349
▁Brit	-2350
▁doesn	-2351
▁species	-2352
▁plant	-2353
▁asset	-2354
▁contribute	-2355
▁Dr	-2356
ming	-2357
▁Pr	-2358
▁South	-2359
sy	-2360
ifying	-2361
▁indic	-2362
▁taken	-2363
▁provides	-2364
▁exce	-2365
vert	-2366
▁nature	-2367
pite	-2368
▁innov	-2369
▁assets	-2370
hy	-2371
▁additional	-2372
▁Alice	-2373
▁insurance	-2374
▁insp	-2375
osing	-2376
though	-2377
%.	-2378
▁begin	-2379
omp	-2380
eds	-2381
▁Once	-2382
▁medical	-2383
ominal	-2384
oman	-2385
▁pri	-2386
▁belong	-2387
▁earlier	-2388
▁Man	-2389
▁America	-2390
ster	-2391
▁Gold	-2392
▁town	-2393
reen	-2394
str	-2395
▁path	-2396
▁half	-2397
▁quickly	-2398
▁especially	-2399
▁contract	-2400
▁detailed	-2401
iable	-2402
▁recomm	-2403
▁unit	-2404
▁mot	-2405
▁Christ	-2406
▁Count	-2407
▁vir	-2408
min	-2409
rency	-2410
▁customers	-2411
ided	-2412
▁Cont	-2413
▁leading	-2414
▁field	-2415
▁integ	-2416
▁reach	-2417
ately	-2418
▁once	-2419
▁opt	-2420
▁communities	-2421
▁arg	-2422
▁Sim	-2423
▁particip	-2424
▁Acc	-2425
▁animals	-2426
face	-2427
use	-2428
▁wal	-2429
▁Co	-2430
▁North	-2431
▁opportunities	-2432
▁War	-2433
▁)	-2434
▁modern	-2435
acks	-2436
elt	-2437
▁bring	-2438
▁purp	-2439
▁science	-2440
oses	-2441
▁property	-2442
▁uses	-2443
▁strategies	-2444
▁Ge	-2445
ried	-2446
raft	-2447
▁phot	-2448
▁guidance	-2449
▁capt	-2450
cri	-2451
▁recent	-2452
▁complete	-2453
▁quarter	-2454
erve	-2455
olit	-2456
▁rad	-2457
▁conclusion	-2458
▁physical	-2459
▁multiple	-2460
▁safe	-2461
▁Up	-2462
▁economy	-2463
▁advis	-2464
▁Afric	-2465
ches	-2466
▁determine	-2467
▁wind	-2468
cast	-2469
▁implement	-2470
▁obs	-2471
akh	-2472
▁mess	-2473
▁Act	-2474
▁approach	-2475
▁steps	-2476
▁materials	-2477
ternal	-2478
▁liter	-2479
▁His	-2480
▁Chapter	-2481
matrix	-2482
▁favor	-2483
▁starting	-2484
▁valuable	-2485
▁plants	-2486
▁ce	-2487
▁death	-2488
▁super	-2489
▁Organ	-2490
▁contributions	-2491
▁groups	-2492
▁spread	-2493
▁men	-2494
▁Germ	-2495
▁temper	-2496
▁running	-2497
▁repl	-2498
▁famil	-2499
ike	-2500
▁dom	-2501
▁Austral	-2502
▁production	-2503
▁wa	-2504
▁Food	-2505
▁savings	-2506
▁avoid	-2507
oup	-2508
ender	-2509
▁parts	-2510
▁Hist	-2511
cd	-2512
reng	-2513
fect	-2514
▁Intern	-2515
▁fair	-2516
▁computer	-2517
▁Tra	-2518
ees	-2519
▁harm	-2520
▁fascinating	-2521
yle	-2522
▁techniques	-2523
▁priv	-2524
son	-2525
▁cannot	-2526
chan	-2527
▁deal	-2528
▁regul	-2529
▁sens	-2530
▁word	-2531
▁disease	-2532
lied	-2533
just	-2534
):	-2535
NA	-2536
▁Inst	-2537
▁traditional	-2538
▁prep	-2539
▁thing	-2540
▁References	-2541
ler	-2542
ured	-2543
▁accept	-2544
▁sources	-2545
▁lay	-2546
▁School	-2547
▁businesses	-2548
▁behind	-2549
▁blood	-2550
▁vide	-2551
▁error	-2552
▁crucial	-2553
▁More	-2554
▁held	-2555
▁$\\$	-2556
▁takes	-2557
ony	-2558
▁sust	-2559
▁Ro	-2560
▁white	-2561
▁ground	-2562
▁began	-2563
ma	-2564
itle	-2565
▁review	-2566
ields	-2567
mit	-2568
atory	-2569
▁stru	-2570
ification	-2571
▁payment	-2572
▁Ab	-2573
▁created	-2574
▁growing	-2575
▁color	-2576
▁Op	-2577
▁length	-2578
▁ten	-2579
▁West	-2580
▁researc	-2581
▁introdu	-2582
▁items	-2583
▁constant	-2584
▁minutes	-2585
▁Fl	-2586
▁red	-2587
▁decision	-2588
▁practice	-2589
▁Rep	-2590
▁worked	-2591
▁marg	-2592
▁came	-2593
▁Earth	-2594
▁won	-2595
▁took	-2596
ump	-2597
▁goals	-2598
▁seen	-2599
elcome	-2600
▁reflect	-2601
ung	-2602
pmatrix	-2603
▁paper	-2604
▁offers	-2605
care	-2606
▁label	-2607
▁frame	-2608
ians	-2609
▁true	-2610
uel	-2611
▁imm	-2612
▁Corporation	-2613
▁cool	-2614
▁necessary	-2615
▁topic	-2616
▁continue	-2617
▁log	-2618
tract	-2619
▁taxes	-2620
artment	-2621
▁providing	-2622
▁players	-2623
▁programs	-2624
oud	-2625
▁categories	-2626
▁produce	-2627
▁consid	-2628
▁themselves	-2629
▁``	-2630
▁done	-2631
▁expense	-2632
▁dive	-2633
▁attention	-2634
ww	-2635
▁save	-2636
▁Dep	-2637
▁fixed	-2638
wor	-2639
▁lakh	-2640
fol	-2641
▁includes	-2642
go	-2643
▁den	-2644
utput	-2645
ging	-2646
▁dam	-2647
▁streng	-2648
}$	-2649
irl	-2650
▁Her	-2651
▁night	-2652
▁historical	-2653
▁teac	-2654
▁Change	-2655
based	-2656
▁paid	-2657
▁Alex	-2658
arrow	-2659
▁continu	-2660
▁position	-2661
▁student	-2662
▁compar	-2663
▁healthy	-2664
▁Pre	-2665
sequ	-2666
▁Not	-2667
▁statement	-2668
▁Do	-2669
▁isn	-2670
ese	-2671
oved	-2672
street	-2673
▁Each	-2674
country	-2675
umb	-2676
▁Tod	-2677
▁everything	-2678
aste	-2679
▁Central	-2680
▁ability	-2681
▁security	-2682
▁Expl	-2683
cember	-2684
su	-2685
▁elements	-2686
▁media	-2687
▁https	-2688
ached	-2689
▁English	-2690
▁features	-2691
▁approximately	-2692
time	-2693
aving	-2694
▁else	-2695
▁face	-2696
▁miss	-2697
city	-2698
▁imagine	-2699
▁mort	-2700
▁population	-2701
▁York	-2702
apart	-2703
▁Section	-2704
▁issue	-2705
head	-2706
▁compon	-2707
▁getting	-2708
▁culture	-2709
no	-2710
cdot	-2711
▁purchasing	-2712
▁previous	-2713
ublic	-2714
▁subject	-2715
▁stocks	-2716
▁```	-2717
ume	-2718
▁Option	-2719
▁Pres	-2720
▁practices	-2721
▁digital	-2722
ales	-2723
▁teach	-2724
▁Gu	-2725
▁Ve	-2726
▁built	-2727
▁involved	-2728
▁Dise	-2729
iful	-2730
orrow	-2731
AN	-2732
ground	-2733
▁distribut	-2734
▁advent	-2735
▁Two	-2736
▁communication	-2737
▁warm	-2738
eb	-2739
▁action	-2740
▁quality	-2741
▁Then	-2742
ormalized	-2743
▁anc	-2744
hing	-2745
.”	-2746
▁store	-2747
hern	-2748
apan	-2749
ape	-2750
▁involves	-2751
▁software	-2752
▁State	-2753
▁gap	-2754
agn	-2755
▁green	-2756
▁bat	-2757
actions	-2758
▁stra	-2759
▁rights	-2760
▁II	-2761
ef	-2762
▁matter	-2763
▁added	-2764
**:	-2765
▁methods	-2766
▁stat	-2767
epend	-2768
▁activity	-2769
▁Mark	-2770
▁emp	-2771
▁absolute	-2772
▁wants	-2773
▁squ	-2774
ores	-2775
▁aim	-2776
OB	-2777
ctions	-2778
▁considered	-2779
ites	-2780
▁Today	-2781
pper	-2782
▁Met	-2783
mediate	-2784
▁clean	-2785
▁plat	-2786
▁aud	-2787
lo	-2788
▁differences	-2789
riate	-2790
▁Product	-2791
▁spending	-2792
▁document	-2793
▁lot	-2794
▁environmental	-2795
uf	-2796
▁official	-2797
▁mentioned	-2798
▁decisions	-2799
▁mor	-2800
▁pict	-2801
arily	-2802
ises	-2803
▁birth	-2804
inion	-2805
ologies	-2806
▁Stud	-2807
▁rent	-2808
▁filled	-2809
▁larger	-2810
gor	-2811
▁sustain	-2812
▁Event	-2813
▁links	-2814
▁climate	-2815
formed	-2816
RE	-2817
▁compare	-2818
▁la	-2819
▁Plant	-2820
▁collabor	-2821
▁Media	-2822
▁yes	-2823
▁led	-2824
▁details	-2825
An	-2826
number	-2827
▁season	-2828
▁reducing	-2829
post	-2830
▁shap	-2831
▁claim	-2832
▁wide	-2833
▁adding	-2834
▁Remember	-2835
▁decided	-2836
lt	-2837
ference	-2838
▁Understanding	-2839
▁exerc	-2840
<<	-2841
bal	-2842
▁Why	-2843
osen	-2844
ged	-2845
▁importance	-2846
▁ut	-2847
▁inside	-2848
▁Therefore	-2849
▁went	-2850
iddle	-2851
▁prior	-2852
nel	-2853
▁trying	-2854
▁international	-2855
▁establish	-2856
IN	-2857
▁relig	-2858
ounding	-2859
▁maintain	-2860
▁Disease	-2861
▁flat	-2862
ID	-2863
▁sat	-2864
▁structure	-2865
▁Japan	-2866
asks	-2867
emic	-2868
▁deg	-2869
ST	-2870
▁six	-2871
▁acqu	-2872
uck	-2873
▁sentence	-2874
▁rules	-2875
quest	-2876
▁strugg	-2877
▁discover	-2878
house	-2879
▁researchers	-2880
▁Many	-2881
▁occur	-2882
▁commit	-2883
ression	-2884
uity	-2885
ought	-2886
▁Cour	-2887
▁produced	-2888
▁third	-2889
▁size	-2890
oard	-2891
bon	-2892
▁cover	-2893
▁nominal	-2894
▁supply	-2895
▁website	-2896
urch	-2897
▁decre	-2898
▁effects	-2899
▁patterns	-2900
▁deriv	-2901
▁diverse	-2902
▁soon	-2903
▁war	-2904
folio	-2905
ography	-2906
ening	-2907
bt	-2908
ched	-2909
▁Our	-2910
izes	-2911
▁powerful	-2912
iciency	-2913
▁beautiful	-2914
▁visit	-2915
▁games	-2916
gen	-2917
▁depos	-2918
▁King	-2919
iring	-2920
reg	-2921
den	-2922
▁Options	-2923
▁song	-2924
▁nut	-2925
urb	-2926
▁limit	-2927
▁exchange	-2928
▁cultural	-2929
izations	-2930
▁During	-2931
▁rise	-2932
istance	-2933
▁received	-2934
▁operations	-2935
▁gas	-2936
▁Mon	-2937
▁lat	-2938
▁tags	-2939
▁behavior	-2940
▁holding	-2941
▁shared	-2942
▁earnings	-2943
▁reading	-2944
▁believe	-2945
▁society	-2946
▁Organization	-2947
▁eth	-2948
ivil	-2949
▁ball	-2950
▁assumption	-2951
▁legal	-2952
▁typically	-2953
avig	-2954
▁identify	-2955
▁Per	-2956
▁bad	-2957
rown	-2958
▁track	-2959
▁enh	-2960
▁safety	-2961
▁professional	-2962
▁outcome	-2963
▁currency	-2964
▁prec	-2965
▁outside	-2966
▁risks	-2967
▁hab	-2968
rom	-2969
▁Che	-2970
most	-2971
pping	-2972
▁article	-2973
▁century	-2974
']	-2975
mentary	-2976
pped	-2977
gorithm	-2978
rad	-2979
aches	-2980
▁achieve	-2981
▁political	-2982
▁humans	-2983
▁trust	-2984
▁leave	-2985
▁camp	-2986
icles	-2987
▁Health	-2988
▁playing	-2989
▁quoted	-2990
▁solve	-2991
ille	-2992
ederal	-2993
▁Welcome	-2994
erous	-2995
▁Animal	-2996
reas	-2997
▁smo	-2998
▁Head	-2999
▁designed	-3000
▁Finally	-3001
bol	-3002
▁contact	-3003
▁agree	-3004
rug	-3005
▁parents	-3006
ae	-3007
▁approp	-3008
▁Please	-3009
▁pack	-3010
▁perspect	-3011
▁bar	-3012
▁learned	-3013
▁farm	-3014
▁transport	-3015
▁cells	-3016
gold	-3017
▁autom	-3018
elest	-3019
astic	-3020
rencies	-3021
imize	-3022
back	-3023
SA	-3024
sim	-3025
▁NAME	-3026
▁Bu	-3027
▁subtract	-3028
▁relationships	-3029
▁bey	-3030
▁efficient	-3031
▁Rec	-3032
▁•	-3033
illing	-3034
▁separate	-3035
▁beyond	-3036
org	-3037
acro	-3038
ops	-3039
nown	-3040
▁mortg	-3041
▁cancer	-3042
ching	-3043
▁trend	-3044
plified	-3045
▁Part	-3046
▁allowing	-3047
▁Ag	-3048
▁site	-3049
▁allocation	-3050
▁British	-3051
▁asked	-3052
▁simply	-3053
▁amounts	-3054
▁directly	-3055
▁purchase	-3056
ibr	-3057
▁treatment	-3058
value	-3059
Person	-3060
▁advisor	-3061
▁ideas	-3062
▁dollar	-3063
);	-3064
hood	-3065
▁versus	-3066
lebr	-3067
elestial	-3068
▁planning	-3069
▁County	-3070
▁chosen	-3071
ude	-3072
▁platform	-3073
▁users	-3074
bum	-3075
▁late	-3076
▁Location	-3077
▁arch	-3078
▁written	-3079
itor	-3080
iny	-3081
▁heard	-3082
▁perfect	-3083
irm	-3084
wise	-3085
iet	-3086
▁unc	-3087
,”	-3088
▁Find	-3089
rast	-3090
▁altern	-3091
ana	-3092
▁national	-3093
▁estim	-3094
▁hon	-3095
▁efforts	-3096
▁bread	-3097
▁rob	-3098
▁cases	-3099
▁Myth	-3100
▁characters	-3101
▁Jan	-3102
▁####	-3103
▁fail	-3104
AR	-3105
▁contain	-3106
▁fish	-3107
▁easy	-3108
▁gains	-3109
postal	-3110
▁surround	-3111
▁bur	-3112
▁apply	-3113
▁moment	-3114
▁futures	-3115
▁instance	-3116
wh	-3117
▁brain	-3118
▁scen	-3119
anging	-3120
nal	-3121
▁sharing	-3122
▁tasks	-3123
▁investing	-3124
oming	-3125
iam	-3126
▁adult	-3127
▁search	-3128
▁extract	-3129
▁IOB	-3130
▁Prov	-3131
▁demon	-3132
▁ago	-3133
▁Mr	-3134
▁charges	-3135
▁chem	-3136
▁paying	-3137
▁scientists	-3138
SS	-3139
▁portfolio	-3140
ustr	-3141
▁Institution	-3142
ister	-3143
▁Ke	-3144
▁analyst	-3145
mar	-3146
▁Art	-3147
▁mass	-3148
▁Par	-3149
In	-3150
▁Vehicle	-3151
▁promot	-3152
▁Personal	-3153
▁source	-3154
▁['	-3155
▁units	-3156
▁See	-3157
icro	-3158
▁training	-3159
▁adjust	-3160
ager	-3161
alu	-3162
▁conversation	-3163
AD	-3164
▁employees	-3165
▁select	-3166
▁heav	-3167
ously	-3168
▁fost	-3169
▁adapt	-3170
▁kids	-3171
▁index	-3172
▁responsible	-3173
▁Biological	-3174
▁machine	-3175
▁critical	-3176
▁didn	-3177
AT	-3178
▁solutions	-3179
▁algorithm	-3180
olid	-3181
▁observ	-3182
▁$\	-3183
egin	-3184
ightly	-3185
▁electric	-3186
asons	-3187
aced	-3188
che	-3189
▁receive	-3190
oughly	-3191
iforn	-3192
▁feed	-3193
▁box	-3194
▁favorite	-3195
▁—	-3196
▁states	-3197
▁afford	-3198
▁region	-3199
Comp	-3200
play	-3201
resh	-3202
▁Sm	-3203
▁aware	-3204
rong	-3205
cl	-3206
oor	-3207
▁Finance	-3208
▁greater	-3209
arnings	-3210
▁Thus	-3211
EN	-3212
▁remain	-3213
▁hous	-3214
▁got	-3215
▁Br	-3216
istics	-3217
▁navig	-3218
▁appear	-3219
▁video	-3220
omin	-3221
▁insights	-3222
▁etc	-3223
ufact	-3224
▁career	-3225
▁rev	-3226
▁Ed	-3227
iers	-3228
▁dat	-3229
▁bra	-3230
▁ing	-3231
▁instit	-3232
▁proper	-3233
▁Will	-3234
▁distin	-3235
ara	-3236
ellow	-3237
▁played	-3238
▁Create	-3239
▁People	-3240
▁Sw	-3241
▁requires	-3242
▁Their	-3243
▁stress	-3244
oration	-3245
▁broad	-3246
sych	-3247
ifornia	-3248
▁mechan	-3249
▁Move	-3250
▁dest	-3251
iol	-3252
▁spir	-3253
aur	-3254
▁feet	-3255
pected	-3256
▁suff	-3257
era	-3258
life	-3259
▁date	-3260
ruction	-3261
▁Celestial	-3262
▁buying	-3263
amb	-3264
||	-3265
▁hur	-3266
▁places	-3267
▁healthcare	-3268
▁Ju	-3269
▁pressure	-3270
▁wild	-3271
▁appropriate	-3272
▁black	-3273
▁Mythological	-3274
▁payments	-3275
ellig	-3276
▁finding	-3277
▁bonds	-3278
▁Other	-3279
▁writing	-3280
abilities	-3281
ighb	-3282
▁table	-3283
▁staying	-3284
▁Material	-3285
simplified	-3286
▁cit	-3287
▁June	-3288
▁Har	-3289
▁dividend	-3290
▁Oil	-3291
▁trading	-3292
▁policies	-3293
▁High	-3294
▁conduct	-3295
▁moving	-3296
▁Total	-3297
oz	-3298
▁successful	-3299
equ	-3300
▁surface	-3301
▁derivative	-3302
▁sells	-3303
▁exe	-3304
▁engage	-3305
▁City	-3306
▁celebr	-3307
▁however	-3308
▁opp	-3309
▁hot	-3310
▁output	-3311
▁discovered	-3312
▁located	-3313
▁dy	-3314
▁fru	-3315
▁progress	-3316
▁December	-3317
▁network	-3318
▁write	-3319
▁Every	-3320
▁strategy	-3321
▁hope	-3322
▁rout	-3323
uary	-3324
fs	-3325
▁fields	-3326
▁sett	-3327
bert	-3328
elling	-3329
▁poll	-3330
▁forms	-3331
▁advant	-3332
▁thinking	-3333
oph	-3334
ouble	-3335
▁mortgage	-3336
▁demonstr	-3337
▁largest	-3338
yth	-3339
more	-3340
.'	-3341
▁email	-3342
▁nothing	-3343
▁pieces	-3344
leep	-3345
▁Go	-3346
▁thr	-3347
▁follows	-3348
ension	-3349
▁projects	-3350
▁sn	-3351
formation	-3352
▁dog	-3353
▁India	-3354
ha	-3355
▁probability	-3356
Does	-3357
▁California	-3358
▁slow	-3359
▁studies	-3360
▁China	-3361
▁shar	-3362
▁Note	-3363
▁Banks	-3364
▁basic	-3365
▁regarding	-3366
▁cook	-3367
▁External	-3368
eks	-3369
name	-3370
▁predict	-3371
▁room	-3372
▁novel	-3373
ounds	-3374
▁Research	-3375
raw	-3376
▁components	-3377
▁Id	-3378
▁gives	-3379
▁earned	-3380
minist	-3381
▁Canada	-3382
▁incred	-3383
▁Gl	-3384
uman	-3385
▁lived	-3386
where	-3387
▁Request	-3388
▁Off	-3389
set	-3390
lev	-3391
▁banks	-3392
itary	-3393
▁purpose	-3394
cking	-3395
▁Min	-3396
▁Materials	-3397
▁shape	-3398
▁Red	-3399
▁cat	-3400
isf	-3401
▁plans	-3402
▁schools	-3403
▁reported	-3404
ads	-3405
▁investors	-3406
▁album	-3407
▁instruments	-3408
cos	-3409
▁developed	-3410
▁Techn	-3411
▁evidence	-3412
stances	-3413
ptember	-3414
▁Don	-3415
▁independ	-3416
▁lif	-3417
icate	-3418
▁film	-3419
▁told	-3420
▁brok	-3421
▁lost	-3422
▁generally	-3423
▁efficiency	-3424
▁wanted	-3425
Right	-3426
reme	-3427
ifically	-3428
▁miles	-3429
▁Movement	-3430
lection	-3431
▁connections	-3432
▁Dis	-3433
▁visual	-3434
▁International	-3435
▁identif	-3436
aff	-3437
▁foreign	-3438
▁advice	-3439
▁phone	-3440
▁ver	-3441
▁expand	-3442
▁retire	-3443
▁currently	-3444
IC	-3445
▁Headline	-3446
lands	-3447
▁frequency	-3448
ards	-3449
En	-3450
rench	-3451
▁European	-3452
egal	-3453
gar	-3454
uments	-3455
ners	-3456
aling	-3457
▁Lever	-3458
▁published	-3459
▁According	-3460
▁veget	-3461
▁families	-3462
▁neighb	-3463
▁helping	-3464
azing	-3465
porary	-3466
▁conver	-3467
\\%	-3468
▁figures	-3469
▁relative	-3470
▁ord	-3471
▁smaller	-3472
enge	-3473
left	-3474
▁sche	-3475
▁symbol	-3476
eff	-3477
idge	-3478
phas	-3479
odies	-3480
▁assess	-3481
▁comfort	-3482
▁God	-3483
▁initi	-3484
_{	-3485
ether	-3486
▁condition	-3487
down	-3488
airs	-3489
▁borrow	-3490
ils	-3491
▁Another	-3492
▁becomes	-3493
AL	-3494
olitics	-3495
▁caused	-3496
▁Cur	-3497
OR	-3498
rig	-3499
▁significantly	-3500
▁Second	-3501
▁influence	-3502
math	-3503
alyst	-3504
▁salary	-3505
▁comparison	-3506
▁cand	-3507
licit	-3508
▁spent	-3509
cean	-3510
Rightarrow	-3511
▁weeks	-3512
hel	-3513
▁piece	-3514
▁manufact	-3515
▁mental	-3516
▁margin	-3517
ividend	-3518
▁established	-3519
▁evalu	-3520
▁El	-3521
▁Emily	-3522
informed	-3523
▁medic	-3524
▁formulate	-3525
vey	-3526
▁forest	-3527
ades	-3528
▁feeling	-3529
▁measures	-3530
▁variety	-3531
▁goes	-3532
▁norm	-3533
ords	-3534
▁central	-3535
ky	-3536
▁examples	-3537
▁particularly	-3538
ama	-3539
▁East	-3540
▁easily	-3541
▁heat	-3542
empt	-3543
omet	-3544
▁watch	-3545
▁primary	-3546
▁instrument	-3547
ibly	-3548
lies	-3549
▁Leverage	-3550
ython	-3551
comes	-3552
▁fire	-3553
▁developing	-3554
▁March	-3555
▁anything	-3556
roduction	-3557
ino	-3558
▁Pol	-3559
▁note	-3560
▁Aug	-3561
▁Cost	-3562
▁ancient	-3563
▁Sam	-3564
▁marketing	-3565
▁vo	-3566
▁member	-3567
▁stated	-3568
▁Char	-3569
▁incorpor	-3570
▁Debt	-3571
ague	-3572
▁trees	-3573
▁clos	-3574
▁felt	-3575
Cur	-3576
▁vill	-3577
▁Commentary	-3578
▁fees	-3579
Company	-3580
▁Update	-3581
▁concepts	-3582
▁images	-3583
▁actions	-3584
▁classify	-3585
iar	-3586
▁ful	-3587
▁surv	-3588
▁da	-3589
▁Even	-3590
▁drug	-3591
▁fight	-3592
▁straight	-3593
▁tour	-3594
▁models	-3595
▁Trans	-3596
▁deeper	-3597
▁setting	-3598
▁included	-3599
▁Use	-3600
▁sides	-3601
icip	-3602
▁wrong	-3603
urg	-3604
▁Exp	-3605
▁Instead	-3606
▁remains	-3607
▁investig	-3608
ervation	-3609
▁thous	-3610
▁libr	-3611
redients	-3612
▁Take	-3613
known	-3614
II	-3615
ctors	-3616
▁fem	-3617
Gener	-3618
▁limited	-3619
▁Unit	-3620
▁threat	-3621
▁applications	-3622
wide	-3623
▁Mus	-3624
▁Opinion	-3625
▁bit	-3626
mary	-3627
Mark	-3628
▁\\$	-3629
pre	-3630
mb	-3631
▁managed	-3632
▁slightly	-3633
▁History	-3634
▁Using	-3635
▁continued	-3636
▁Sar	-3637
▁ice	-3638
▁helpful	-3639
itation	-3640
▁feature	-3641
▁Australia	-3642
▁released	-3643
vere	-3644
▁gets	-3645
aker	-3646
▁Som	-3647
▁considering	-3648
▁Ac	-3649
unch	-3650
▁fresh	-3651
SE	-3652
▁mut	-3653
▁identity	-3654
▁consistent	-3655
iscal	-3656
NN	-3657
▁September	-3658
▁employee	-3659
▁page	-3660
alt	-3661
▁tru	-3662
▁Although	-3663
opt	-3664
pril	-3665
▁eyes	-3666
Fin	-3667
▁fa	-3668
▁refer	-3669
oint	-3670
▁assistant	-3671
▁Based	-3672
▁Group	-3673
▁goods	-3674
hib	-3675
▁outcomes	-3676
▁vac	-3677
key	-3678
pee	-3679
▁former	-3680
▁immediate	-3681
▁appreciate	-3682
▁fit	-3683
▁quant	-3684
rought	-3685
▁roughly	-3686
ief	-3687
▁conflic	-3688
.)	-3689
▁tweet	-3690
▁creative	-3691
▁interesting	-3692
▁stri	-3693
▁effectively	-3694
▁band	-3695
▁tree	-3696
▁gard	-3697
▁deduct	-3698
hemat	-3699
begin	-3700
▁attract	-3701
General	-3702
▁sus	-3703
▁Are	-3704
▁flu	-3705
▁Corporate	-3706
▁Regulation	-3707
ptoms	-3708
bu	-3709
ened	-3710
▁generate	-3711
▁image	-3712
▁laws	-3713
▁Investments	-3714
▁technologies	-3715
▁quite	-3716
▁transl	-3717
eria	-3718
▁satisf	-3719
opy	-3720
▁almost	-3721
▁thoughts	-3722
▁blue	-3723
▁Bank	-3724
▁saw	-3725
oe	-3726
▁spend	-3727
▁lessons	-3728
▁emphas	-3729
▁corpor	-3730
▁Substit	-3731
▁ensuring	-3732
▁processes	-3733
▁involve	-3734
▁probably	-3735
orizing	-3736
▁Most	-3737
▁explicit	-3738
▁Start	-3739
▁maximum	-3740
▁despite	-3741
▁reve	-3742
hest	-3743
▁und	-3744
▁temperature	-3745
▁organizations	-3746
▁fuel	-3747
▁private	-3748
▁ban	-3749
bit	-3750
▁carbon	-3751
yl	-3752
▁born	-3753
▁colors	-3754
▁French	-3755
▁concerns	-3756
▁maybe	-3757
ario	-3758
▁falls	-3759
▁citiz	-3760
▁ep	-3761
▁liqu	-3762
att	-3763
▁forecast	-3764
▁patients	-3765
roll	-3766
normalized	-3767
duc	-3768
▁Ident	-3769
▁reports	-3770
sp	-3771
▁rich	-3772
▁recommend	-3773
▁cross	-3774
order	-3775
ington	-3776
iced	-3777
▁mis	-3778
▁Bar	-3779
▁interact	-3780
We	-3781
▁lines	-3782
▁Mc	-3783
▁Dav	-3784
ero	-3785
▁Who	-3786
erves	-3787
uting	-3788
▁trad	-3789
bf	-3790
▁Oct	-3791
▁weather	-3792
▁file	-3793
▁Think	-3794
▁latest	-3795
▁location	-3796
zz	-3797
▁Aut	-3798
▁animal	-3799
▁happens	-3800
lin	-3801
ancials	-3802
ights	-3803
osure	-3804
▁famous	-3805
▁origin	-3806
▁retirement	-3807
▁respond	-3808
itect	-3809
ronic	-3810
▁dark	-3811
umn	-3812
▁graph	-3813
▁viol	-3814
▁cultures	-3815
encies	-3816
▁wood	-3817
lude	-3818
eed	-3819
▁magn	-3820
▁tweets	-3821
▁amazing	-3822
elligence	-3823
▁link	-3824
▁detect	-3825
▁###	-3826
reasuries	-3827
▁stead	-3828
▁Ver	-3829
▁egg	-3830
IV	-3831
▁cards	-3832
▁Calcul	-3833
▁April	-3834
▁mother	-3835
▁Number	-3836
ycle	-3837
ham	-3838
Earnings	-3839
▁sleep	-3840
▁feelings	-3841
▁background	-3842
▁girl	-3843
ession	-3844
IPO	-3845
aint	-3846
▁stop	-3847
▁objects	-3848
het	-3849
ipment	-3850
▁January	-3851
▁ter	-3852
▁strength	-3853
Energy	-3854
▁Park	-3855
▁carry	-3856
rew	-3857
▁increases	-3858
▁dream	-3859
Output	-3860
Dividend	-3861
▁discount	-3862
▁Metals	-3863
▁alone	-3864
▁categorizing	-3865
▁challenge	-3866
ny	-3867
▁operating	-3868
Fed	-3869
▁agg	-3870
▁inj	-3871
▁volume	-3872
▁San	-3873
▁otherwise	-3874
▁Indian	-3875
▁Commun	-3876
▁active	-3877
▁helped	-3878
▁skin	-3879
▁lack	-3880
▁circum	-3881
▁comparing	-3882
▁adventure	-3883
haps	-3884
▁ign	-3885
iding	-3886
▁actively	-3887
▁August	-3888
Legal	-3889
ricult	-3890
▁consequ	-3891
,\\	-3892
▁Great	-3893
▁challenging	-3894
▁peace	-3895
▁Serv	-3896
Macro	-3897
▁eat	-3898
Markets	-3899
Analyst	-3900
Politics	-3901
▁Disc	-3902
▁planet	-3903
▁explain	-3904
Currencies	-3905
What	-3906
▁bear	-3907
▁unex	-3908
Personnel	-3909
Financials	-3910
▁Val	-3911
Treasuries	-3912
mp	-3913
▁virt	-3914
▁periods	-3915
▁excess	-3916
ober	-3917
▁depending	-3918
lications	-3919
▁specifically	-3920
ament	-3921
▁Develop	-3922
icious	-3923
▁reasons	-3924
▁loans	-3925
ondon	-3926
____	-3927
▁Tom	-3928
▁cars	-3929
▁rock	-3930
IT	-3931
overy	-3932
▁highlight	-3933
▁psych	-3934
Th	-3935
,\\!	-3936
▁defin	-3937
▁devices	-3938
▁settle	-3939
▁mill	-3940
▁volat	-3941
▁rupee	-3942
▁ult	-3943
▁maintaining	-3944
▁buys	-3945
▁fiscal	-3946
▁sex	-3947
mosp	-3948
▁cry	-3949
▁alongside	-3950
wa	-3951
final	-3952
▁sounds	-3953
code	-3954
▁center	-3955
idents	-3956
▁spirit	-3957
overn	-3958
▁becoming	-3959
athy	-3960
issions	-3961
▁qual	-3962
▁opportunity	-3963
▁aren	-3964
▁soil	-3965
resp	-3966
▁Mod	-3967
ilding	-3968
▁board	-3969
off	-3970
uff	-3971
rox	-3972
▁cam	-3973
▁hands	-3974
▁adds	-3975
ya	-3976
▁mix	-3977
itors	-3978
▁web	-3979
▁chemical	-3980
▁List	-3981
▁Conc	-3982
iles	-3983
ancy	-3984
▁explicitly	-3985
▁eye	-3986
▁UK	-3987
▁damage	-3988
▁decl	-3989
▁fast	-3990
▁host	-3991
▁Russ	-3992
▁knowing	-3993
▁football	-3994
ups	-3995
!"	-3996
▁Keep	-3997
▁attempt	-3998
▁wid	-3999
▁ahead	-4000
rim	-4001
▁calculations	-4002
▁promote	-4003
▁prote	-4004
▁college	-4005
nes	-4006
ico	-4007
▁giving	-4008
itable	-4009
rick	-4010
▁incredible	-4011
▁connection	-4012
▁message	-4013
room	-4014
▁charge	-4015
▁Ang	-4016
▁fra	-4017
▁July	-4018
▁remind	-4019
▁contains	-4020
▁recently	-4021
▁Analy	-4022
▁easier	-4023
▁movement	-4024
oles	-4025
▁labor	-4026
aught	-4027
▁secure	-4028
▁Write	-4029
▁ang	-4030
uge	-4031
▁sets	-4032
cription	-4033
month	-4034
▁exercise	-4035
▁ID	-4036
igen	-4037
▁symptoms	-4038
aign	-4039
▁served	-4040
▁Lear	-4041
▁Further	-4042
It	-4043
▁System	-4044
▁onto	-4045
▁wonder	-4046
▁park	-4047
▁Center	-4048
▁Sarah	-4049
never	-4050
▁England	-4051
used	-4052
alls	-4053
▁Add	-4054
olving	-4055
▁civil	-4056
▁plays	-4057
oyal	-4058
▁faced	-4059
▁block	-4060
▁applied	-4061
mathbf	-4062
▁emergency	-4063
▁Introduction	-4064
▁shown	-4065
▁Educ	-4066
▁mount	-4067
▁normal	-4068
▁force	-4069
employ	-4070
▁minimum	-4071
osition	-4072
▁principal	-4073
▁Market	-4074
book	-4075
lear	-4076
▁African	-4077
▁Ant	-4078
▁speed	-4079
itude	-4080
▁sports	-4081
▁chance	-4082
▁therefore	-4083
force	-4084
ica	-4085
▁anyone	-4086
▁imag	-4087
▁Def	-4088
▁structures	-4089
oding	-4090
▁transfer	-4091
▁liquid	-4092
▁prem	-4093
▁therap	-4094
▁Science	-4095
▁vary	-4096
▁worry	-4097
▁Provide	-4098
balancing	-4099
interest	-4100
▁Tim	-4101
idden	-4102
▁bigger	-4103
▁hit	-4104
board	-4105
▁existing	-4106
▁fear	-4107
▁allowed	-4108
▁unexpected	-4109
▁scientific	-4110
ificial	-4111
▁office	-4112
▁ingredients	-4113
▁sea	-4114
▁swe	-4115
▁William	-4116
▁landsc	-4117
▁Course	-4118
▁stream	-4119
▁highest	-4120
ogle	-4121
▁chapter	-4122
▁advance	-4123
▁London	-4124
▁serve	-4125
yp	-4126
DP	-4127
ovember	-4128
▁represents	-4129
icians	-4130
▁eight	-4131
▁jobs	-4132
▁depends	-4133
rs	-4134
▁River	-4135
▁Mich	-4136
▁nation	-4137
▁transaction	-4138
ED	-4139
▁Mex	-4140
▁san	-4141
zing	-4142
▁gather	-4143
▁invests	-4144
abet	-4145
▁invent	-4146
▁military	-4147
na	-4148
ulations	-4149
▁annually	-4150
ym	-4151
▁potentially	-4152
▁diet	-4153
risk	-4154
▁Ob	-4155
ius	-4156
▁tou	-4157
▁pan	-4158
▁dang	-4159
▁rising	-4160
emporary	-4161
▁waste	-4162
▁bott	-4163
▁player	-4164
▁obt	-4165
▁charged	-4166
▁Feb	-4167
▁transportation	-4168
▁causes	-4169
ET	-4170
▁theory	-4171
▁General	-4172
▁leaves	-4173
▁artists	-4174
akers	-4175
▁encount	-4176
▁summer	-4177
▁ready	-4178
▁application	-4179
▁Make	-4180
▁IR	-4181
▁couldn	-4182
rt	-4183
ilos	-4184
cil	-4185
▁Pat	-4186
▁bound	-4187
▁keeping	-4188
▁starts	-4189
▁equipment	-4190
amm	-4191
ogether	-4192
▁atmosp	-4193
▁principles	-4194
ocol	-4195
▁diagn	-4196
▁bab	-4197
▁pen	-4198
▁situations	-4199
▁party	-4200
▁wealth	-4201
▁offering	-4202
ka	-4203
ressive	-4204
▁Wash	-4205
▁quarterly	-4206
▁changing	-4207
▁refers	-4208
▁organization	-4209
ativity	-4210
▁mathemat	-4211
▁resulting	-4212
ourage	-4213
▁dro	-4214
▁walk	-4215
▁smart	-4216
▁causing	-4217
▁pick	-4218
icated	-4219
▁station	-4220
ss	-4221
itch	-4222
▁emotions	-4223
▁util	-4224
hips	-4225
example	-4226
▁October	-4227
▁breath	-4228
appy	-4229
▁bodies	-4230
▁Mor	-4231
▁collection	-4232
▁alloc	-4233
▁loved	-4234
▁Calculate	-4235
▁President	-4236
▁Det	-4237
▁sustainable	-4238
▁tick	-4239
▁circumstances	-4240
▁section	-4241
▁primarily	-4242
▁Av	-4243
▁Substituting	-4244
▁style	-4245
▁literature	-4246
▁lic	-4247
▁studying	-4248
▁protection	-4249
▁Lit	-4250
▁eventually	-4251
▁leaving	-4252
▁properties	-4253
works	-4254
▁renew	-4255
▁architect	-4256
▁Set	-4257
▁patient	-4258
▁version	-4259
▁tend	-4260
▁picture	-4261
▁variable	-4262
▁extreme	-4263
▁thousands	-4264
▁Day	-4265
▁via	-4266
▁functions	-4267
▁seems	-4268
▁cities	-4269
))	-4270
▁describes	-4271
▁bull	-4272
▁Jew	-4273
anges	-4274
▁simpl	-4275
▁happened	-4276
▁pow	-4277
▁movie	-4278
▁Title	-4279
▁Despite	-4280
▁Germany	-4281
▁Gree	-4282
▁alternative	-4283
MA	-4284
▁knows	-4285
pid	-4286
▁mist	-4287
▁summary	-4288
▁steady	-4289
▁whenever	-4290
▁converted	-4291
▁ast	-4292
▁realized	-4293
▁missing	-4294
▁presence	-4295
inated	-4296
▁Its	-4297
ruary	-4298
▁reliable	-4299
▁Africa	-4300
▁changed	-4301
▁Sch	-4302
▁focused	-4303
▁Sum	-4304
▁cou	-4305
▁flav	-4306
▁narr	-4307
▁actual	-4308
▁asking	-4309
▁Year	-4310
▁innovation	-4311
▁CO	-4312
▁driving	-4313
irth	-4314
ville	-4315
▁habit	-4316
▁decline	-4317
PA	-4318
▁trends	-4319
atur	-4320
▁father	-4321
aus	-4322
▁round	-4323
▁brought	-4324
▁profession	-4325
▁>	-4326
▁Air	-4327
▁names	-4328
▁whose	-4329
▁Department	-4330
)^{	-4331
▁administ	-4332
▁install	-4333
▁advanced	-4334
▁vict	-4335
▁Real	-4336
▁German	-4337
▁Before	-4338
▁shortcut	-4339
elines	-4340
▁Net	-4341
log	-4342
▁cakes	-4343
hors	-4344
ulate	-4345
▁execut	-4346
usion	-4347
respond	-4348
▁improved	-4349
gy	-4350
▁meeting	-4351
odes	-4352
▁Bro	-4353
▁Next	-4354
▁solar	-4355
▁November	-4356
aul	-4357
▁integr	-4358
levision	-4359
▁statements	-4360
ux	-4361
▁pet	-4362
▁sky	-4363
▁display	-4364
holders	-4365
iant	-4366
▁ET	-4367
▁birds	-4368
▁mechanism	-4369
amples	-4370
▁generations	-4371
cribe	-4372
▁accounting	-4373
▁estate	-4374
▁records	-4375
▁numerous	-4376
▁interests	-4377
▁Wal	-4378
▁Street	-4379
▁club	-4380
dule	-4381
▁commer	-4382
estic	-4383
▁musc	-4384
▁wasn	-4385
▁experiment	-4386
▁entirely	-4387
born	-4388
▁roll	-4389
▁foods	-4390
apest	-4391
▁fee	-4392
▁serious	-4393
▁mid	-4394
ibilities	-4395
west	-4396
▁religious	-4397
▁jud	-4398
▁campaign	-4399
▁checks	-4400
▁Last	-4401
▁Christian	-4402
ructure	-4403
▁effort	-4404
iling	-4405
▁eating	-4406
reed	-4407
▁firm	-4408
▁federal	-4409
▁Sometimes	-4410
▁societ	-4411
▁seeking	-4412
gn	-4413
▁road	-4414
▁guide	-4415
▁La	-4416
▁basis	-4417
▁north	-4418
▁Colle	-4419
▁coming	-4420
▁citizens	-4421
iber	-4422
part	-4423
▁Less	-4424
▁consequences	-4425
▁workers	-4426
="	-4427
being	-4428
water	-4429
anch	-4430
▁connected	-4431
▁poor	-4432
add	-4433
gram	-4434
osis	-4435
▁passed	-4436
▁datab	-4437
▁factor	-4438
uth	-4439
▁loaves	-4440
▁court	-4441
▁rule	-4442
iff	-4443
▁perspectives	-4444
▁subst	-4445
▁bill	-4446
▁er	-4447
▁cris	-4448
iences	-4449
▁correspond	-4450
▁worldwide	-4451
▁tiny	-4452
▁Vir	-4453
▁cro	-4454
▁Both	-4455
▁illustr	-4456
▁Black	-4457
▁enhance	-4458
▁ir	-4459
oper	-4460
▁prin	-4461
▁wear	-4462
▁exploration	-4463
orge	-4464
▁hyp	-4465
oney	-4466
▁requirements	-4467
▁middle	-4468
▁Associ	-4469
▁Govern	-4470
▁minimal	-4471
▁knew	-4472
▁volatility	-4473
rie	-4474
rupt	-4475
▁Similar	-4476
▁managing	-4477
▁distribution	-4478
uming	-4479
UM	-4480
what	-4481
▁losses	-4482
▁Also	-4483
▁wat	-4484
▁beauty	-4485
▁smooth	-4486
ipe	-4487
▁argument	-4488
▁sale	-4489
▁fat	-4490
▁($	-4491
outhern	-4492
iest	-4493
▁Of	-4494
▁House	-4495
igr	-4496
▁dynam	-4497
▁...	-4498
▁Cor	-4499
▁woman	-4500
atever	-4501
▁initiatives	-4502
▁Equ	-4503
▁expression	-4504
)'	-4505
▁tim	-4506
▁moves	-4507
▁na	-4508
▁square	-4509
▁targeting	-4510
▁bul	-4511
ceed	-4512
▁Washington	-4513
▁Sep	-4514
▁encourage	-4515
▁readers	-4516
▁son	-4517
▁holds	-4518
▁memory	-4519
▁languages	-4520
▁nearly	-4521
ault	-4522
▁highly	-4523
▁diversity	-4524
rows	-4525
andom	-4526
▁passion	-4527
▁choice	-4528
ospital	-4529
▁closer	-4530
▁James	-4531
▁ourselves	-4532
▁rain	-4533
▁intelligence	-4534
▁Happy	-4535
▁consult	-4536
▁instruct	-4537
▁choices	-4538
▁drive	-4539
▁forces	-4540
▁Form	-4541
▁Port	-4542
going	-4543
▁denomin	-4544
▁grand	-4545
▁score	-4546
▁Div	-4547
▁seg	-4548
▁valid	-4549
▁talking	-4550
▁older	-4551
ta	-4552
▁vibr	-4553
▁doctor	-4554
▁Spe	-4555
▁shift	-4556
▁died	-4557
▁Plan	-4558
ran	-4559
▁proport	-4560
▁earth	-4561
▁spot	-4562
nership	-4563
▁realistic	-4564
▁engaging	-4565
tty	-4566
▁homes	-4567
▁uncom	-4568
▁wait	-4569
icing	-4570
inese	-4571
▁grad	-4572
▁France	-4573
▁suggests	-4574
▁resil	-4575
▁tenure	-4576
▁processing	-4577
▁prefer	-4578
▁cold	-4579
approx	-4580
▁treated	-4581
pi	-4582
aughter	-4583
▁Bra	-4584
▁device	-4585
overs	-4586
▁computers	-4587
▁TV	-4588
▁continuous	-4589
▁Tex	-4590
iosity	-4591
▁ended	-4592
OU	-4593
▁tips	-4594
▁feels	-4595
ford	-4596
▁Public	-4597
▁adults	-4598
uk	-4599
ying	-4600
▁sand	-4601
▁Cong	-4602
▁fract	-4603
rote	-4604
▁reduced	-4605
▁handle	-4606
Ch	-4607
▁calculation	-4608
▁dry	-4609
irection	-4610
▁turned	-4611
lig	-4612
▁pu	-4613
ests	-4614
▁looked	-4615
▁depend	-4616
inate	-4617
obile	-4618
▁Dem	-4619
undred	-4620
▁rapid	-4621
▁surrounding	-4622
▁beginning	-4623
▁cup	-4624
mark	-4625
▁February	-4626
▁hidden	-4627
▁west	-4628
rees	-4629
▁regulations	-4630
▁front	-4631
▁portion	-4632
▁clim	-4633
bre	-4634
▁faster	-4635
▁release	-4636
▁formed	-4637
ifier	-4638
riend	-4639
orthern	-4640
▁height	-4641
▁magical	-4642
▁competition	-4643
▁south	-4644
▁negot	-4645
▁stage	-4646
type	-4647
igenous	-4648
▁advantage	-4649
▁subs	-4650
▁Cap	-4651
▁hyd	-4652
▁College	-4653
▁Dist	-4654
orage	-4655
Re	-4656
▁Prof	-4657
puting	-4658
▁differ	-4659
▁normally	-4660
▁teachers	-4661
▁degree	-4662
▁consumer	-4663
▁followed	-4664
▁Social	-4665
▁print	-4666
▁Thom	-4667
▁Data	-4668
▁beliefs	-4669
▁affected	-4670
▁diseases	-4671
▁construct	-4672
encing	-4673
▁roles	-4674
arian	-4675
▁Name	-4676
oke	-4677
olic	-4678
▁substit	-4679
▁advert	-4680
▁interp	-4681
▁flex	-4682
▁Stock	-4683
▁distinct	-4684
▁sequ	-4685
▁sugar	-4686
▁emotional	-4687
▁mi	-4688
}}	-4689
▁coast	-4690
ida	-4691
anish	-4692
▁housing	-4693
ES	-4694
▁gender	-4695
▁Rather	-4696
▁notes	-4697
▁ST	-4698
▁traditions	-4699
▁president	-4700
la	-4701
unately	-4702
▁Generate	-4703
▁screen	-4704
IL	-4705
▁teaching	-4706
▁Conclusion	-4707
▁enter	-4708
▁Supp	-4709
▁stronger	-4710
ounced	-4711
▁moved	-4712
▁virus	-4713
▁systematic	-4714
▁distance	-4715
▁Lat	-4716
▁Life	-4717
▁Phil	-4718
▁Texas	-4719
▁lose	-4720
▁Rel	-4721
▁commercial	-4722
▁library	-4723
ses	-4724
▁Enc	-4725
▁Mat	-4726
EC	-4727
urities	-4728
▁ju	-4729
▁$<<	-4730
▁promoting	-4731
▁innovative	-4732
que	-4733
istry	-4734
▁faith	-4735
▁village	-4736
▁dri	-4737
sec	-4738
▁although	-4739
▁//	-4740
▁creativity	-4741
▁exposure	-4742
▁province	-4743
▁David	-4744
▁reality	-4745
▁philos	-4746
▁decide	-4747
opping	-4748
▁oun	-4749
▁solid	-4750
▁himself	-4751
()	-4752
orders	-4753
sect	-4754
ael	-4755
▁dead	-4756
BC	-4757
za	-4758
▁decrease	-4759
▁atmosphere	-4760
▁spl	-4761
▁grows	-4762
▁transactions	-4763
▁happy	-4764
cy	-4765
▁vast	-4766
▁bought	-4767
Ex	-4768
vention	-4769
▁Abs	-4770
asp	-4771
IS	-4772
othes	-4773
▁match	-4774
▁standards	-4775
▁dial	-4776
▁continues	-4777
▁ETF	-4778
▁testing	-4779
▁Furthermore	-4780
▁trip	-4781
▁collaboration	-4782
▁contemporary	-4783
edia	-4784
▁stars	-4785
▁assign	-4786
olve	-4787
▁upd	-4788
▁bak	-4789
▁raise	-4790
▁Together	-4791
▁useful	-4792
▁construction	-4793
▁weak	-4794
ocument	-4795
▁Exc	-4796
▁burn	-4797
▁wheat	-4798
omb	-4799
DA	-4800
▁leaders	-4801
▁infect	-4802
lymp	-4803
▁boy	-4804
▁ends	-4805
▁regions	-4806
▁Separ	-4807
▁fully	-4808
▁expensive	-4809
▁Chinese	-4810
▁determined	-4811
▁platforms	-4812
▁hop	-4813
▁male	-4814
craft	-4815
ald	-4816
www	-4817
▁fant	-4818
▁entertain	-4819
▁pros	-4820
▁agricult	-4821
▁findings	-4822
▁acad	-4823
ampions	-4824
▁Ste	-4825
pris	-4826
▁freed	-4827
usiness	-4828
▁sharply	-4829
ING	-4830
▁gave	-4831
▁stability	-4832
mission	-4833
▁teams	-4834
pus	-4835
::	-4836
▁letter	-4837
▁http	-4838
▁keeps	-4839
ulated	-4840
▁combined	-4841
antic	-4842
▁mole	-4843
▁virtual	-4844
▁saving	-4845
▁perhaps	-4846
▁Design	-4847
ffee	-4848
▁cooking	-4849
fered	-4850
ned	-4851
▁direction	-4852
acity	-4853
▁title	-4854
▁yield	-4855
▁mission	-4856
▁checking	-4857
iration	-4858
▁immediately	-4859
▁moder	-4860
▁honest	-4861
▁ox	-4862
▁Child	-4863
▁Key	-4864
▁assistance	-4865
▁mutual	-4866
▁responsibility	-4867
▁Green	-4868
▁bact	-4869
zy	-4870
urban	-4871
ingly	-4872
▁mai	-4873
▁east	-4874
▁muff	-4875
▁domain	-4876
ocr	-4877
▁brand	-4878
▁severe	-4879
▁whatever	-4880
▁twice	-4881
AC	-4882
asket	-4883
▁truly	-4884
▁closely	-4885
▁Information	-4886
▁involving	-4887
▁Mart	-4888
▁affordable	-4889
▁Americans	-4890
lim	-4891
load	-4892
▁nan	-4893
▁Education	-4894
ouncil	-4895
▁voice	-4896
▁controll	-4897
▁Explain	-4898
qrt	-4899
▁educational	-4900
▁Working	-4901
enty	-4902
▁recover	-4903
▁offered	-4904
bl	-4905
▁acquis	-4906
▁motiv	-4907
▁proced	-4908
▁Fed	-4909
▁cra	-4910
▁appears	-4911
▁hundred	-4912
▁fol	-4913
▁unf	-4914
▁prepared	-4915
▁Olymp	-4916
ech	-4917
acing	-4918
cause	-4919
▁fiction	-4920
▁teacher	-4921
▁documents	-4922
▁Interest	-4923
▁thus	-4924
▁leads	-4925
place	-4926
▁electr	-4927
▁navigate	-4928
▁cert	-4929
▁improving	-4930
▁withd	-4931
▁morning	-4932
▁Institute	-4933
▁secret	-4934
▁journal	-4935
▁curious	-4936
▁forced	-4937
▁wrote	-4938
▁described	-4939
▁craft	-4940
▁carried	-4941
▁concent	-4942
▁Union	-4943
rastructure	-4944
rief	-4945
▁ethical	-4946
▁produces	-4947
▁Financial	-4948
▁themes	-4949
▁authors	-4950
▁looks	-4951
▁transform	-4952
▁engineering	-4953
▁steep	-4954
▁attack	-4955
▁exciting	-4956
US	-4957
▁race	-4958
iveness	-4959
rics	-4960
▁wis	-4961
▁Oh	-4962
▁Vis	-4963
▁sees	-4964
▁deposit	-4965
▁creatures	-4966
▁bullish	-4967
▁micro	-4968
▁item	-4969
ari	-4970
▁combination	-4971
anda	-4972
▁recommended	-4973
▁dedicated	-4974
▁vent	-4975
▁institutions	-4976
▁internet	-4977
▁annuity	-4978
▁‘	-4979
▁Absolute	-4980
▁facing	-4981
etary	-4982
▁Ser	-4983
▁dram	-4984
▁emissions	-4985
▁star	-4986
ype	-4987
century	-4988
▁paint	-4989
ums	-4990
▁Describe	-4991
ij	-4992
▁zero	-4993
▁replace	-4994
▁informed	-4995
▁nearby	-4996
▁neighbor	-4997
▁chart	-4998
agement	-4999
▁artificial	-5000
▁calculated	-5001
▁ocean	-5002
▁accepting	-5003
▁Japanese	-5004
▁Roman	-5005
▁noticed	-5006
▁television	-5007
gra	-5008
olved	-5009
▁sites	-5010
▁George	-5011
▁uncomfort	-5012
▁partnership	-5013
▁repe	-5014
▁Similarly	-5015
▁Canadian	-5016
▁awareness	-5017
itage	-5018
▁regularly	-5019
eline	-5020
▁colon	-5021
▁Output	-5022
▁voc	-5023
▁Mary	-5024
amin	-5025
▁gall	-5026
▁Bel	-5027
urt	-5028
▁align	-5029
▁toward	-5030
▁schedule	-5031
▁eggs	-5032
▁female	-5033
rest	-5034
▁corpus	-5035
▁consumption	-5036
▁signs	-5037
▁vibrant	-5038
ira	-5039
▁personally	-5040
▁vegetables	-5041
ube	-5042
▁poly	-5043
▁optim	-5044
rice	-5045
▁strengt	-5046
▁push	-5047
▁explained	-5048
▁buildings	-5049
▁curiosity	-5050
▁finally	-5051
ingu	-5052
▁vital	-5053
▁nuc	-5054
▁cast	-5055
▁saying	-5056
▁excell	-5057
▁professionals	-5058
▁Elect	-5059
▁esc	-5060
arest	-5061
▁serves	-5062
▁double	-5063
othing	-5064
amil	-5065
hab	-5066
▁programming	-5067
▁joy	-5068
▁resource	-5069
▁kn	-5070
▁Gra	-5071
ipl	-5072
▁Sur	-5073
▁sch	-5074
▁empathy	-5075
▁Histor	-5076
▁tail	-5077
▁impacts	-5078
▁Get	-5079
coming	-5080
iverse	-5081
arant	-5082
▁map	-5083
ares	-5084
hicles	-5085
▁status	-5086
▁heavy	-5087
▁EU	-5088
Pro	-5089
▁purposes	-5090
▁relatively	-5091
▁justify	-5092
▁unknown	-5093
otic	-5094
ams	-5095
▁winter	-5096
▁reached	-5097
▁tests	-5098
▁priorit	-5099
▁broker	-5100
▁advoc	-5101
▁Apple	-5102
▁glass	-5103
▁Road	-5104
▁willing	-5105
Un	-5106
▁Class	-5107
▁rare	-5108
fortunately	-5109
ications	-5110
▁completely	-5111
▁feedback	-5112
▁implications	-5113
▁Inter	-5114
▁Sun	-5115
▁temperatures	-5116
ule	-5117
▁seek	-5118
rition	-5119
)$	-5120
▁Assuming	-5121
oly	-5122
▁Pay	-5123
▁notice	-5124
▁experts	-5125
ystem	-5126
▁stick	-5127
▁raising	-5128
▁staff	-5129
▁Kingdom	-5130
▁interested	-5131
▁river	-5132
omy	-5133
▁gram	-5134
▁mel	-5135
▁garden	-5136
▁cy	-5137
▁myster	-5138
▁walking	-5139
▁bearish	-5140
human	-5141
▁showed	-5142
▁covered	-5143
▁solved	-5144
▁storage	-5145
▁creation	-5146
▁street	-5147
isco	-5148
enny	-5149
▁Separating	-5150
▁anx	-5151
NUM	-5152
▁sud	-5153
▁Maybe	-5154
CO	-5155
▁League	-5156
ffic	-5157
▁Prot	-5158
iled	-5159
▁Starting	-5160
can	-5161
lusive	-5162
uing	-5163
▁Fore	-5164
itc	-5165
see	-5166
▁competitive	-5167
oub	-5168
rol	-5169
▁Johnson	-5170
annuity	-5171
tery	-5172
▁Law	-5173
▁pollution	-5174
▁estimates	-5175
▁Paul	-5176
▁coffee	-5177
▁district	-5178
wood	-5179
prise	-5180
▁stim	-5181
▁electricity	-5182
▁GDP	-5183
▁restaur	-5184
▁chain	-5185
▁Ben	-5186
making	-5187
▁pictures	-5188
herent	-5189
een	-5190
▁Asia	-5191
▁Rev	-5192
denly	-5193
option	-5194
▁wondered	-5195
▁Bre	-5196
▁millions	-5197
▁extending	-5198
==	-5199
sqrt	-5200
gr	-5201
▁Good	-5202
▁returning	-5203
▁Association	-5204
ani	-5205
ester	-5206
▁Program	-5207
▁metal	-5208
field	-5209
▁ongoing	-5210
▁Soci	-5211
▁tall	-5212
▁opened	-5213
▁pretty	-5214
▁independent	-5215
ositive	-5216
▁exhib	-5217
▁Que	-5218
▁estimated	-5219
▁infrastructure	-5220
▁Medical	-5221
▁hom	-5222
▁believed	-5223
▁recognize	-5224
▁Lesson	-5225
▁Num	-5226
▁Rich	-5227
▁resilience	-5228
▁inches	-5229
▁amid	-5230
▁shaping	-5231
▁fruit	-5232
▁employer	-5233
▁embark	-5234
▁Australian	-5235
▁captiv	-5236
▁drop	-5237
▁dividends	-5238
▁database	-5239
▁bow	-5240
▁vehicles	-5241
▁Always	-5242
▁profits	-5243
ado	-5244
▁send	-5245
etry	-5246
▁king	-5247
abetes	-5248
▁rein	-5249
▁denominator	-5250
forward	-5251
ensation	-5252
▁interpret	-5253
▁networks	-5254
▁\\\\	-5255
▁retail	-5256
▁har	-5257
itivity	-5258
▁showing	-5259
▁significance	-5260
net	-5261
▁inspired	-5262
▁hear	-5263
▁random	-5264
ander	-5265
ago	-5266
▁Moreover	-5267
tenance	-5268
▁Web	-5269
lam	-5270
▁Miss	-5271
▁math	-5272
▁Mem	-5273
▁Jour	-5274
▁ensures	-5275
▁communicate	-5276
▁lots	-5277
▁spaces	-5278
▁%	-5279
aled	-5280
▁Out	-5281
▁occurs	-5282
▁milk	-5283
▁nearest	-5284
▁Water	-5285
▁classes	-5286
▁recorded	-5287
ishing	-5288
▁leader	-5289
▁vehicle	-5290
▁police	-5291
▁brother	-5292
eles	-5293
▁flowers	-5294
▁agreement	-5295
▁guess	-5296
▁machines	-5297
▁notable	-5298
power	-5299
▁Example	-5300
▁commitment	-5301
▁waiting	-5302
▁Middle	-5303
▁Hel	-5304
▁bright	-5305
▁phr	-5306
▁Republic	-5307
udd	-5308
▁Dec	-5309
▁treas	-5310
▁perspective	-5311
▁scale	-5312
▁fostering	-5313
▁films	-5314
▁Mount	-5315
onic	-5316
▁Del	-5317
▁meant	-5318
▁placed	-5319
▁letters	-5320
▁Mexico	-5321
▁beg	-5322
▁tracks	-5323
▁capacity	-5324
▁Home	-5325
ste	-5326
▁expectations	-5327
ias	-5328
▁string	-5329
▁Max	-5330
ded	-5331
▁possibly	-5332
▁layer	-5333
▁sen	-5334
▁hero	-5335
▁boost	-5336
▁din	-5337
▁speak	-5338
▁Like	-5339
racing	-5340
▁technique	-5341
▁gar	-5342
inations	-5343
▁appreciation	-5344
")	-5345
▁Throughout	-5346
▁ownership	-5347
▁illness	-5348
▁completed	-5349
▁assumptions	-5350
▁songs	-5351
▁movements	-5352
▁benef	-5353
▁sector	-5354
ographic	-5355
▁creates	-5356
▁discussing	-5357
alog	-5358
ada	-5359
▁chann	-5360
van	-5361
)(	-5362
ola	-5363
uctu	-5364
▁consumers	-5365
unk	-5366
▁focuses	-5367
▁governments	-5368
eters	-5369
▁perce	-5370
▁describe	-5371
▁discussion	-5372
▁huge	-5373
▁Ber	-5374
▁shapes	-5375
▁comfortable	-5376
▁Care	-5377
▁fruits	-5378
▁gro	-5379
▁grant	-5380
ava	-5381
ansion	-5382
ensions	-5383
▁param	-5384
Can	-5385
▁Mal	-5386
▁pages	-5387
▁algorithms	-5388
ilit	-5389
▁hair	-5390
▁freedom	-5391
▁justice	-5392
▁Sk	-5393
▁Google	-5394
▁Flor	-5395
▁Bay	-5396
▁Pri	-5397
rial	-5398
▁vacc	-5399
▁divided	-5400
▁pand	-5401
dr	-5402
▁drawing	-5403
This	-5404
▁parties	-5405
reland	-5406
orial	-5407
▁generated	-5408
lor	-5409
▁urban	-5410
▁easiest	-5411
▁contrast	-5412
icks	-5413
▁straightforward	-5414
▁Western	-5415
▁arrange	-5416
isk	-5417
▁CD	-5418
▁interview	-5419
Int	-5420
▁audience	-5421
emy	-5422
▁focusing	-5423
▁Ent	-5424
isl	-5425
friend	-5426
▁seven	-5427
oul	-5428
agers	-5429
▁divers	-5430
iors	-5431
▁tank	-5432
ensity	-5433
▁meals	-5434
▁intric	-5435
oma	-5436
▁deserves	-5437
identifier	-5438
▁Jer	-5439
▁messages	-5440
▁radio	-5441
▁hurd	-5442
▁rearr	-5443
▁industries	-5444
rogen	-5445
▁storm	-5446
▁hunt	-5447
▁Because	-5448
▁ment	-5449
cosystem	-5450
▁bed	-5451
▁butter	-5452
▁Profit	-5453
▁fluctu	-5454
▁Federal	-5455
▁maximize	-5456
▁sem	-5457
▁sort	-5458
▁Rebalancing	-5459
▁therapy	-5460
▁household	-5461
▁renewable	-5462
▁Date	-5463
▁roots	-5464
=<<	-5465
oves	-5466
▁kil	-5467
▁uns	-5468
ript	-5469
▁landscape	-5470
▁introduced	-5471
▁opening	-5472
▁Compare	-5473
▁confident	-5474
▁array	-5475
▁initially	-5476
tra	-5477
▁equival	-5478
▁ultimately	-5479
▁commonly	-5480
employment	-5481
erving	-5482
}\\	-5483
▁Scient	-5484
▁counter	-5485
▁wise	-5486
▁Pal	-5487
ician	-5488
▁bottom	-5489
▁plot	-5490
▁meaningful	-5491
ota	-5492
▁baby	-5493
▁wouldn	-5494
▁holid	-5495
▁guidelines	-5496
uma	-5497
▁seemed	-5498
▁Service	-5499
agon	-5500
▁profile	-5501
▁Muse	-5502
▁Technology	-5503
^{	-5504
▁increasingly	-5505
▁native	-5506
▁constit	-5507
▁delicious	-5508
▁Only	-5509
▁lesson	-5510
▁cloud	-5511
▁assist	-5512
▁sty	-5513
cont	-5514
▁respectively	-5515
olf	-5516
mitted	-5517
▁familiar	-5518
▁returned	-5519
vironments	-5520
▁Turn	-5521
▁remove	-5522
▁Michael	-5523
itoring	-5524
▁encourages	-5525
▁gradu	-5526
▁Fe	-5527
▁tow	-5528
rab	-5529
▁Micro	-5530
▁absor	-5531
while	-5532
iance	-5533
▁bakery	-5534
▁wit	-5535
▁zip	-5536
▁stores	-5537
▁mer	-5538
▁births	-5539
▁wife	-5540
forms	-5541
▁conflict	-5542
▁Income	-5543
hol	-5544
conomic	-5545
▁crisis	-5546
▁underlying	-5547
▁sac	-5548
▁couple	-5549
▁Tur	-5550
▁Island	-5551
▁Profess	-5552
▁traffic	-5553
▁Lou	-5554
▁Mond	-5555
▁Sen	-5556
▁tiss	-5557
▁approaches	-5558
▁scenario	-5559
gs	-5560
▁participants	-5561
▁Jewish	-5562
▁speech	-5563
▁discovery	-5564
comp	-5565
AM	-5566
▁Church	-5567
atically	-5568
▁instructions	-5569
▁Whe	-5570
▁withdraw	-5571
▁volunt	-5572
▁backwards	-5573
▁plus	-5574
run	-5575
▁Mil	-5576
▁Play	-5577
▁£	-5578
▁Which	-5579
hand	-5580
▁schol	-5581
▁Python	-5582
▁director	-5583
▁salt	-5584
▁practical	-5585
▁muffins	-5586
▁inherent	-5587
▁Spanish	-5588
▁copy	-5589
▁owner	-5590
▁pounds	-5591
▁Environment	-5592
▁Sl	-5593
NAME	-5594
free	-5595
▁elim	-5596
▁remained	-5597
▁recognition	-5598
▁medicine	-5599
PS	-5600
▁Ital	-5601
▁snow	-5602
asy	-5603
building	-5604
▁outl	-5605
▁train	-5606
▁turns	-5607
▁Direct	-5608
▁phen	-5609
▁doctors	-5610
▁km	-5611
▁geoc	-5612
▁painting	-5613
hus	-5614
▁wins	-5615
▁defined	-5616
▁environments	-5617
rael	-5618
▁Sol	-5619
How	-5620
▁oblig	-5621
▁Mean	-5622
▁vector	-5623
▁ignored	-5624
itz	-5625
▁earning	-5626
▁Nor	-5627
oving	-5628
▁positions	-5629
▁readable	-5630
▁enab	-5631
kes	-5632
▁apart	-5633
oons	-5634
▁stable	-5635
▁trial	-5636
▁conservation	-5637
▁Smith	-5638
((	-5639
}$.	-5640
▁hor	-5641
EO	-5642
▁bron	-5643
▁Management	-5644
▁recip	-5645
▁supporting	-5646
%/	-5647
▁announced	-5648
overty	-5649
▁ecosystem	-5650
▁normalized	-5651
ula	-5652
▁relax	-5653
Total	-5654
▁consumed	-5655
▁Robert	-5656
▁flo	-5657
EL	-5658
▁Vol	-5659
▁cream	-5660
▁_	-5661
▁nutri	-5662
yn	-5663
▁Identify	-5664
▁Kore	-5665
▁competitors	-5666
▁maintenance	-5667
ompl	-5668
▁Arch	-5669
▁consists	-5670
acific	-5671
▁gained	-5672
cknow	-5673
▁centuries	-5674
semb	-5675
iety	-5676
asion	-5677
▁fellow	-5678
>"	-5679
▁cycle	-5680
▁tried	-5681
▁deducted	-5682
▁dim	-5683
▁NASA	-5684
▁brings	-5685
▁generation	-5686
▁narratives	-5687
bor	-5688
▁Jes	-5689
iat	-5690
▁Society	-5691
▁sole	-5692
▁facts	-5693
alle	-5694
▁catch	-5695
▁Neg	-5696
':	-5697
▁master	-5698
▁hospital	-5699
▁Found	-5700
essions	-5701
▁agreed	-5702
▁vot	-5703
▁fewer	-5704
▁deaths	-5705
phone	-5706
▁favour	-5707
▁Tax	-5708
▁Activity	-5709
sey	-5710
▁Est	-5711
▁levers	-5712
▁genetic	-5713
▁shop	-5714
▁Virgin	-5715
ipped	-5716
col	-5717
▁substant	-5718
▁regardless	-5719
ifts	-5720
▁Business	-5721
▁conv	-5722
▁strengthen	-5723
▁surpris	-5724
▁complic	-5725
anged	-5726
thlet	-5727
▁attribut	-5728
▁performing	-5729
berg	-5730
▁philosop	-5731
▁specified	-5732
▁White	-5733
▁habits	-5734
$:	-5735
▁Acad	-5736
▁bird	-5737
▁basket	-5738
ivery	-5739
▁Space	-5740
▁offic	-5741
▁buried	-5742
▁manufacturing	-5743
▁sweet	-5744
▁excellent	-5745
rich	-5746
▁Mars	-5747
▁designs	-5748
▁vs	-5749
▁Rob	-5750
angle	-5751
▁guarant	-5752
python	-5753
unction	-5754
▁Congress	-5755
▁coord	-5756
hire	-5757
▁Lake	-5758
hent	-5759
▁divide	-5760
▁desired	-5761
▁Long	-5762
▁plastic	-5763
▁everyday	-5764
ria	-5765
▁depth	-5766
▁identified	-5767
▁sustainability	-5768
▁rearranging	-5769
▁surg	-5770
illa	-5771
▁Cult	-5772
▁susp	-5773
▁prepare	-5774
▁premium	-5775
▁forget	-5776
▁mit	-5777
▁confidence	-5778
▁protein	-5779
▁raised	-5780
▁Ann	-5781
▁Energy	-5782
▁relying	-5783
▁sanity	-5784
▁Connect	-5785
▁neighborhood	-5786
▁ratios	-5787
▁inputs	-5788
▁corresponding	-5789
▁populations	-5790
▁meat	-5791
men	-5792
▁drugs	-5793
pay	-5794
▁pays	-5795
▁vision	-5796
ona	-5797
▁Franc	-5798
▁conversations	-5799
iments	-5800
iday	-5801
▁fine	-5802
▁characteristics	-5803
▁[]	-5804
years	-5805
▁seeds	-5806
▁geocoding	-5807
AA	-5808
▁variability	-5809
▁internal	-5810
Is	-5811
▁ow	-5812
▁producing	-5813
▁Bal	-5814
▁Medic	-5815
▁issued	-5816
under	-5817
▁brown	-5818
tr	-5819
▁medium	-5820
▁Israel	-5821
▁lies	-5822
isms	-5823
ented	-5824
▁Monday	-5825
▁Jam	-5826
istan	-5827
▁ur	-5828
▁trig	-5829
▁root	-5830
▁leadership	-5831
erved	-5832
estyle	-5833
▁fill	-5834
▁grew	-5835
▁artist	-5836
ipping	-5837
do	-5838
▁friendly	-5839
▁bills	-5840
azon	-5841
▁shel	-5842
▁previously	-5843
izer	-5844
▁Sing	-5845
▁sexual	-5846
▁mobile	-5847
▁solving	-5848
▁properly	-5849
▁collected	-5850
assion	-5851
▁steeply	-5852
▁outstanding	-5853
ulner	-5854
▁pursu	-5855
▁dialog	-5856
dd	-5857
▁photos	-5858
▁moments	-5859
▁partner	-5860
▁Museum	-5861
▁practicing	-5862
▁pair	-5863
▁delivers	-5864
▁showc	-5865
▁bacteria	-5866
▁Look	-5867
▁advertising	-5868
▁uncomfortably	-5869
▁technical	-5870
▁cred	-5871
▁waves	-5872
▁deposits	-5873
▁acid	-5874
▁transp	-5875
▁Bas	-5876
RO	-5877
▁abilities	-5878
▁resistance	-5879
bed	-5880
▁Suppose	-5881
▁discussions	-5882
even	-5883
race	-5884
▁Mot	-5885
▁accompl	-5886
▁Bet	-5887
▁clin	-5888
▁delve	-5889
ustomer	-5890
▁Living	-5891
▁Di	-5892
▁degrees	-5893
RN	-5894
obal	-5895
</	-5896
gypt	-5897
▁corporate	-5898
▁award	-5899
▁$$	-5900
▁accuracy	-5901
▁external	-5902
▁Str	-5903
▁disp	-5904
▁Pract	-5905
▁spark	-5906
▁Unfortunately	-5907
aching	-5908
▁carries	-5909
▁van	-5910
sin	-5911
▁securities	-5912
▁taste	-5913
▁jump	-5914
▁Greek	-5915
▁recurs	-5916
ican	-5917
▁DNA	-5918
ien	-5919
▁Win	-5920
unicip	-5921
▁Learning	-5922
▁strategic	-5923
▁Where	-5924
▁chick	-5925
▁laun	-5926
▁accum	-5927
▁indicates	-5928
▁closed	-5929
▁Lab	-5930
▁affects	-5931
▁widely	-5932
▁Ev	-5933
ails	-5934
▁cheapest	-5935
▁preferences	-5936
▁rul	-5937
▁recovers	-5938
▁approximate	-5939
▁Applied	-5940
▁listed	-5941
▁obst	-5942
▁enthus	-5943
▁academic	-5944
▁evolution	-5945
▁officials	-5946
▁calls	-5947
itar	-5948
▁faces	-5949
▁inequ	-5950
▁Credit	-5951
▁raises	-5952
▁deliver	-5953
▁uncertain	-5954
▁sensitivity	-5955
▁rounding	-5956
▁careful	-5957
▁articles	-5958
ita	-5959
▁mouth	-5960
▁tit	-5961
▁Sal	-5962
▁yellow	-5963
▁substantial	-5964
well	-5965
▁frequently	-5966
▁spect	-5967
▁Fil	-5968
anguage	-5969
▁univers	-5970
▁arrive	-5971
unique	-5972
▁territ	-5973
▁element	-5974
▁sup	-5975
▁cutting	-5976
gal	-5977
▁insect	-5978
▁optimal	-5979
▁listen	-5980
cious	-5981
▁banking	-5982
▁serving	-5983
▁please	-5984
rets	-5985
apers	-5986
▁acknow	-5987
▁contracts	-5988
writ	-5989
▁explan	-5990
heast	-5991
osite	-5992
▁decades	-5993
▁examine	-5994
▁taught	-5995
roy	-5996
▁Ref	-5997
▁edge	-5998
▁Florida	-5999
▁Project	-6000
▁universe	-6001
▁Carol	-6002
▁remark	-6003
birth	-6004
document	-6005
▁industrial	-6006
▁dogs	-6007
amps	-6008
comm	-6009
▁precise	-6010
▁minor	-6011
▁supplies	-6012
▁Post	-6013
▁ship	-6014
uesday	-6015
▁nations	-6016
▁diabetes	-6017
▁purchases	-6018
▁incorporating	-6019
ordinary	-6020
▁Italian	-6021
ective	-6022
ologists	-6023
▁analyzing	-6024
ycl	-6025
ygen	-6026
▁Thomas	-6027
\\%$	-6028
▁Mult	-6029
▁fraud	-6030
▁institution	-6031
▁contributing	-6032
▁Conf	-6033
▁About	-6034
▁entit	-6035
▁strange	-6036
▁spiritual	-6037
▁Atl	-6038
▁phenomen	-6039
▁identifiers	-6040
ologist	-6041
rian	-6042
▁Fund	-6043
▁scene	-6044
▁implemented	-6045
▁watching	-6046
▁bust	-6047
▁Fact	-6048
▁continuously	-6049
ett	-6050
▁Ireland	-6051
▁disput	-6052
▁containing	-6053
▁shopping	-6054
▁variables	-6055
▁distinction	-6056
▁attend	-6057
▁appeared	-6058
▁Egypt	-6059
ev	-6060
▁Students	-6061
▁organized	-6062
▁empt	-6063
▁District	-6064
CNN	-6065
▁IP	-6066
▁standing	-6067
▁identifiable	-6068
cel	-6069
xture	-6070
▁Press	-6071
▁Positive	-6072
▁deeply	-6073
▁wisdom	-6074
▁island	-6075
▁puzz	-6076
▁pandemic	-6077
band	-6078
▁bronze	-6079
OT	-6080
▁determination	-6081
▁tells	-6082
▁touch	-6083
▁manager	-6084
iox	-6085
▁feat	-6086
▁meal	-6087
▁Neutral	-6088
active	-6089
▁employment	-6090
▁differently	-6091
'.	-6092
▁losing	-6093
▁aid	-6094
▁equations	-6095
▁soc	-6096
▁hurdle	-6097
▁captivating	-6098
aren	-6099
▁addressing	-6100
▁Russia	-6101
▁beneficial	-6102
▁minimize	-6103
▁Mac	-6104
▁houses	-6105
▁runs	-6106
ifications	-6107
▁PAN	-6108
▁plain	-6109
▁poverty	-6110
▁Tuesday	-6111
▁survey	-6112
▁settings	-6113
▁boundaries	-6114
▁enable	-6115
zil	-6116
▁entertainment	-6117
elve	-6118
▁Back	-6119
▁flood	-6120
▁coverage	-6121
▁split	-6122
▁matching	-6123
amental	-6124
▁candid	-6125
▁funding	-6126
▁Wed	-6127
▁hides	-6128
▁Friday	-6129
▁allocate	-6130
▁Ins	-6131
▁CNN	-6132
▁None	-6133
▁engagement	-6134
▁loyal	-6135
▁indicate	-6136
▁suggested	-6137
▁Cup	-6138
▁occup	-6139
▁unlike	-6140
▁nuclear	-6141
▁Hen	-6142
▁stands	-6143
▁vulner	-6144
▁Civil	-6145
▁purchased	-6146
▁ounce	-6147
▁computing	-6148
▁ple	-6149
▁foster	-6150
▁Common	-6151
▁Court	-6152
▁websites	-6153
▁column	-6154
▁monitor	-6155
▁locations	-6156
▁vit	-6157
▁joined	-6158
▁loses	-6159
▁seeing	-6160
▁revolution	-6161
assw	-6162
▁Adv	-6163
ocolate	-6164
▁Cam	-6165
▁writers	-6166
▁meaningless	-6167
▁Latin	-6168
ervative	-6169
▁alt	-6170
▁Timmy	-6171
▁election	-6172
▁accurately	-6173
alse	-6174
▁swim	-6175
▁peers	-6176
▁Human	-6177
▁claims	-6178
▁regulatory	-6179
▁Compounding	-6180
met	-6181
▁compensation	-6182
▁suitable	-6183
▁pal	-6184
▁truth	-6185
▁examining	-6186
▁efficiently	-6187
▁Council	-6188
▁Companies	-6189
Ph	-6190
edy	-6191
▁rot	-6192
▁subsid	-6193
cript	-6194
lick	-6195
▁muse	-6196
domain	-6197
▁manufacture	-6198
▁excited	-6199
▁electronic	-6200
last	-6201
▁Gen	-6202
▁Scott	-6203
▁Internet	-6204
nic	-6205
▁Leg	-6206
▁facilities	-6207
▁dishes	-6208
mas	-6209
organ	-6210
▁cake	-6211
▁implementing	-6212
orter	-6213
▁professor	-6214
inger	-6215
▁Plus	-6216
▁AT	-6217
▁recognized	-6218
▁pull	-6219
▁dealing	-6220
UD	-6221
▁stre	-6222
▁Columb	-6223
▁intricate	-6224
gest	-6225
▁department	-6226
hered	-6227
▁extraordinary	-6228
ror	-6229
▁lin	-6230
aming	-6231
▁Amazon	-6232
▁cups	-6233
▁Emp	-6234
found	-6235
always	-6236
icking	-6237
▁performed	-6238
)/	-6239
iated	-6240
htt	-6241
▁satisfaction	-6242
▁Vict	-6243
uration	-6244
▁struggling	-6245
gon	-6246
BA	-6247
▁heritage	-6248
▁expansion	-6249
ighter	-6250
▁Music	-6251
▁weigh	-6252
igration	-6253
▁Ut	-6254
ellect	-6255
▁usage	-6256
▁convert	-6257
▁manip	-6258
▁movies	-6259
▁cop	-6260
▁layers	-6261
("	-6262
▁Frank	-6263
gl	-6264
▁Hol	-6265
▁flight	-6266
▁dangerous	-6267
▁Jose	-6268
▁memories	-6269
▁spok	-6270
▁slowly	-6271
▁representing	-6272
▁Bill	-6273
▁grown	-6274
▁widens	-6275
▁Italy	-6276
▁Security	-6277
▁proposed	-6278
▁religion	-6279
▁residents	-6280
▁Share	-6281
▁Lily	-6282
▁copper	-6283
▁advantages	-6284
iating	-6285
▁adop	-6286
▁treatments	-6287
change	-6288
▁Ir	-6289
▁intrig	-6290
▁monetary	-6291
ena	-6292
▁regional	-6293
▁advancements	-6294
ensus	-6295
▁divides	-6296
▁PII	-6297
▁arrived	-6298
▁particles	-6299
▁agency	-6300
▁listening	-6301
▁church	-6302
▁Development	-6303
▁smoot	-6304
▁myself	-6305
▁unemployment	-6306
ificate	-6307
▁technological	-6308
▁Engine	-6309
atell	-6310
▁kinds	-6311
▁reput	-6312
▁magic	-6313
▁Follow	-6314
which	-6315
▁Determ	-6316
whel	-6317
▁Old	-6318
▁toys	-6319
▁remote	-6320
▁kid	-6321
▁peak	-6322
lessly	-6323
▁Att	-6324
▁rhy	-6325
▁Power	-6326
▁wildlife	-6327
irms	-6328
▁Mass	-6329
▁smoothed	-6330
▁classroom	-6331
ashion	-6332
unning	-6333
▁Three	-6334
▁tables	-6335
▁Pacific	-6336
och	-6337
▁Lim	-6338
▁complicated	-6339
▁clothing	-6340
▁Mad	-6341
▁Test	-6342
▁loaf	-6343
▁puts	-6344
▁orders	-6345
tee	-6346
return	-6347
▁joint	-6348
▁monitoring	-6349
▁astron	-6350
▁linked	-6351
▁inspire	-6352
▁fourth	-6353
▁weekly	-6354
▁Sil	-6355
uit	-6356
▁Exclude	-6357
{\\	-6358
▁Verifying	-6359
▁Top	-6360
iture	-6361
▁capture	-6362
▁accident	-6363
▁files	-6364
EM	-6365
▁foss	-6366
ressed	-6367
▁girls	-6368
▁killed	-6369
▁prompt	-6370
▁spring	-6371
▁anxiety	-6372
▁interactions	-6373
▁Mag	-6374
▁sentences	-6375
▁delivery	-6376
▁incent	-6377
],	-6378
?":	-6379
▁Capital	-6380
leg	-6381
▁Check	-6382
▁cooper	-6383
▁societal	-6384
▁Ap	-6385
▁happening	-6386
▁kept	-6387
▁trib	-6388
▁discrim	-6389
racy	-6390
▁battle	-6391
▁putting	-6392
▁AD	-6393
▁Did	-6394
▁reaching	-6395
▁restrict	-6396
▁Mel	-6397
▁privacy	-6398
▁URL	-6399
essel	-6400
▁thick	-6401
▁aimed	-6402
▁majority	-6403
▁Mer	-6404
▁Jack	-6405
▁infection	-6406
ella	-6407
▁prediction	-6408
▁authent	-6409
▁regist	-6410
▁speaking	-6411
record	-6412
▁connecting	-6413
▁originally	-6414
▁Imp	-6415
▁tales	-6416
ycling	-6417
▁Louis	-6418
▁Libr	-6419
▁frequent	-6420
▁representation	-6421
▁sensitive	-6422
▁fab	-6423
▁Brazil	-6424
ounce	-6425
▁mixed	-6426
▁thanks	-6427
▁Dan	-6428
▁brief	-6429
▁mixture	-6430
irt	-6431
▁assume	-6432
▁politics	-6433
▁fro	-6434
▁musical	-6435
▁superior	-6436
ulf	-6437
eless	-6438
▁blocks	-6439
▁Government	-6440
▁rely	-6441
▁Jesus	-6442
▁clearly	-6443
ston	-6444
▁Stand	-6445
▁massive	-6446
▁nutrition	-6447
▁license	-6448
▁isol	-6449
▁Ze	-6450
▁Party	-6451
▁earns	-6452
▁apples	-6453
▁twelve	-6454
▁sad	-6455
▁warn	-6456
▁oxygen	-6457
▁operation	-6458
TS	-6459
▁AP	-6460
▁owned	-6461
ND	-6462
uis	-6463
▁crypt	-6464
▁stuff	-6465
▁Martin	-6466
ours	-6467
▁pun	-6468
▁turning	-6469
apping	-6470
▁thor	-6471
▁Maria	-6472
▁capable	-6473
▁Rad	-6474
▁sheet	-6475
▁embracing	-6476
hetic	-6477
▁anti	-6478
▁thin	-6479
▁robot	-6480
▁participate	-6481
▁grab	-6482
▁mountain	-6483
▁Ill	-6484
▁choosing	-6485
alk	-6486
▁excite	-6487
isp	-6488
▁dance	-6489
▁possibilities	-6490
▁rail	-6491
AS	-6492
▁reference	-6493
ship	-6494
▁door	-6495
▁hed	-6496
▁critic	-6497
▁mostly	-6498
▁protecting	-6499
▁architecture	-6500
▁empty	-6501
▁Current	-6502
amily	-6503
▁Champions	-6504
▁fundamental	-6505
anta	-6506
world	-6507
▁unus	-6508
▁Women	-6509
bi	-6510
agues	-6511
itial	-6512
level	-6513
▁possess	-6514
▁volunte	-6515
▁strict	-6516
ec	-6517
▁Little	-6518
▁Land	-6519
▁aims	-6520
▁amidst	-6521
▁organic	-6522
▁Children	-6523
▁fix	-6524
▁views	-6525
▁pregn	-6526
▁selected	-6527
▁writer	-6528
mes	-6529
▁description	-6530
▁gene	-6531
▁heavily	-6532
▁Cath	-6533
▁session	-6534
▁shareholders	-6535
▁dish	-6536
▁Virginia	-6537
▁affecting	-6538
▁improvement	-6539
▁bag	-6540
▁wire	-6541
▁divis	-6542
soft	-6543
▁farmers	-6544
▁cub	-6545
▁ic	-6546
rink	-6547
▁Journal	-6548
body	-6549
▁limits	-6550
▁productivity	-6551
▁southern	-6552
▁prioritize	-6553
▁arm	-6554
▁styles	-6555
▁synt	-6556
apes	-6557
▁fighting	-6558
VID	-6559
agraph	-6560
▁harmful	-6561
▁Numbers	-6562
▁represented	-6563
▁warming	-6564
▁era	-6565
▁flour	-6566
▁begins	-6567
▁violence	-6568
attle	-6569
▁broader	-6570
▁appearance	-6571
▁Exploring	-6572
▁blog	-6573
▁motion	-6574
▁Pot	-6575
▁Saf	-6576
▁discl	-6577
burg	-6578
▁clar	-6579
▁Any	-6580
ala	-6581
income	-6582
road	-6583
states	-6584
▁behaviors	-6585
▁texts	-6586
▁skill	-6587
▁lifestyle	-6588
zen	-6589
▁minds	-6590
hi	-6591
ENT	-6592
▁Chic	-6593
▁witness	-6594
▁domestic	-6595
▁Hall	-6596
valu	-6597
itis	-6598
▁wall	-6599
▁evaluate	-6600
▁moon	-6601
▁Sund	-6602
asts	-6603
ki	-6604
▁daughter	-6605
▁Loc	-6606
▁failure	-6607
▁adventures	-6608
▁intended	-6609
▁rom	-6610
▁Open	-6611
▁fell	-6612
ht	-6613
ursday	-6614
▁fraction	-6615
▁poem	-6616
▁cheese	-6617
▁confusion	-6618
▁authorities	-6619
▁applying	-6620
▁reviewing	-6621
ato	-6622
▁overwhel	-6623
▁drink	-6624
▁countless	-6625
▁suc	-6626
▁Mach	-6627
▁Work	-6628
▁gift	-6629
▁Revenue	-6630
▁ran	-6631
▁married	-6632
▁load	-6633
▁influenced	-6634
▁die	-6635
▁Global	-6636
▁conducted	-6637
▁Wild	-6638
han	-6639
week	-6640
▁define	-6641
▁founded	-6642
▁foundation	-6643
▁inequality	-6644
▁Pop	-6645
▁correctly	-6646
▁Eff	-6647
▁YOU	-6648
▁chocolate	-6649
ls	-6650
▁Meanwhile	-6651
▁intermediate	-6652
▁electron	-6653
▁biggest	-6654
▁mic	-6655
▁fert	-6656
medical	-6657
▁realm	-6658
▁compassion	-6659
▁aggressive	-6660
▁grass	-6661
ORT	-6662
▁cere	-6663
nesday	-6664
▁conflicts	-6665
▁remarkable	-6666
▁lemon	-6667
▁Lo	-6668
cers	-6669
▁datas	-6670
▁Equity	-6671
▁dreams	-6672
▁Squ	-6673
▁finances	-6674
▁walls	-6675
▁Review	-6676
▁visiting	-6677
▁Const	-6678
▁fest	-6679
▁waters	-6680
▁victim	-6681
▁literary	-6682
▁introduce	-6683
▁excitement	-6684
▁outper	-6685
▁successfully	-6686
▁arts	-6687
LC	-6688
▁mal	-6689
▁surprise	-6690
▁iron	-6691
▁ancest	-6692
▁Oper	-6693
▁settlement	-6694
eding	-6695
profit	-6696
▁conven	-6697
▁Dev	-6698
▁rapidly	-6699
ogen	-6700
▁obstac	-6701
▁reporting	-6702
anes	-6703
▁pul	-6704
▁intellect	-6705
▁Ocean	-6706
▁unless	-6707
▁Charles	-6708
▁acquired	-6709
▁sau	-6710
▁flows	-6711
▁myth	-6712
▁fif	-6713
cohol	-6714
friendly	-6715
▁Thursday	-6716
▁Face	-6717
▁hearing	-6718
▁executive	-6719
aya	-6720
▁AS	-6721
▁struggle	-6722
▁reduction	-6723
Americ	-6724
▁tradition	-6725
▁Phys	-6726
ini	-6727
rum	-6728
▁Spec	-6729
▁patience	-6730
▁courage	-6731
▁herself	-6732
▁bustling	-6733
Sh	-6734
▁featuring	-6735
ette	-6736
night	-6737
▁removed	-6738
▁clients	-6739
▁tun	-6740
▁pool	-6741
▁teen	-6742
spe	-6743
ml	-6744
▁mindful	-6745
▁medal	-6746
▁subjects	-6747
chant	-6748
▁concerned	-6749
rence	-6750
ache	-6751
umes	-6752
▁Examples	-6753
▁referred	-6754
uch	-6755
▁stret	-6756
,'	-6757
▁Pan	-6758
win	-6759
▁Wind	-6760
▁barri	-6761
▁$(	-6762
▁Writ	-6763
▁Wednesday	-6764
▁legisl	-6765
resent	-6766
▁Spain	-6767
ypes	-6768
cell	-6769
▁Grand	-6770
▁Victor	-6771
▁command	-6772
▁exposed	-6773
▁brave	-6774
▁flavor	-6775
▁meters	-6776
▁analyt	-6777
▁component	-6778
▁vessel	-6779
▁segment	-6780
▁studied	-6781
PM	-6782
ossible	-6783
oist	-6784
▁Big	-6785
bing	-6786
lean	-6787
▁cm	-6788
▁default	-6789
▁consolid	-6790
▁moral	-6791
▁handled	-6792
▁stake	-6793
rounded	-6794
sell	-6795
▁offs	-6796
▁struggles	-6797
rate	-6798
▁fantastic	-6799
▁mere	-6800
ML	-6801
▁Those	-6802
▁cyber	-6803
▁definition	-6804
itely	-6805
▁mitig	-6806
?**	-6807
osa	-6808
▁syn	-6809
▁Choose	-6810
owing	-6811
▁novels	-6812
▁Russian	-6813
▁III	-6814
▁subsequ	-6815
uses	-6816
agram	-6817
▁radiation	-6818
▁Labor	-6819
▁react	-6820
▁Wil	-6821
▁stations	-6822
▁eager	-6823
▁magaz	-6824
isher	-6825
▁sample	-6826
▁Hy	-6827
▁Commission	-6828
▁adm	-6829
▁newsp	-6830
▁inventory	-6831
▁Mont	-6832
▁Islam	-6833
▁Nominal	-6834
ken	-6835
▁boxes	-6836
▁comment	-6837
▁guitar	-6838
▁occurred	-6839
▁tast	-6840
criptions	-6841
erts	-6842
▁cart	-6843
chers	-6844
ocratic	-6845
▁colorful	-6846
▁resident	-6847
▁Among	-6848
▁operate	-6849
▁Star	-6850
▁crow	-6851
▁sched	-6852
▁gently	-6853
▁facilit	-6854
▁rental	-6855
▁decor	-6856
▁Britain	-6857
▁script	-6858
▁Chicago	-6859
▁receiving	-6860
▁equivalent	-6861
▁senior	-6862
▁tele	-6863
▁Super	-6864
▁classic	-6865
▁holiday	-6866
▁covers	-6867
▁signed	-6868
▁recovery	-6869
▁Coll	-6870
▁Fort	-6871
▁acts	-6872
▁transition	-6873
▁errors	-6874
▁entry	-6875
▁indeed	-6876
▁Eth	-6877
▁sequence	-6878
▁Native	-6879
bur	-6880
▁typical	-6881
▁preserving	-6882
erial	-6883
▁sport	-6884
lines	-6885
▁motor	-6886
ointed	-6887
▁saved	-6888
▁videos	-6889
▁secrets	-6890
horizon	-6891
▁opinion	-6892
▁IRA	-6893
▁container	-6894
▁realize	-6895
▁dynamics	-6896
▁hundreds	-6897
▁Nav	-6898
▁muscle	-6899
▁encounter	-6900
Location	-6901
▁complexity	-6902
▁corn	-6903
oom	-6904
▁exec	-6905
ognitive	-6906
▁northern	-6907
▁commission	-6908
AP	-6909
urd	-6910
▁sick	-6911
▁cookies	-6912
▁selection	-6913
▁Prop	-6914
▁scholars	-6915
▁paragraph	-6916
ventional	-6917
▁Non	-6918
▁toy	-6919
▁Early	-6920
▁compl	-6921
▁trouble	-6922
▁reb	-6923
▁nine	-6924
▁bon	-6925
▁tox	-6926
▁engaged	-6927
ye	-6928
▁fle	-6929
▁IRS	-6930
▁Georg	-6931
})	-6932
ishes	-6933
▁crops	-6934
stood	-6935
▁division	-6936
▁immune	-6937
uction	-6938
▁obtain	-6939
▁Dif	-6940
arios	-6941
▁god	-6942
▁agencies	-6943
He	-6944
▁phrase	-6945
▁partners	-6946
▁row	-6947
▁bot	-6948
▁accessible	-6949
BM	-6950
▁weap	-6951
▁Though	-6952
▁bars	-6953
▁entered	-6954
▁ideal	-6955
▁cues	-6956
▁labels	-6957
▁engineers	-6958
▁Negative	-6959
▁projection	-6960
▁university	-6961
IA	-6962
▁matrix	-6963
▁ec	-6964
▁subtracts	-6965
antly	-6966
ifies	-6967
▁agent	-6968
OL	-6969
luding	-6970
▁package	-6971
celer	-6972
▁theme	-6973
▁reward	-6974
▁surgery	-6975
▁fly	-6976
▁Richard	-6977
▁expend	-6978
itter	-6979
▁myst	-6980
You	-6981
har	-6982
▁rab	-6983
chain	-6984
▁integer	-6985
▁restaurant	-6986
▁financing	-6987
▁acquisition	-6988
▁lawy	-6989
▁Gre	-6990
▁du	-6991
ront	-6992
BT	-6993
▁UN	-6994
▁except	-6995
▁mainly	-6996
▁floor	-6997
▁overstates	-6998
▁tum	-6999
▁fort	-7000
▁Analyze	-7001
▁surf	-7002
▁crime	-7003
▁cultiv	-7004
▁Professor	-7005
using	-7006
▁handling	-7007
▁consistently	-7008
rome	-7009
▁cos	-7010
▁Scot	-7011
▁electrical	-7012
▁injury	-7013
rm	-7014
vity	-7015
owers	-7016
▁rice	-7017
▁Phot	-7018
▁powers	-7019
▁balanced	-7020
▁routine	-7021
▁\[	-7022
iter	-7023
▁Report	-7024
▁succeed	-7025
▁estimate	-7026
▁experiencing	-7027
▁Rail	-7028
▁signal	-7029
▁nutrients	-7030
aud	-7031
▁formation	-7032
▁partnerships	-7033
CD	-7034
▁Book	-7035
▁equally	-7036
▁achieved	-7037
▁proteins	-7038
▁extremely	-7039
▁Luc	-7040
▁attacks	-7041
▁enables	-7042
▁younger	-7043
▁supported	-7044
▁Orig	-7045
▁plenty	-7046
▁unusual	-7047
mates	-7048
fin	-7049
▁flexibility	-7050
▁Arab	-7051
▁aggreg	-7052
▁identifying	-7053
▁Rock	-7054
▁symbols	-7055
▁Peter	-7056
arters	-7057
▁marked	-7058
roke	-7059
▁Systems	-7060
▁Carolina	-7061
▁lands	-7062
cher	-7063
▁Cat	-7064
▁amb	-7065
telling	-7066
▁satell	-7067
▁Tor	-7068
▁tur	-7069
▁breast	-7070
▁Incorpor	-7071
▁observed	-7072
▁ordinary	-7073
▁Present	-7074
▁Dig	-7075
▁teeth	-7076
▁athlet	-7077
▁reduces	-7078
▁Place	-7079
▁Penn	-7080
▁stored	-7081
▁window	-7082
ugg	-7083
▁shall	-7084
▁uneven	-7085
▁carrying	-7086
▁chemicals	-7087
▁corner	-7088
▁Pet	-7089
▁Mechan	-7090
▁suddenly	-7091
▁expanding	-7092
Con	-7093
▁administr	-7094
▁assessment	-7095
▁separating	-7096
▁fulf	-7097
enth	-7098
▁Know	-7099
▁Obama	-7100
▁capabilities	-7101
acc	-7102
▁fu	-7103
▁tracking	-7104
▁emotion	-7105
▁scenarios	-7106
▁fluctuations	-7107
prene	-7108
▁inner	-7109
▁breaking	-7110
▁unable	-7111
▁wellbeing	-7112
▁Bond	-7113
▁conservative	-7114
war	-7115
▁End	-7116
▁dates	-7117
▁finds	-7118
reprene	-7119
▁mathematical	-7120
▁lights	-7121
▁thread	-7122
▁youth	-7123
▁quote	-7124
▁disorder	-7125
▁implementation	-7126
list	-7127
iche	-7128
umbled	-7129
▁tough	-7130
▁necessarily	-7131
▁albums	-7132
▁wave	-7133
▁@	-7134
▁finish	-7135
▁pricing	-7136
▁commod	-7137
▁discussed	-7138
▁aw	-7139
with	-7140
roph	-7141
▁bridge	-7142
%)	-7143
▁extracted	-7144
PT	-7145
▁shad	-7146
lets	-7147
▁Sud	-7148
▁SS	-7149
▁Satur	-7150
bles	-7151
▁Best	-7152
▁deals	-7153
▁CEO	-7154
▁seed	-7155
stract	-7156
▁Try	-7157
▁mysterious	-7158
lers	-7159
▁lung	-7160
▁plaus	-7161
▁emerging	-7162
CC	-7163
▁Incre	-7164
▁diam	-7165
downs	-7166
▁gent	-7167
▁dialogue	-7168
------------	-7169
▁municip	-7170
▁category	-7171
inent	-7172
▁crim	-7173
▁firms	-7174
▁habitat	-7175
▁Hear	-7176
▁lease	-7177
▁numer	-7178
▁Sea	-7179
▁haven	-7180
▁forests	-7181
holder	-7182
▁overl	-7183
▁broken	-7184
▁recommendations	-7185
▁Wood	-7186
▁gone	-7187
▁circle	-7188
athered	-7189
▁Should	-7190
▁Environmental	-7191
▁shot	-7192
▁Town	-7193
▁Express	-7194
▁signals	-7195
ua	-7196
▁coal	-7197
▁explanation	-7198
▁greatest	-7199
iller	-7200
▁cuts	-7201
▁Paris	-7202
▁inspiration	-7203
▁asp	-7204
▁opposite	-7205
▁Swed	-7206
▁Comput	-7207
▁depression	-7208
▁Lastly	-7209
▁persist	-7210
▁demonstrate	-7211
bra	-7212
riage	-7213
▁finished	-7214
▁plausible	-7215
▁wonderful	-7216
▁wet	-7217
▁Discuss	-7218
OS	-7219
▁Los	-7220
icy	-7221
ione	-7222
▁mast	-7223
inions	-7224
▁alcohol	-7225
▁Ha	-7226
▁cats	-7227
▁procedures	-7228
▁personalized	-7229
noon	-7230
▁Ter	-7231
▁bags	-7232
▁Color	-7233
▁passage	-7234
▁owners	-7235
▁inhab	-7236
▁HIV	-7237
ban	-7238
▁tickets	-7239
ockey	-7240
▁epis	-7241
▁tack	-7242
▁Jamie	-7243
▁gross	-7244
▁Natural	-7245
▁cryst	-7246
▁inherently	-7247
▁prison	-7248
uke	-7249
▁lowest	-7250
---	-7251
uls	-7252
cules	-7253
itative	-7254
PER	-7255
hem	-7256
▁combining	-7257
live	-7258
▁Library	-7259
▁Analysis	-7260
▁exercises	-7261
)?	-7262
▁rub	-7263
▁Camp	-7264
▁route	-7265
▁Haw	-7266
▁sister	-7267
▁Building	-7268
▁Records	-7269
">	-7270
▁Budd	-7271
aks	-7272
▁aside	-7273
ibl	-7274
▁caught	-7275
▁coun	-7276
▁drawn	-7277
▁camera	-7278
eday	-7279
ancer	-7280
▁Whether	-7281
▁fashion	-7282
▁winning	-7283
▁passw	-7284
▁celebrate	-7285
▁Office	-7286
weight	-7287
▁tissue	-7288
▁Microsoft	-7289
▁Gal	-7290
▁artistic	-7291
▁collective	-7292
▁reaction	-7293
MS	-7294
▁branch	-7295
▁eld	-7296
▁pairs	-7297
▁derived	-7298
▁comments	-7299
▁Watch	-7300
▁driven	-7301
▁anticip	-7302
▁kindness	-7303
▁Ok	-7304
▁Royal	-7305
▁Rounding	-7306
▁Modern	-7307
ION	-7308
▁threats	-7309
▁Determine	-7310
▁Thanks	-7311
▁Treat	-7312
▁rating	-7313
▁multiply	-7314
vin	-7315
PORT	-7316
▁Ma	-7317
plement	-7318
▁indigenous	-7319
▁Kar	-7320
▁Gard	-7321
▁diss	-7322
▁supports	-7323
oca	-7324
da	-7325
▁Facebook	-7326
venues	-7327
pan	-7328
real	-7329
▁introduction	-7330
▁happiness	-7331
▁shoot	-7332
▁forming	-7333
▁translates	-7334
HAR	-7335
▁defe	-7336
▁breaks	-7337
▁raw	-7338
▁multi	-7339
▁vote	-7340
▁Brown	-7341
▁samples	-7342
point	-7343
print	-7344
▁Foot	-7345
▁Access	-7346
BER	-7347
▁</	-7348
▁Simpl	-7349
▁Club	-7350
etime	-7351
▁nice	-7352
▁Sunday	-7353
▁Sov	-7354
▁Stan	-7355
▁balls	-7356
▁giant	-7357
▁destroy	-7358
▁pig	-7359
▁alike	-7360
yr	-7361
▁ax	-7362
▁purs	-7363
▁sharp	-7364
▁someday	-7365
▁injuries	-7366
▁Er	-7367
▁promised	-7368
▁visitors	-7369
▁plane	-7370
illy	-7371
▁Henry	-7372
fall	-7373
▁Jul	-7374
▁trades	-7375
▁Indigenous	-7376
\]	-7377
▁ages	-7378
▁liability	-7379
▁Valley	-7380
▁profound	-7381
▁genes	-7382
▁opinions	-7383
izz	-7384
anches	-7385
CE	-7386
outs	-7387
▁wed	-7388
▁independence	-7389
ila	-7390
▁IN	-7391
LIC	-7392
aland	-7393
▁basketball	-7394
▁drift	-7395
▁USA	-7396
▁encouraging	-7397
▁seat	-7398
▁Army	-7399
▁legs	-7400
▁bringing	-7401
▁linear	-7402
▁elected	-7403
▁Worth	-7404
▁stimul	-7405
▁Notes	-7406
▁muscles	-7407
mart	-7408
▁Stat	-7409
▁provider	-7410
▁Saturday	-7411
ga	-7412
▁antib	-7413
▁aircraft	-7414
▁Academy	-7415
▁extended	-7416
long	-7417
▁Tour	-7418
▁Revolution	-7419
▁dut	-7420
ferent	-7421
liance	-7422
▁inspiring	-7423
▁merg	-7424
▁Scientists	-7425
Or	-7426
gment	-7427
▁convey	-7428
▁sunlight	-7429
olitical	-7430
▁liabilities	-7431
gu	-7432
ENSE	-7433
cope	-7434
▁acknowled	-7435
▁arms	-7436
ackson	-7437
sembly	-7438
▁precious	-7439
▁photograph	-7440
▁Regular	-7441
▁streets	-7442
▁mistakes	-7443
▁materially	-7444
iot	-7445
ora	-7446
▁smallest	-7447
appe	-7448
▁gal	-7449
▁Board	-7450
ONE	-7451
▁strike	-7452
▁colleagues	-7453
▁hob	-7454
▁risen	-7455
▁chicken	-7456
▁narrow	-7457
▁channels	-7458
No	-7459
hero	-7460
▁societies	-7461
pes	-7462
▁sunny	-7463
▁Price	-7464
ean	-7465
▁forg	-7466
▁fossil	-7467
paration	-7468
▁Exper	-7469
▁Services	-7470
▁obstacles	-7471
As	-7472
ocking	-7473
igan	-7474
▁Type	-7475
orrect	-7476
liament	-7477
erring	-7478
▁Record	-7479
▁cheaper	-7480
▁overcome	-7481
▁afternoon	-7482
▁doors	-7483
▁partial	-7484
▁none	-7485
▁survive	-7486
▁intellectual	-7487
arsh	-7488
▁Catholic	-7489
▁scenes	-7490
▁agriculture	-7491
▁IT	-7492
▁sod	-7493
▁recipe	-7494
▁solely	-7495
▁whom	-7496
▁Jud	-7497
▁sessions	-7498
▁Asian	-7499
▁Liter	-7500
gers	-7501
▁TH	-7502
alled	-7503
▁recon	-7504
Cl	-7505
RIV	-7506
▁cher	-7507
▁ride	-7508
▁marginal	-7509
▁exception	-7510
throp	-7511
▁Ult	-7512
▁soldiers	-7513
▁chat	-7514
▁stone	-7515
▁Columbia	-7516
Wh	-7517
away	-7518
▁hus	-7519
iy	-7520
▁noted	-7521
▁disorders	-7522
▁understood	-7523
▁upper	-7524
▁belief	-7525
________	-7526
▁agricultural	-7527
REET	-7528
▁rural	-7529
▁preparing	-7530
ioxide	-7531
▁tomat	-7532
▁centers	-7533
▁facility	-7534
▁Give	-7535
CT	-7536
▁courses	-7537
▁pharm	-7538
▁Online	-7539
▁providers	-7540
working	-7541
▁trained	-7542
▁highlights	-7543
▁penc	-7544
▁inher	-7545
▁whereas	-7546
▁flavors	-7547
utch	-7548
eries	-7549
▁क	-7550
▁Hill	-7551
▁existence	-7552
▁passing	-7553
▁operates	-7554
▁luck	-7555
▁enabling	-7556
▁click	-7557
▁client	-7558
▁spin	-7559
▁Empire	-7560
▁Employ	-7561
▁greenhouse	-7562
BS	-7563
▁pra	-7564
▁ske	-7565
gi	-7566
gent	-7567
section	-7568
▁scar	-7569
▁Main	-7570
▁tale	-7571
▁dil	-7572
▁false	-7573
▁accomp	-7574
▁fairly	-7575
▁perman	-7576
aneously	-7577
▁enjoying	-7578
osal	-7579
▁edges	-7580
▁clothes	-7581
▁Bo	-7582
▁intense	-7583
exp	-7584
▁preserve	-7585
▁Foundation	-7586
▁proportions	-7587
▁harmony	-7588
▁dedication	-7589
fts	-7590
▁interaction	-7591
▁bone	-7592
▁seconds	-7593
umps	-7594
▁chief	-7595
▁paralle	-7596
iana	-7597
▁alive	-7598
▁beach	-7599
▁minute	-7600
▁decimal	-7601
ctic	-7602
▁interactive	-7603
▁tech	-7604
▁||	-7605
American	-7606
first	-7607
▁curve	-7608
▁gathered	-7609
▁neck	-7610
SP	-7611
tering	-7612
▁designing	-7613
omic	-7614
orous	-7615
▁breakdown	-7616
▁baking	-7617
▁launch	-7618
▁seemingly	-7619
backs	-7620
obe	-7621
▁humanity	-7622
(\\	-7623
stream	-7624
▁positively	-7625
enders	-7626
▁friendship	-7627
▁acceler	-7628
neys	-7629
▁drinking	-7630
ker	-7631
flat	-7632
▁Learn	-7633
▁unity	-7634
▁authority	-7635
▁obligations	-7636
▁dress	-7637
▁repay	-7638
▁substitutes	-7639
▁decreased	-7640
▁expressions	-7641
▁accomplish	-7642
mod	-7643
▁gentle	-7644
error	-7645
▁proud	-7646
▁Southern	-7647
eling	-7648
▁prime	-7649
▁reasonable	-7650
▁honor	-7651
CA	-7652
▁marine	-7653
▁reviews	-7654
▁combine	-7655
▁manner	-7656
▁improvements	-7657
▁cul	-7658
▁rose	-7659
▁Nature	-7660
ograp	-7661
▁pray	-7662
▁Encourage	-7663
▁campaigns	-7664
hav	-7665
▁protected	-7666
▁thrilling	-7667
▁presentation	-7668
▁Bur	-7669
▁compos	-7670
▁sizes	-7671
▁Wall	-7672
▁hurt	-7673
▁planned	-7674
▁explored	-7675
▁distributed	-7676
itchen	-7677
imm	-7678
▁Men	-7679
▁turnover	-7680
▁certainly	-7681
LE	-7682
▁emerged	-7683
▁Historical	-7684
oints	-7685
▁Sign	-7686
▁dioxide	-7687
▁healthier	-7688
▁pil	-7689
▁bike	-7690
▁elev	-7691
▁Implement	-7692
▁borrowing	-7693
iti	-7694
▁Low	-7695
▁nest	-7696
▁entreprene	-7697
inder	-7698
▁Jackson	-7699
▁Disney	-7700
▁sitting	-7701
icity	-7702
▁beat	-7703
▁physics	-7704
▁Mrs	-7705
▁rewards	-7706
vania	-7707
▁Hold	-7708
▁Soviet	-7709
▁survival	-7710
▁gun	-7711
ycles	-7712
▁horm	-7713
▁Games	-7714
▁Zealand	-7715
▁forever	-7716
▁loyalty	-7717
▁update	-7718
▁molecules	-7719
▁consideration	-7720
kins	-7721
▁Cr	-7722
▁falling	-7723
▁passeng	-7724
▁Ohio	-7725
▁mathematics	-7726
azz	-7727
▁investigation	-7728
▁Jim	-7729
imizing	-7730
▁evening	-7731
▁poetry	-7732
▁Northern	-7733
▁Being	-7734
▁agreements	-7735
▁limitations	-7736
▁Climate	-7737
andon	-7738
▁Control	-7739
▁fabric	-7740
▁Tem	-7741
ommod	-7742
▁moist	-7743
▁Contin	-7744
ictionary	-7745
door	-7746
▁Po	-7747
▁COVID	-7748
▁recom	-7749
▁formal	-7750
▁discrimination	-7751
▁IV	-7752
▁Hey	-7753
▁gallons	-7754
▁sufficient	-7755
vis	-7756
▁Family	-7757
vance	-7758
▁chair	-7759
▁resulted	-7760
rosc	-7761
▁quantity	-7762
▁impossible	-7763
itual	-7764
▁philosophy	-7765
▁Medicine	-7766
▁committed	-7767
▁union	-7768
▁Language	-7769
itt	-7770
▁robust	-7771
▁chronic	-7772
▁Resear	-7773
▁measured	-7774
▁publicly	-7775
▁unrounded	-7776
▁medications	-7777
▁organisms	-7778
▁Card	-7779
▁reson	-7780
▁explaining	-7781
RESS	-7782
computing	-7783
efficient	-7784
▁achieving	-7785
▁twist	-7786
▁filing	-7787
▁molec	-7788
▁entitlement	-7789
Time	-7790
▁plate	-7791
▁ticket	-7792
▁Administ	-7793
▁Eastern	-7794
▁Without	-7795
▁recomputing	-7796
▁rhyth	-7797
▁driver	-7798
▁Young	-7799
▁Angeles	-7800
▁Ira	-7801
tw	-7802
LA	-7803
▁Tre	-7804
▁nor	-7805
▁repair	-7806
ns	-7807
▁("	-7808
raints	-7809
▁unevenly	-7810
▁principle	-7811
div	-7812
opped	-7813
▁Blue	-7814
▁safely	-7815
▁Risk	-7816
▁quiet	-7817
▁accordingly	-7818
▁dust	-7819
▁throw	-7820
▁reflects	-7821
syl	-7822
▁fluid	-7823
▁retrie	-7824
▁cognitive	-7825
rooms	-7826
▁requiring	-7827
▁rebalancing	-7828
▁tight	-7829
▁statistics	-7830
awa	-7831
rete	-7832
▁Cross	-7833
ADD	-7834
▁tea	-7835
▁argue	-7836
eration	-7837
▁border	-7838
▁dinner	-7839
aturally	-7840
▁accepted	-7841
▁Pak	-7842
worth	-7843
▁yields	-7844
rep	-7845
▁mood	-7846
rapy	-7847
▁desire	-7848
▁Special	-7849
▁certificate	-7850
yan	-7851
forest	-7852
▁obtained	-7853
▁visible	-7854
▁hes	-7855
▁ETFs	-7856
▁chest	-7857
▁forth	-7858
▁surve	-7859
▁offsets	-7860
▁exists	-7861
▁exceeds	-7862
▁contributes	-7863
▁corporation	-7864
▁Award	-7865
osh	-7866
▁angle	-7867
▁resolution	-7868
▁dynamic	-7869
osc	-7870
▁beneath	-7871
▁collecting	-7872
cm	-7873
▁dow	-7874
▁delight	-7875
storm	-7876
▁Rome	-7877
rd	-7878
▁essay	-7879
▁harvest	-7880
▁tro	-7881
▁wish	-7882
▁flower	-7883
uts	-7884
▁mamm	-7885
▁proof	-7886
▁museum	-7887
▁backgrounds	-7888
▁administration	-7889
}}{	-7890
bour	-7891
Why	-7892
sylvania	-7893
▁fold	-7894
▁roads	-7895
connect	-7896
▁recognizing	-7897
card	-7898
▁rig	-7899
▁sight	-7900
▁launched	-7901
▁storytelling	-7902
cho	-7903
▁Jeff	-7904
▁Reserve	-7905
▁insects	-7906
▁customs	-7907
▁restating	-7908
▁newly	-7909
▁replaced	-7910
arks	-7911
▁Comb	-7912
▁stumbled	-7913
▁relevance	-7914
▁Rout	-7915
▁debate	-7916
▁cleaning	-7917
▁Turning	-7918
▁ped	-7919
▁prove	-7920
▁lake	-7921
▁Olympic	-7922
▁avoiding	-7923
td	-7924
ras	-7925
▁possibility	-7926
▁ya	-7927
▁lunch	-7928
▁stages	-7929
▁prospect	-7930
▁Mut	-7931
▁rivers	-7932
▁updated	-7933
▁theore	-7934
▁phase	-7935
py	-7936
▁Sup	-7937
▁neuro	-7938
▁traveling	-7939
▁haz	-7940
Step	-7941
▁Network	-7942
ali	-7943
▁Den	-7944
▁scul	-7945
makers	-7946
▁Irish	-7947
▁brows	-7948
▁Realised	-7949
▁scientist	-7950
▁calm	-7951
▁branches	-7952
▁realising	-7953
▁Recomputing	-7954
FA	-7955
▁Help	-7956
▁enthusi	-7957
cutive	-7958
▁fed	-7959
▁Java	-7960
▁vert	-7961
HONE	-7962
▁relief	-7963
▁worksh	-7964
address	-7965
▁sail	-7966
▁revealed	-7967
MAIL	-7968
▁chances	-7969
If	-7970
roid	-7971
▁historic	-7972
▁specialized	-7973
fe	-7974
▁soccer	-7975
▁healing	-7976
▁proceed	-7977
▁pip	-7978
ircul	-7979
NUMBER	-7980
ADDRESS	-7981
▁drinks	-7982
▁composition	-7983
▁engineer	-7984
▁Four	-7985
▁decade	-7986
▁ecosystems	-7987
ropical	-7988
▁breathing	-7989
▁EUR	-7990
SONAL	-7991
UDENT	-7992
ounded	-7993
▁incorporate	-7994
Al	-7995
ometric	-7996
▁constantly	-7997
ading	-7998
▁sculpt	-7999
LICENSE	-8000
ogram	-8001
▁Pers	-8002
▁traded	-8003
▁Hig	-8004
▁adequ	-8005
▁toler	-8006
▁demonstrated	-8007
ERNAME	-8008
▁cents	-8009
iform	-8010
▁Account	-8011
▁hypothes	-8012
ikes	-8013
▁Love	-8014
RIVING	-8015
SSPORT	-8016
PERSONAL	-8017
▁aggregate	-8018
ADHAR	-8019
STUDENT	-8020
▁failed	-8021
▁eighteen	-8022
▁crash	-8023
▁effectiveness	-8024
▁;	-8025
inn	-8026
▁furn	-8027
▁slic	-8028
▁interface	-8029
itud	-8030
itals	-8031
▁Pennsylvania	-8032
But	-8033
pie	-8034
▁Study	-8035
▁id	-8036
scale	-8037
orable	-8038
▁Impact	-8039
▁Researchers	-8040
▁boys	-8041
▁quot	-8042
▁summar	-8043
▁instruction	-8044
▁towns	-8045
forcement	-8046
▁versions	-8047
▁wine	-8048
▁Having	-8049
▁western	-8050
▁december	-8051
UN	-8052
ansas	-8053
ocked	-8054
pson	-8055
▁auton	-8056
▁Community	-8057
ocations	-8058
▁pension	-8059
▁paths	-8060
▁Strateg	-8061
pet	-8062
▁closing	-8063
▁quantum	-8064
▁Down	-8065
▁tang	-8066
stitution	-8067
▁veter	-8068
izza	-8069
▁Carl	-8070
▁shoes	-8071
].	-8072
▁RO	-8073
asters	-8074
▁beings	-8075
▁disappe	-8076
▁Iraq	-8077
▁Qual	-8078
▁disag	-8079
▁Select	-8080
▁equality	-8081
DS	-8082
▁Far	-8083
▁liquidity	-8084
kin	-8085
▁Support	-8086
▁stunning	-8087
fast	-8088
▁Inf	-8089
urring	-8090
▁controvers	-8091
▁arise	-8092
▁offset	-8093
Ad	-8094
car	-8095
▁Lee	-8096
inity	-8097
▁intent	-8098
▁childhood	-8099
▁chose	-8100
▁traits	-8101
ano	-8102
▁Division	-8103
▁noise	-8104
▁criteria	-8105
▁bones	-8106
▁Multip	-8107
▁uncover	-8108
▁smoothly	-8109
ults	-8110
▁cas	-8111
'(	-8112
align	-8113
▁$\\$$	-8114
▁sauce	-8115
▁Studies	-8116
▁Nov	-8117
TC	-8118
ears	-8119
argo	-8120
▁depart	-8121
▁replied	-8122
▁&=	-8123
▁stem	-8124
▁counsel	-8125
▁Free	-8126
▁elig	-8127
▁determining	-8128
stone	-8129
▁simult	-8130
lication	-8131
ouds	-8132
▁ille	-8133
▁shell	-8134
▁Georgia	-8135
▁empower	-8136
fish	-8137
▁Cast	-8138
▁Charl	-8139
▁grade	-8140
def	-8141
idges	-8142
▁Rights	-8143
▁featured	-8144
▁subsidi	-8145
▁buff	-8146
▁garlic	-8147
▁resolve	-8148
▁Rom	-8149
▁crew	-8150
irds	-8151
▁abuse	-8152
▁difficulty	-8153
▁doub	-8154
▁automatically	-8155
▁Fut	-8156
▁parks	-8157
oston	-8158
▁adopted	-8159
top	-8160
ntario	-8161
▁PA	-8162
anger	-8163
▁rocks	-8164
▁husband	-8165
▁moderate	-8166
▁searching	-8167
scri	-8168
▁aqu	-8169
▁Olympics	-8170
hist	-8171
▁flexible	-8172
but	-8173
▁basics	-8174
▁newfound	-8175
umin	-8176
▁Sym	-8177
▁accommod	-8178
erals	-8179
▁bowl	-8180
▁greatly	-8181
▁selecting	-8182
arency	-8183
▁evolved	-8184
▁discoveries	-8185
ami	-8186
aser	-8187
▁framework	-8188
▁worse	-8189
ensible	-8190
▁horse	-8191
▁robots	-8192
▁scores	-8193
▁controlled	-8194
▁clust	-8195
abb	-8196
▁[((	-8197
▁Focus	-8198
▁venture	-8199
▁wearing	-8200
▁repeated	-8201
▁superv	-8202
▁Sports	-8203
▁acting	-8204
▁->	-8205
▁hole	-8206
▁np	-8207
data	-8208
▁Bible	-8209
▁shaped	-8210
▁comparable	-8211
▁infections	-8212
ady	-8213
uous	-8214
▁golden	-8215
▁jew	-8216
▁breached	-8217
▁occasion	-8218
▁Birth	-8219
▁preferred	-8220
▁reactions	-8221
▁nurs	-8222
▁sending	-8223
dit	-8224
▁constraints	-8225
alty	-8226
▁intriguing	-8227
▁substances	-8228
CH	-8229
▁Ari	-8230
▁fuels	-8231
▁Ast	-8232
▁combat	-8233
▁controls	-8234
▁mountains	-8235
▁Fre	-8236
ruption	-8237
▁artwork	-8238
▁habitats	-8239
▁nu	-8240
▁predictions	-8241
▁coach	-8242
▁meets	-8243
▁safer	-8244
▁mechanisms	-8245
▁AM	-8246
▁qualities	-8247
cery	-8248
luded	-8249
▁mistake	-8250
ensed	-8251
▁embrace	-8252
▁biological	-8253
▁influences	-8254
▁preventing	-8255
▁reflecting	-8256
▁enhancing	-8257
▁NY	-8258
▁Contact	-8259
▁musicians	-8260
keep	-8261
▁Maya	-8262
▁audiences	-8263
▁experiments	-8264
▁outperforms	-8265
▁lik	-8266
▁objectives	-8267
▁alternatives	-8268
ji	-8269
▁compliance	-8270
she	-8271
stein	-8272
▁superhero	-8273
▁difficulties	-8274
▁Lead	-8275
▁pepper	-8276
▁Pass	-8277
▁Korea	-8278
▁USD	-8279
▁nob	-8280
▁indicating	-8281
oir	-8282
▁Sand	-8283
▁bub	-8284
▁concentration	-8285
▁battery	-8286
▁Die	-8287
▁tact	-8288
quality	-8289
▁worlds	-8290
▁recipes	-8291
▁lapt	-8292
▁tric	-8293
";	-8294
▁Way	-8295
▁kilomet	-8296
▁Yet	-8297
▁Impro	-8298
▁matches	-8299
▁financially	-8300
▁defense	-8301
▁Alp	-8302
▁Fred	-8303
▁Iran	-8304
ja	-8305
▁incident	-8306
▁rect	-8307
New	-8308
▁Grow	-8309
oil	-8310
▁Case	-8311
▁transf	-8312
security	-8313
▁apartment	-8314
▁combinations	-8315
FL	-8316
va	-8317
elta	-8318
▁sections	-8319
▁currencies	-8320
▁pure	-8321
▁observe	-8322
mond	-8323
▁Song	-8324
▁crop	-8325
▁comprom	-8326
▁presents	-8327
▁leaf	-8328
ndrome	-8329
▁farming	-8330
▁buyers	-8331
▁naturally	-8332
▁suggestions	-8333
orney	-8334
▁largely	-8335
▁stood	-8336
▁remainder	-8337
▁Dub	-8338
OW	-8339
▁composed	-8340
▁sectors	-8341
RI	-8342
ao	-8343
reek	-8344
▁Ask	-8345
▁Index	-8346
▁photo	-8347
▁mir	-8348
uation	-8349
▁denote	-8350
▁apps	-8351
ographical	-8352
▁bid	-8353
▁graphic	-8354
▁essentially	-8355
▁acquisitions	-8356
▁norms	-8357
▁Williams	-8358
▁mystery	-8359
▁updates	-8360
imens	-8361
▁Football	-8362
▁incorrect	-8363
such	-8364
▁tut	-8365
pread	-8366
▁Coast	-8367
▁juice	-8368
▁assuming	-8369
▁revenues	-8370
▁availability	-8371
▁Nations	-8372
▁kitchen	-8373
▁employed	-8374
▁awa	-8375
▁Fire	-8376
▁clinical	-8377
▁economies	-8378
▁cooperation	-8379
CS	-8380
▁exceed	-8381
▁promise	-8382
▁gradually	-8383
▁{'	-8384
▁Arts	-8385
ifting	-8386
▁explains	-8387
from	-8388
cons	-8389
lishing	-8390
▁Boston	-8391
▁Joseph	-8392
▁Mid	-8393
▁Pub	-8394
▁debts	-8395
▁Practice	-8396
laim	-8397
rison	-8398
▁neural	-8399
▁inclusive	-8400
Don	-8401
aska	-8402
https	-8403
▁ease	-8404
▁approved	-8405
mic	-8406
ouri	-8407
▁drops	-8408
▁voices	-8409
RA	-8410
pha	-8411
▁Story	-8412
There	-8413
▁mini	-8414
▁que	-8415
asses	-8416
▁Sent	-8417
othe	-8418
teries	-8419
▁Benny	-8420
cient	-8421
▁agents	-8422
▁download	-8423
iki	-8424
▁Sus	-8425
▁ben	-8426
▁smoking	-8427
▁classical	-8428
▁Marg	-8429
▁landscapes	-8430
▁tested	-8431
▁defensible	-8432
Acc	-8433
▁Mo	-8434
circ	-8435
▁targeted	-8436
▁thank	-8437
▁circul	-8438
▁functional	-8439
▁barriers	-8440
▁boat	-8441
▁©	-8442
▁reveal	-8443
sen	-8444
▁ceiling	-8445
▁treating	-8446
▁\\(	-8447
▁Such	-8448
▁rank	-8449
aped	-8450
atoes	-8451
▁cond	-8452
▁kill	-8453
▁stopped	-8454
▁wel	-8455
▁Wales	-8456
ocur	-8457
▁folks	-8458
▁Portug	-8459
▁hardware	-8460
▁Allocations	-8461
ii	-8462
etts	-8463
mers	-8464
▁switch	-8465
▁perfectly	-8466
▁Jo	-8467
▁Digital	-8468
▁Christmas	-8469
▁sought	-8470
▁listing	-8471
▁treasure	-8472
dy	-8473
gov	-8474
ception	-8475
▁Sir	-8476
▁Moon	-8477
▁orange	-8478
▁»	-8479
▁Chall	-8480
ushed	-8481
lements	-8482
uisine	-8483
▁Electric	-8484
▁drawdowns	-8485
▁libraries	-8486
asure	-8487
▁ethnic	-8488
▁prev	-8489
▁Avoid	-8490
▁Francisco	-8491
▁fans	-8492
▁displ	-8493
▁triangle	-8494
▁unp	-8495
▁Jane	-8496
▁Psych	-8497
▁managers	-8498
▁conscious	-8499
▁prominent	-8500
▁Mechanically	-8501
▁procedure	-8502
▁arrest	-8503
▁Address	-8504
▁disaster	-8505
ects	-8506
phones	-8507
▁downt	-8508
▁Forest	-8509
▁Scotland	-8510
▁receives	-8511
DF	-8512
▁harder	-8513
▁Firstly	-8514
iders	-8515
▁olive	-8516
reement	-8517
solving	-8518
▁beloved	-8519
▁restrictions	-8520
▁Commit	-8521
▁Master	-8522
▁meditation	-8523
iano	-8524
▁sacr	-8525
▁globe	-8526
▁Unlike	-8527
▁wondering	-8528
▁AND	-8529
▁biod	-8530
▁confirm	-8531
▁approached	-8532
▁observations	-8533
eli	-8534
▁legacy	-8535
▁surrounded	-8536
▁PM	-8537
▁Age	-8538
▁cha	-8539
▁minus	-8540
▁diagnosis	-8541
abil	-8542
▁turb	-8543
▁parameters	-8544
▁reputation	-8545
asive	-8546
ello	-8547
▁Ven	-8548
▁refund	-8549
▁discovering	-8550
▁Thank	-8551
outheast	-8552
▁preparation	-8553
▁sed	-8554
▁judge	-8555
▁maps	-8556
▁conventional	-8557
▁explo	-8558
▁usern	-8559
▁pump	-8560
▁Recent	-8561
▁ranging	-8562
acco	-8563
▁lasting	-8564
▁vulnerable	-8565
ureau	-8566
ppers	-8567
▁density	-8568
▁Michigan	-8569
▁galax	-8570
▁county	-8571
▁phones	-8572
}$,	-8573
▁Order	-8574
▁attending	-8575
ulum	-8576
▁nod	-8577
Number	-8578
omial	-8579
bo	-8580
▁shut	-8581
▁od	-8582
▁attached	-8583
▁uncertainty	-8584
oral	-8585
achus	-8586
adium	-8587
ventions	-8588
▁inhabit	-8589
▁gathering	-8590
▁suffering	-8591
▁atoms	-8592
▁officer	-8593
▁covering	-8594
abel	-8595
▁beans	-8596
▁Prep	-8597
rings	-8598
']}	-8599
wing	-8600
▁lux	-8601
elly	-8602
▁domin	-8603
▁mining	-8604
▁Emb	-8605
▁server	-8606
▁balances	-8607
▁transparency	-8608
====	-8609
▁tip	-8610
▁sooner	-8611
▁apparent	-8612
orses	-8613
▁factory	-8614
▁weapons	-8615
idespread	-8616
▁anywhere	-8617
▁substitute	-8618
▁drivers	-8619
GE	-8620
tha	-8621
▁ven	-8622
▁marvel	-8623
▁concentr	-8624
▁batt	-8625
▁pond	-8626
▁Import	-8627
▁identities	-8628
adel	-8629
lete	-8630
ulty	-8631
▁visited	-8632
▁Aff	-8633
inois	-8634
▁dividing	-8635
▁transformation	-8636
▁endless	-8637
▁edition	-8638
▁creations	-8639
▁navigating	-8640
▁Ur	-8641
▁yog	-8642
▁soul	-8643
necess	-8644
▁af	-8645
▁liber	-8646
▁excessive	-8647
▁simultaneously	-8648
▁Ox	-8649
▁abstract	-8650
▁dataset	-8651
▁settles	-8652
▁nit	-8653
▁scheme	-8654
▁extend	-8655
▁arguments	-8656
▁paintings	-8657
▁respective	-8658
▁theories	-8659
zed	-8660
▁Dutch	-8661
▁tooth	-8662
▁intervention	-8663
itudes	-8664
economic	-8665
▁passport	-8666
des	-8667
▁inn	-8668
books	-8669
una	-8670
▁developers	-8671
Interest	-8672
CI	-8673
ca	-8674
▁genre	-8675
▁Christianity	-8676
CR	-8677
EP	-8678
▁Times	-8679
▁clouds	-8680
▁disrupt	-8681
▁tension	-8682
anned	-8683
▁tapest	-8684
▁Light	-8685
▁developments	-8686
▁tom	-8687
▁Process	-8688
▁literacy	-8689
▁Economic	-8690
ssn	-8691
▁magnetic	-8692
▁personality	-8693
▁Lord	-8694
▁escape	-8695
▁Machine	-8696
▁lighting	-8697
tes	-8698
▁seasons	-8699
▁volcan	-8700
▁filed	-8701
atively	-8702
▁participating	-8703
▁Bul	-8704
▁appeal	-8705
MP	-8706
▁buyer	-8707
▁Lic	-8708
▁immigr	-8709
▁Atlantic	-8710
▁Incorporated	-8711
▁pushing	-8712
umni	-8713
▁Airl	-8714
▁expanded	-8715
▁maintained	-8716
achusetts	-8717
▁Muslim	-8718
▁peaceful	-8719
▁moderately	-8720
▁wanda	-8721
ictional	-8722
▁medication	-8723
▁Ell	-8724
▁Jones	-8725
▁unlikely	-8726
▁analytics	-8727
▁secondary	-8728
▁coastal	-8729
▁schedul	-8730
▁psychology	-8731
▁weakness	-8732
▁participation	-8733
achel	-8734
▁spots	-8735
▁surge	-8736
▁directed	-8737
▁influential	-8738
▁Secret	-8739
▁damaged	-8740
▁swimming	-8741
▁aer	-8742
▁unw	-8743
▁wages	-8744
▁encouraged	-8745
ipt	-8746
▁Defin	-8747
▁Ign	-8748
▁Summer	-8749
▁Mexican	-8750
▁Perform	-8751
inet	-8752
that	-8753
▁pursue	-8754
bin	-8755
achs	-8756
▁Team	-8757
▁Greece	-8758
▁Boy	-8759
utical	-8760
▁deploy	-8761
▁shorter	-8762
▁attempts	-8763
▁distingu	-8764
ften	-8765
▁cooked	-8766
▁Different	-8767
▁emphasizes	-8768
▁imagination	-8769
▁ceremon	-8770
▁creature	-8771
▁roof	-8772
icting	-8773
▁Fair	-8774
▁Minister	-8775
▁magazine	-8776
rat	-8777
▁Resources	-8778
▁Hon	-8779
▁fur	-8780
▁subscri	-8781
▁captured	-8782
▁mitigate	-8783
▁adjustments	-8784
rey	-8785
▁marriage	-8786
aug	-8787
▁Stay	-8788
aka	-8789
wan	-8790
istical	-8791
▁Jersey	-8792
▁divisor	-8793
▁wedding	-8794
▁Airlines	-8795
▁marks	-8796
▁Taking	-8797
▁$-	-8798
▁hesit	-8799
▁Author	-8800
▁grocery	-8801
▁evaluation	-8802
▁Exchange	-8803
▁Ide	-8804
ocracy	-8805
▁patents	-8806
ells	-8807
▁strengths	-8808
▁Viet	-8809
▁Evalu	-8810
▁Small	-8811
▁awarded	-8812
▁assigned	-8813
▁optimize	-8814
▁LLC	-8815
▁asks	-8816
▁lawyer	-8817
▁earthqu	-8818
html	-8819
elled	-8820
▁alle	-8821
▁pron	-8822
▁digit	-8823
▁button	-8824
ili	-8825
▁Soft	-8826
itting	-8827
▁smoke	-8828
▁distant	-8829
▁guard	-8830
▁economics	-8831
umer	-8832
xual	-8833
Sc	-8834
▁Show	-8835
▁grams	-8836
uh	-8837
▁folk	-8838
▁kuma	-8839
▁operational	-8840
ulating	-8841
▁allerg	-8842
▁consolidated	-8843
lock	-8844
rays	-8845
▁Ken	-8846
author	-8847
▁obvious	-8848
▁victory	-8849
▁unnecess	-8850
▁temporary	-8851
ais	-8852
aceutical	-8853
▁conference	-8854
▁subsequent	-8855
▁investigate	-8856
AI	-8857
▁Mah	-8858
▁gases	-8859
connected	-8860
▁minerals	-8861
▁stir	-8862
advant	-8863
▁Making	-8864
▁windows	-8865
▁pizza	-8866
▁actors	-8867
▁varying	-8868
▁wonders	-8869
▁applicable	-8870
▁widespread	-8871
onym	-8872
quad	-8873
▁measuring	-8874
how	-8875
▁complexities	-8876
uine	-8877
▁Lin	-8878
▁suspect	-8879
liers	-8880
▁wheel	-8881
▁thrive	-8882
▁finite	-8883
eta	-8884
isters	-8885
▁flying	-8886
▁encountered	-8887
▁Massachusetts	-8888
▁Econom	-8889
▁Mutual	-8890
▁heroes	-8891
▁tailored	-8892
▁lie	-8893
ivals	-8894
▁Saint	-8895
▁cater	-8896
▁demonstrates	-8897
▁strive	-8898
▁Director	-8899
▁integration	-8900
edge	-8901
▁walked	-8902
▁Overall	-8903
▁collections	-8904
taking	-8905
amiliar	-8906
▁therm	-8907
Date	-8908
▁cardi	-8909
▁extent	-8910
erly	-8911
iability	-8912
▁racial	-8913
▁protocol	-8914
▁’	-8915
▁dear	-8916
▁Illinois	-8917
▁observing	-8918
▁incentives	-8919
▁Tal	-8920
▁eastern	-8921
▁destination	-8922
▁prevention	-8923
inct	-8924
▁swit	-8925
▁Integ	-8926
▁Table	-8927
▁Comple	-8928
▁Charact	-8929
ints	-8930
erman	-8931
write	-8932
▁delay	-8933
▁believes	-8934
▁rs	-8935
rame	-8936
anted	-8937
▁Major	-8938
▁niche	-8939
▁fertil	-8940
aters	-8941
▁contained	-8942
▁Rest	-8943
▁dropped	-8944
▁Ms	-8945
_{\\	-8946
▁spoke	-8947
GS	-8948
▁Hot	-8949
▁caut	-8950
▁Ford	-8951
▁confir	-8952
omot	-8953
▁flag	-8954
▁opens	-8955
▁compan	-8956
▁editor	-8957
▁Simplifying	-8958
Ar	-8959
▁Tenn	-8960
roduct	-8961
▁lawsu	-8962
▁calling	-8963
▁implies	-8964
▁phenomenon	-8965
abeth	-8966
▁ships	-8967
▁controlling	-8968
▁teasp	-8969
irty	-8970
duate	-8971
▁negotiate	-8972
▁IS	-8973
▁usual	-8974
▁config	-8975
▁migr	-8976
▁mysteries	-8977
▁lens	-8978
▁vaccine	-8979
▁criminal	-8980
tion	-8981
▁Ontario	-8982
cket	-8983
▁advers	-8984
▁reserves	-8985
▁surfaces	-8986
▁satellite	-8987
▁Call	-8988
▁Object	-8989
▁cautious	-8990
isa	-8991
heim	-8992
▁Andrew	-8993
▁granted	-8994
▁targets	-8995
▁entering	-8996
▁permission	-8997
▁Ol	-8998
abul	-8999
osion	-9000
▁Film	-9001
▁heads	-9002
▁immers	-9003
ghan	-9004
annan	-9005
▁bonus	-9006
▁borders	-9007
made	-9008
etch	-9009
ocket	-9010
▁cubic	-9011
FT	-9012
▁Ye	-9013
▁Corn	-9014
▁metals	-9015
▁simplify	-9016
▁sour	-9017
▁Method	-9018
ela	-9019
owered	-9020
▁physically	-9021
▁comic	-9022
▁spreading	-9023
▁nerv	-9024
▁reject	-9025
▁watched	-9026
▁jur	-9027
▁Obs	-9028
hesis	-9029
▁Click	-9030
▁variations	-9031
▁institutional	-9032
share	-9033
▁Sever	-9034
▁Would	-9035
!)	-9036
icted	-9037
▁abund	-9038
▁baseball	-9039
▁fishing	-9040
▁wage	-9041
▁zone	-9042
▁enjoyed	-9043
▁ble	-9044
▁inqu	-9045
Profit	-9046
opes	-9047
▁Mur	-9048
rices	-9049
▁Joe	-9050
▁owe	-9051
esity	-9052
ieval	-9053
▁Chase	-9054
ima	-9055
▁relate	-9056
▁tapestry	-9057
▁newspaper	-9058
▁considerations	-9059
')	-9060
My	-9061
venile	-9062
▁Initial	-9063
pur	-9064
▁Gam	-9065
theta	-9066
▁illegal	-9067
vo	-9068
low	-9069
▁Ice	-9070
▁fifth	-9071
▁spends	-9072
▁neither	-9073
▁Gall	-9074
eras	-9075
dney	-9076
▁Mic	-9077
▁Resp	-9078
▁danger	-9079
you	-9080
▁Jac	-9081
bridge	-9082
▁disapp	-9083
uan	-9084
▁mand	-9085
▁texture	-9086
▁Queen	-9087
▁Trust	-9088
▁perse	-9089
▁candidate	-9090
PU	-9091
aware	-9092
▁Bene	-9093
▁audio	-9094
▁psychological	-9095
rid	-9096
▁Crit	-9097
▁logic	-9098
ertainly	-9099
▁restric	-9100
zona	-9101
▁ending	-9102
ulent	-9103
tax	-9104
▁Area	-9105
opedia	-9106
▁Harry	-9107
▁hydrogen	-9108
check	-9109
▁seats	-9110
▁vocals	-9111
▁achievements	-9112
▁HT	-9113
Tr	-9114
▁Short	-9115
▁resist	-9116
▁teachings	-9117
▁impressive	-9118
▁Reading	-9119
▁champions	-9120
▁arrangements	-9121
ospitals	-9122
▁telling	-9123
▁incredibly	-9124
▁Hope	-9125
▁reader	-9126
▁Text	-9127
▁charm	-9128
▁outdoor	-9129
▁Cub	-9130
▁draft	-9131
▁landl	-9132
▁joining	-9133
▁Abb	-9134
▁Circ	-9135
▁bath	-9136
▁broadcast	-9137
▁Sales	-9138
▁cryptocur	-9139
orks	-9140
▁Sav	-9141
▁mur	-9142
▁Base	-9143
▁discounts	-9144
▁substance	-9145
ideo	-9146
onia	-9147
▁powder	-9148
▁Tri	-9149
▁Sciences	-9150
▁(-	-9151
▁Uk	-9152
▁ring	-9153
▁Guide	-9154
▁burning	-9155
▁blockchain	-9156
gans	-9157
rypt	-9158
idity	-9159
金融	-9160
duction	-9161
▁calculating	-9162
▁characterized	-9163
▁establishments	-9164
And	-9165
▁detection	-9166
}.	-9167
▁Ep	-9168
▁awards	-9169
▁medals	-9170
breaking	-9171
▁Intel	-9172
▁curric	-9173
atre	-9174
▁MED	-9175
▁lever	-9176
▁territory	-9177
▁eliminate	-9178
▁Ultimately	-9179
▁conversion	-9180
gener	-9181
ascular	-9182
▁Explore	-9183
▁Bab	-9184
▁Eliz	-9185
▁equipped	-9186
▁Dar	-9187
▁Fac	-9188
▁eco	-9189
▁Hand	-9190
▁oven	-9191
▁Argent	-9192
lay	-9193
▁Infl	-9194
▁kingdom	-9195
ati	-9196
fits	-9197
▁Guid	-9198
▁flash	-9199
▁Colorado	-9200
▁instances	-9201
▁dipl	-9202
▁hypothesis	-9203
▁tons	-9204
▁Goldman	-9205
}\	-9206
▁Ray	-9207
▁hotel	-9208
▁directors	-9209
amed	-9210
▁apple	-9211
▁holes	-9212
angered	-9213
▁warning	-9214
IR	-9215
aylor	-9216
reens	-9217
▁Albert	-9218
▁photography	-9219
▁Administration	-9220
▁dragon	-9221
▁Agricult	-9222
▁Transport	-9223
▁Sat	-9224
etics	-9225
ourse	-9226
▁army	-9227
ustration	-9228
▁advances	-9229
bean	-9230
▁adj	-9231
▁recre	-9232
▁Series	-9233
ested	-9234
▁straw	-9235
▁Islands	-9236
▁appointed	-9237
▁gaming	-9238
▁genuine	-9239
▁segments	-9240
▁Cit	-9241
▁grasp	-9242
▁emphasis	-9243
▁somewhere	-9244
rades	-9245
▁valued	-9246
ishment	-9247
▁vacation	-9248
▁permanent	-9249
▁Line	-9250
▁reflection	-9251
▁Ing	-9252
▁Own	-9253
icide	-9254
▁Daniel	-9255
▁OP	-9256
acher	-9257
▁posts	-9258
▁Safety	-9259
▁transformed	-9260
emb	-9261
▁Pu	-9262
▁Self	-9263
▁steel	-9264
▁Liber	-9265
▁logical	-9266
▁vessels	-9267
▁distances	-9268
▁generating	-9269
uted	-9270
▁tap	-9271
inson	-9272
▁classmates	-9273
Ind	-9274
▁bic	-9275
▁fought	-9276
▁shrink	-9277
▁hedge	-9278
That	-9279
▁Creating	-9280
▁bankrupt	-9281
▁expressing	-9282
Yes	-9283
▁Month	-9284
▁Agency	-9285
▁integrity	-9286
▁inject	-9287
▁Scottish	-9288
▁Mu	-9289
▁illustrate	-9290
▁unnecessary	-9291
ln	-9292
▁cong	-9293
▁macro	-9294
▁applies	-9295
▁recycling	-9296
▁Trade	-9297
▁spons	-9298
ón	-9299
health	-9300
ceans	-9301
▁lemonade	-9302
class	-9303
^(	-9304
aked	-9305
▁NOT	-9306
`,	-9307
▁exchanges	-9308
▁seam	-9309
itures	-9310
▁cuisine	-9311
▁extends	-9312
▁shouldn	-9313
▁weekend	-9314
▁reform	-9315
▁planets	-9316
▁www	-9317
endar	-9318
▁stere	-9319
▁titles	-9320
▁allocated	-9321
▁generates	-9322
▁proportion	-9323
▁·	-9324
▁loop	-9325
ateral	-9326
▁lists	-9327
▁passes	-9328
▁taxable	-9329
uce	-9330
▁quad	-9331
normal	-9332
▁Sounds	-9333
▁adequate	-9334
Name	-9335
raine	-9336
▁engines	-9337
▁leverage	-9338
▁Sure	-9339
▁fing	-9340
▁==	-9341
▁Altern	-9342
▁MRN	-9343
▁Week	-9344
▁Books	-9345
nomial	-9346
▁clues	-9347
▁workplace	-9348
NT	-9349
▁Represent	-9350
sem	-9351
oubt	-9352
▁Broad	-9353
▁athletes	-9354
▁interpre	-9355
▁abandon	-9356
▁printing	-9357
▁MD	-9358
▁risky	-9359
▁everywhere	-9360
▁ok	-9361
▁Works	-9362
▁claimed	-9363
*}	-9364
▁Ash	-9365
▁Sachs	-9366
▁continuing	-9367
▁Money	-9368
▁grace	-9369
▁indicators	-9370
▁Log	-9371
▁roy	-9372
▁clubs	-9373
▁Following	-9374
uten	-9375
merce	-9376
adelph	-9377
▁Pakistan	-9378
▁declared	-9379
▁Hum	-9380
▁utilize	-9381
HD	-9382
▁tract	-9383
inem	-9384
▁Lower	-9385
▁toxic	-9386
▁diving	-9387
ulative	-9388
▁stroke	-9389
▁inclusion	-9390
▁definitely	-9391
▁Copy	-9392
▁hits	-9393
inter	-9394
▁weren	-9395
▁compute	-9396
arts	-9397
▁Divide	-9398
▁repairs	-9399
▁announce	-9400
▁maturity	-9401
▁brands	-9402
▁hockey	-9403
▁terror	-9404
mail	-9405
▁pace	-9406
▁ethics	-9407
▁representative	-9408
▁reaches	-9409
Res	-9410
nament	-9411
▁honey	-9412
arents	-9413
▁Higher	-9414
▁grains	-9415
▁lending	-9416
▁globally	-9417
▁Sydney	-9418
otypes	-9419
alities	-9420
▁correl	-9421
▁biology	-9422
▁execution	-9423
▁interconnected	-9424
▁surroundings	-9425
▁thousand	-9426
bits	-9427
▁Word	-9428
▁contam	-9429
acts	-9430
▁ounces	-9431
▁Suddenly	-9432
▁Pict	-9433
▁Golden	-9434
▁reserve	-9435
cal	-9436
▁Ly	-9437
▁upcoming	-9438
▁sid	-9439
▁Begin	-9440
▁Dra	-9441
▁discip	-9442
redict	-9443
adelphia	-9444
▁regulation	-9445
roat	-9446
▁Cra	-9447
▁decreases	-9448
▁Ban	-9449
▁offerings	-9450
▁describing	-9451
rot	-9452
▁mob	-9453
▁suit	-9454
▁Activ	-9455
▁attractive	-9456
▁association	-9457
▁rooms	-9458
▁vitamin	-9459
▁officers	-9460
▁Rate	-9461
▁copies	-9462
▁Arizona	-9463
▁islands	-9464
▁Engineering	-9465
▁highlighting	-9466
▁measurements	-9467
Am	-9468
▁Pen	-9469
▁Heart	-9470
▁parallel	-9471
▁governance	-9472
CM	-9473
▁stom	-9474
▁blank	-9475
▁transmission	-9476
▁Clin	-9477
▁warr	-9478
olis	-9479
▁eligible	-9480
▁elsewhere	-9481
▁popularity	-9482
▁Policy	-9483
▁babies	-9484
▁league	-9485
▁dispute	-9486
▁Committee	-9487
▁Ram	-9488
apse	-9489
▁resc	-9490
▁spokes	-9491
▁skilled	-9492
pace	-9493
table	-9494
▁inch	-9495
▁Route	-9496
▁gifts	-9497
▁orient	-9498
▁picked	-9499
▁attended	-9500
▁electronics	-9501
▁chips	-9502
▁interpretation	-9503
aws	-9504
irts	-9505
▁Farm	-9506
▁tackle	-9507
▁shelter	-9508
▁broke	-9509
▁neighbors	-9510
▁pregnancy	-9511
▁shifts	-9512
▁Ba	-9513
olves	-9514
▁issu	-9515
▁Value	-9516
▁legend	-9517
▁passionate	-9518
▁NAV	-9519
ashed	-9520
plate	-9521
▁Chem	-9522
▁Treas	-9523
▁posted	-9524
ba	-9525
经济	-9526
▁Future	-9527
▁colonial	-9528
▁importantly	-9529
▁---	-9530
▁pin	-9531
▁busy	-9532
▁brush	-9533
▁illnesses	-9534
BI	-9535
ih	-9536
anas	-9537
omer	-9538
▁distract	-9539
stock	-9540
▁stamps	-9541
▁kg	-9542
▁?	-9543
hour	-9544
▁cow	-9545
▁Emer	-9546
▁Mike	-9547
▁Cook	-9548
▁trail	-9549
▁Quant	-9550
▁automated	-9551
▁personnel	-9552
▁codes	-9553
anguard	-9554
▁Kn	-9555
▁Tes	-9556
izers	-9557
▁Bern	-9558
▁bottle	-9559
▁hunting	-9560
To	-9561
▁scam	-9562
▁metap	-9563
▁Nether	-9564
▁filling	-9565
▁mild	-9566
▁Silver	-9567
people	-9568
▁Station	-9569
▁organizing	-9570
▁mile	-9571
▁gravity	-9572
▁profitability	-9573
cur	-9574
iger	-9575
ivered	-9576
▁poster	-9577
▁radius	-9578
▁classification	-9579
▁pets	-9580
abulary	-9581
▁Ott	-9582
▁delicate	-9583
▁guarantee	-9584
▁cyl	-9585
itzer	-9586
▁adoption	-9587
oples	-9588
▁streams	-9589
▁potatoes	-9590
▁traders	-9591
▁travels	-9592
▁combines	-9593
▁infected	-9594
MM	-9595
owed	-9596
▁worst	-9597
▁Cancer	-9598
▁filter	-9599
▁demands	-9600
anche	-9601
grade	-9602
▁dism	-9603
commun	-9604
email	-9605
▁auto	-9606
▁Ancient	-9607
alties	-9608
▁papers	-9609
▁overview	-9610
▁supposed	-9611
▁accumulated	-9612
omous	-9613
▁charts	-9614
▁speaker	-9615
▁Constitution	-9616
▁lingu	-9617
▁manual	-9618
▁adapted	-9619
▁designated	-9620
▁collaborate	-9621
`.	-9622
▁pit	-9623
inates	-9624
▁adverse	-9625
▁Afghan	-9626
▁reminder	-9627
▁polynomial	-9628
▁lean	-9629
▁mine	-9630
▁Several	-9631
▁Ham	-9632
▁Kent	-9633
▁settled	-9634
points	-9635
▁spoken	-9636
▁photographs	-9637
isd	-9638
gets	-9639
▁Build	-9640
▁hoping	-9641
▁Official	-9642
▁Elizabeth	-9643
▁MS	-9644
ateful	-9645
▁wannan	-9646
▁wooden	-9647
▁stakeholders	-9648
dep	-9649
▁Put	-9650
▁reflected	-9651
erb	-9652
iatric	-9653
▁fitness	-9654
));	-9655
imp	-9656
host	-9657
▁aver	-9658
▁desc	-9659
▁workforce	-9660
('	-9661
▁sudden	-9662
▁Customer	-9663
▁calories	-9664
▁meetings	-9665
ivate	-9666
▁Never	-9667
▁suffer	-9668
▁origins	-9669
trans	-9670
▁Bang	-9671
ustain	-9672
▁crowd	-9673
▁Democratic	-9674
aria	-9675
▁blend	-9676
▁installed	-9677
▁ts	-9678
▁Code	-9679
▁drama	-9680
▁welcome	-9681
▁impacted	-9682
▁brains	-9683
▁Thompson	-9684
▁enjoyable	-9685
▁Meet	-9686
▁Model	-9687
▁liters	-9688
▁candles	-9689
▁removing	-9690
▁View	-9691
▁Prior	-9692
▁Spring	-9693
▁decides	-9694
▁cozy	-9695
▁Others	-9696
▁organize	-9697
sk	-9698
otton	-9699
▁soph	-9700
▁horses	-9701
▁Jews	-9702
▁Hospital	-9703
▁restaurants	-9704
pat	-9705
ilation	-9706
▁Perhaps	-9707
▁fictional	-9708
....	-9709
▁Roth	-9710
▁Discover	-9711
invest	-9712
▁oldest	-9713
▁critically	-9714
▁introducing	-9715
ura	-9716
isation	-9717
▁Assess	-9718
▁channel	-9719
▁MP	-9720
▁Chief	-9721
▁struck	-9722
▁essence	-9723
ador	-9724
range	-9725
▁Sche	-9726
▁orbit	-9727
▁Battle	-9728
▁processed	-9729
igma	-9730
▁outlook	-9731
▁integrated	-9732
"?	-9733
▁Nob	-9734
▁Li	-9735
▁sin	-9736
▁chol	-9737
▁taxed	-9738
anning	-9739
▁exhibit	-9740
▁capitalization	-9741
icul	-9742
indu	-9743
▁tablesp	-9744
▁AR	-9745
▁Emma	-9746
*.	-9747
CL	-9748
bec	-9749
▁Fest	-9750
onents	-9751
person	-9752
HA	-9753
▁supplement	-9754
oval	-9755
▁McC	-9756
▁Upon	-9757
▁iconic	-9758
▁counterpart	-9759
▁loud	-9760
▁trusted	-9761
▁Independ	-9762
▁hospitals	-9763
▁households	-9764
▁fer	-9765
▁metrics	-9766
eted	-9767
▁Finn	-9768
▁Advent	-9769
▁Suggest	-9770
front	-9771
▁citizen	-9772
yard	-9773
▁scr	-9774
▁females	-9775
▁innovations	-9776
▁Ce	-9777
▁Rh	-9778
rical	-9779
▁Hunt	-9780
▁brill	-9781
▁q	-9782
▁viruses	-9783
,$	-9784
airy	-9785
stra	-9786
▁Netherlands	-9787
also	-9788
▁Mind	-9789
issance	-9790
▁deciding	-9791
▁facilitate	-9792
?”	-9793
▁bio	-9794
▁Spir	-9795
▁tire	-9796
nesota	-9797
▁Autom	-9798
▁Enter	-9799
▁fears	-9800
▁troops	-9801
▁bottles	-9802
▁entr	-9803
▁singing	-9804
▁emphasize	-9805
tan	-9806
▁mail	-9807
ashes	-9808
▁Princip	-9809
▁penalty	-9810
▁Mia	-9811
▁ritual	-9812
▁inhabitants	-9813
▁thoughtful	-9814
ATE	-9815
flow	-9816
▁bias	-9817
United	-9818
▁worried	-9819
▁attributed	-9820
▁Du	-9821
user	-9822
ricts	-9823
▁Avenue	-9824
▁verify	-9825
▁reserved	-9826
)--	-9827
▁fiber	-9828
▁utility	-9829
▁furniture	-9830
▁recording	-9831
▁FI	-9832
▁owns	-9833
▁finger	-9834
▁hearts	-9835
▁LG	-9836
▁wider	-9837
▁analog	-9838
▁Walmart	-9839
▁Investment	-9840
eps	-9841
eness	-9842
▁Taylor	-9843
▁ancestors	-9844
▁legislation	-9845
rium	-9846
▁Jon	-9847
▁dental	-9848
▁Members	-9849
▁Twitter	-9850
▁objective	-9851
rog	-9852
▁pou	-9853
berry	-9854
▁coding	-9855
▁organs	-9856
▁misunder	-9857
▁tropical	-9858
▁increments	-9859
▁Fun	-9860
▁Van	-9861
▁Reflect	-9862
▁tensions	-9863
▁coc	-9864
▁smiled	-9865
▁vegetable	-9866
▁destruction	-9867
▁sam	-9868
▁Cy	-9869
igned	-9870
iations	-9871
▁Fiction	-9872
mm	-9873
ucks	-9874
arness	-9875
▁width	-9876
urchase	-9877
▁Missouri	-9878
▁neur	-9879
▁Local	-9880
▁performances	-9881
egu	-9882
unc	-9883
▁ly	-9884
▁grid	-9885
▁talent	-9886
▁ordered	-9887
▁tomatoes	-9888
▁kilometers	-9889
▁constructed	-9890
▁polar	-9891
▁circuit	-9892
▁suffered	-9893
page	-9894
▁biodiversity	-9895
▁Ah	-9896
▁tone	-9897
▁humor	-9898
▁debates	-9899
▁translation	-9900
▁les	-9901
▁Chris	-9902
▁protagon	-9903
▁syndrome	-9904
▁teaspoon	-9905
▁bass	-9906
▁Again	-9907
▁Victoria	-9908
▁alert	-9909
▁alumni	-9910
▁puzzle	-9911
▁destroyed	-9912
▁numerical	-9913
lix	-9914
ometry	-9915
▁victims	-9916
▁favorable	-9917
▁laid	-9918
▁Track	-9919
▁delivered	-9920
▁protective	-9921
aints	-9922
▁utilizing	-9923
▁heating	-9924
▁Computer	-9925
▁dependent	-9926
▁BC	-9927
arding	-9928
▁Diego	-9929
▁pencils	-9930
▁password	-9931
▁classified	-9932
▁recession	-9933
▁Level	-9934
▁Page	-9935
▁Awards	-9936
▁Creek	-9937
▁sensors	-9938
▁laughter	-9939
▁designers	-9940
▁Eventually	-9941
sm	-9942
ikip	-9943
▁devast	-9944
▁Gar	-9945
▁Later	-9946
▁bears	-9947
foot	-9948
inding	-9949
▁sandw	-9950
graduate	-9951
▁uniform	-9952
▁optimization	-9953
ruit	-9954
burgh	-9955
▁dispar	-9956
▁strongly	-9957
▁automation	-9958
▁documentation	-9959
▁fib	-9960
▁merely	-9961
▁Islamic	-9962
iology	-9963
▁worker	-9964
▁Minnesota	-9965
OM	-9966
rem	-9967
▁theater	-9968
▁harmon	-9969
▁mixing	-9970
▁reverse	-9971
aved	-9972
pack	-9973
rape	-9974
▁refuge	-9975
▁Deep	-9976
▁Tell	-9977
▁stomach	-9978
▁lifetime	-9979
▁tomorrow	-9980
▁Parliament	-9981
aret	-9982
▁tob	-9983
Based	-9984
▁euro	-9985
▁oral	-9986
▁Edward	-9987
pa	-9988
bar	-9989
▁fan	-9990
▁Navy	-9991
▁fairness	-9992
▁Adobe	-9993
▁liver	-9994
ikipedia	-9995
icit	-9996
▁ton	-9997
▁Five	-9998
▁hall	-9999
▁immun	-10000
ortheast	-10001
▁Cultural	-10002
▁mentions	-10003
▁confirmed	-10004
LL	-10005
osures	-10006
▁attach	-10007
▁routes	-10008
▁Copyright	-10009
elect	-10010
ouses	-10011
regon	-10012
▁mode	-10013
▁Limited	-10014
dis	-10015
▁Game	-10016
▁graduate	-10017
▁publication	-10018
oln	-10019
▁Soon	-10020
▁Vanguard	-10021
brid	-10022
▁reasoning	-10023
ito	-10024
orph	-10025
market	-10026
▁Korean	-10027
▁desert	-10028
▁tobacco	-10029
▁concrete	-10030
▁dramatic	-10031
.-	-10032
De	-10033
▁Hawai	-10034
through	-10035
▁birthday	-10036
▁memorable	-10037
bro	-10038
▁Ess	-10039
▁Jun	-10040
Cont	-10041
▁butt	-10042
▁incur	-10043
ictions	-10044
▁slices	-10045
▁Windows	-10046
olds	-10047
▁bell	-10048
▁Estab	-10049
▁burden	-10050
▁winds	-10051
▁wings	-10052
▁defend	-10053
▁laptop	-10054
▁Ens	-10055
▁expenditures	-10056
irus	-10057
heric	-10058
▁ga	-10059
acies	-10060
▁Sn	-10061
▁mes	-10062
▁verb	-10063
Well	-10064
▁hopes	-10065
▁appoint	-10066
▁obesity	-10067
oots	-10068
▁IBM	-10069
ishop	-10070
▁Prince	-10071
▁electrons	-10072
▁motivated	-10073
▁owed	-10074
▁loves	-10075
icating	-10076
▁learners	-10077
LP	-10078
ogs	-10079
▁proved	-10080
▁Ava	-10081
▁Source	-10082
▁elections	-10083
plot	-10084
ennis	-10085
▁counts	-10086
▁scored	-10087
▁License	-10088
▁nervous	-10089
▁retired	-10090
▁Conservation	-10091
▁RE	-10092
▁singer	-10093
▁promotes	-10094
▁retention	-10095
▁Literature	-10096
^\	-10097
cap	-10098
eor	-10099
angers	-10100
For	-10101
serv	-10102
▁calc	-10103
▁Summar	-10104
▁realised	-10105
▁conducting	-10106
▁sle	-10107
▁crore	-10108
▁jewel	-10109
▁tends	-10110
▁examination	-10111
ori	-10112
▁Math	-10113
▁Morgan	-10114
▁Bol	-10115
▁relation	-10116
▁Still	-10117
▁shore	-10118
▁equals	-10119
test	-10120
▁dur	-10121
▁Collect	-10122
▁hat	-10123
▁Draw	-10124
▁portray	-10125
including	-10126
spec	-10127
▁SSN	-10128
▁Death	-10129
▁grain	-10130
▁harsh	-10131
▁unfair	-10132
▁placing	-10133
mi	-10134
▁occas	-10135
▁intersection	-10136
amine	-10137
rolled	-10138
▁pursuing	-10139
▁phenomena	-10140
▁culinary	-10141
▁negatively	-10142
*:	-10143
▁doubt	-10144
▁diplom	-10145
▁Subtract	-10146
▁criticism	-10147
FF	-10148
▁administrative	-10149
▁Bow	-10150
▁crafts	-10151
▁Country	-10152
▁attorney	-10153
▁Map	-10154
▁perm	-10155
Option	-10156
▁Senate	-10157
▁guests	-10158
▁SEC	-10159
▁eru	-10160
▁wash	-10161
▁Define	-10162
▁treats	-10163
▁twenty	-10164
▁registered	-10165
▁Dow	-10166
▁Recogn	-10167
▁missed	-10168
▁oceans	-10169
▁separated	-10170
▁containers	-10171
▁gam	-10172
▁pione	-10173
▁sheets	-10174
▁feeding	-10175
▁initiative	-10176
▁thoroughly	-10177
▁farms	-10178
RC	-10179
gian	-10180
ivia	-10181
lusivity	-10182
MED	-10183
▁Santa	-10184
▁Insurance	-10185
▁universal	-10186
▁transferred	-10187
▁odd	-10188
ampion	-10189
▁romantic	-10190
▁supportive	-10191
▁Philadelphia	-10192
ools	-10193
▁bomb	-10194
▁debut	-10195
▁gardens	-10196
▁teaches	-10197
▁traveled	-10198
▁overwhelming	-10199
▁narrative	-10200
▁suppliers	-10201
iro	-10202
▁panels	-10203
▁Rub	-10204
liest	-10205
▁governs	-10206
▁gest	-10207
▁cameras	-10208
▁pointed	-10209
▁Description	-10210
eren	-10211
uros	-10212
Phone	-10213
▁jurisd	-10214
▁disability	-10215
▁Intelligence	-10216
▁Kh	-10217
▁Lew	-10218
▁Often	-10219
▁moisture	-10220
▁involvement	-10221
▁Due	-10222
▁wra	-10223
▁releases	-10224
▁kne	-10225
▁Mill	-10226
▁absorb	-10227
elligent	-10228
▁consume	-10229
▁immense	-10230
▁advocate	-10231
▁disabilities	-10232
orus	-10233
▁bench	-10234
▁valuation	-10235
vy	-10236
essee	-10237
▁theoret	-10238
▁stones	-10239
▁colored	-10240
▁compris	-10241
▁separately	-10242
▁ams	-10243
▁blind	-10244
▁frustr	-10245
▁footing	-10246
erms	-10247
▁compelling	-10248
ommy	-10249
▁cab	-10250
haust	-10251
▁derivatives	-10252
▁Cut	-10253
▁Wars	-10254
▁menu	-10255
▁truck	-10256
▁nodded	-10257
▁anymore	-10258
▁LGBT	-10259
▁chrom	-10260
▁Arctic	-10261
▁safegu	-10262
▁seller	-10263
▁Ow	-10264
eties	-10265
▁Cond	-10266
▁pupp	-10267
▁parameter	-10268
▁observation	-10269
lan	-10270
stic	-10271
▁Buy	-10272
▁lect	-10273
▁producer	-10274
▁recurring	-10275
▁Protection	-10276
EA	-10277
▁Stories	-10278
▁universities	-10279
)}	-10280
{\	-10281
ucky	-10282
▁headqu	-10283
▁compete	-10284
▁council	-10285
▁religions	-10286
Per	-10287
▁SP	-10288
aval	-10289
▁Capt	-10290
▁info	-10291
▁disturb	-10292
▁suggesting	-10293
▁clay	-10294
▁lock	-10295
elfare	-10296
igious	-10297
▁drain	-10298
▁legit	-10299
▁soap	-10300
ifiable	-10301
▁thorough	-10302
▁resid	-10303
▁Ignore	-10304
sters	-10305
▁grat	-10306
▁nuts	-10307
▁actress	-10308
▁vanilla	-10309
Pr	-10310
▁Ka	-10311
home	-10312
▁drives	-10313
▁Everyone	-10314
▁educators	-10315
gebra	-10316
▁connects	-10317
▁desk	-10318
▁smile	-10319
▁replacement	-10320
:||	-10321
▁sorts	-10322
Be	-10323
loss	-10324
vard	-10325
▁wast	-10326
▁Hug	-10327
▁\[\	-10328
▁Aud	-10329
▁Jean	-10330
orship	-10331
▁tower	-10332
▁Oregon	-10333
onent	-10334
▁Quest	-10335
▁patent	-10336
ribution	-10337
▁Railway	-10338
▁producers	-10339
▁scal	-10340
▁hydro	-10341
▁tied	-10342
▁commodity	-10343
struct	-10344
▁Justice	-10345
VD	-10346
quis	-10347
▁Theory	-10348
▁requirement	-10349
▁researching	-10350
(\	-10351
ammation	-10352
▁Artificial	-10353
They	-10354
▁gear	-10355
▁comics	-10356
▁repeat	-10357
oli	-10358
asty	-10359
amins	-10360
heart	-10361
riends	-10362
▁fever	-10363
▁episode	-10364
▁weights	-10365
bank	-10366
▁Rod	-10367
▁Kenn	-10368
incoln	-10369
▁crack	-10370
▁strain	-10371
▁brilliant	-10372
bury	-10373
olph	-10374
▁coat	-10375
▁deprec	-10376
▁voting	-10377
▁enhanced	-10378
▁passengers	-10379
▁artif	-10380
UR	-10381
sum	-10382
▁Bey	-10383
▁candy	-10384
▁disputes	-10385
▁productive	-10386
ials	-10387
▁CON	-10388
▁structural	-10389
▁vel	-10390
esterol	-10391
▁prosper	-10392
▁entrepreneurs	-10393
?!	-10394
ho	-10395
▁Bor	-10396
▁Nut	-10397
▁submit	-10398
▁Schools	-10399
▁measurement	-10400
▁manufacturers	-10401
teen	-10402
will	-10403
acent	-10404
▁stays	-10405
▁operated	-10406
▁chemistry	-10407
▁directions	-10408
▁GM	-10409
▁Born	-10410
▁Prize	-10411
▁decent	-10412
▁contest	-10413
▁laboratory	-10414
▁peer	-10415
▁lender	-10416
▁Supreme	-10417
▁careers	-10418
▁borrowed	-10419
▁disagree	-10420
▁somewhat	-10421
▁molecular	-10422
fizer	-10423
▁trick	-10424
▁apolog	-10425
▁diagnosed	-10426
▁tolerance	-10427
▁evaluating	-10428
GO	-10429
▁bold	-10430
▁studio	-10431
▁celebrated	-10432
▁Jr	-10433
▁candidates	-10434
▁completing	-10435
bies	-10436
▁Standard	-10437
erie	-10438
▁Arth	-10439
▁alter	-10440
▁Mountain	-10441
▁Along	-10442
▁hyper	-10443
▁outbre	-10444
▁trials	-10445
▁Problem	-10446
▁rolling	-10447
OC	-10448
▁Harm	-10449
▁cheap	-10450
owa	-10451
▁fancy	-10452
chnology	-10453
▁salaries	-10454
▁employers	-10455
ushes	-10456
▁modified	-10457
▁pod	-10458
▁duration	-10459
▁semi	-10460
▁Bridge	-10461
yclopedia	-10462
dec	-10463
▁encomp	-10464
▁fantasy	-10465
onto	-10466
▁shipping	-10467
▁basically	-10468
▁acceptance	-10469
▁Gulf	-10470
▁Daily	-10471
▁Tesla	-10472
▁motivation	-10473
▁Prime	-10474
▁archae	-10475
▁Earnings	-10476
▁Kim	-10477
▁assert	-10478
▁Christians	-10479
▁Force	-10480
▁racing	-10481
▁Alexander	-10482
▁politicians	-10483
▁TO	-10484
icer	-10485
▁buffer	-10486
▁identification	-10487
▁Hong	-10488
elihood	-10489
▁disadvant	-10490
▁masterpie	-10491
▁Opt	-10492
▁exem	-10493
▁dough	-10494
▁latter	-10495
▁surveys	-10496
=$	-10497
▁wars	-10498
▁restricted	-10499
▁metab	-10500
▁Winter	-10501
▁consent	-10502
▁modeling	-10503
▁shareholder	-10504
lyn	-10505
alpha	-10506
▁requests	-10507
▁treasures	-10508
▁Field	-10509
▁crafting	-10510
▁Personally	-10511
▁demonstrating	-10512
▁Communications	-10513
Of	-10514
▁dense	-10515
▁insert	-10516
▁Culture	-10517
hend	-10518
called	-10519
▁Clean	-10520
▁Night	-10521
▁Indones	-10522
▁curriculum	-10523
▁tub	-10524
▁owning	-10525
▁bridges	-10526
▁mechanical	-10527
▁statistical	-10528
esides	-10529
▁panel	-10530
verance	-10531
▁tribes	-10532
▁Wildlife	-10533
▁footprint	-10534
▁identical	-10535
yearly	-10536
▁poems	-10537
▁aest	-10538
fiction	-10539
bul	-10540
▁frag	-10541
▁Beach	-10542
berries	-10543
▁illustrated	-10544
▁Var	-10545
apped	-10546
▁Cool	-10547
▁Girl	-10548
▁climb	-10549
▁facial	-10550
Cola	-10551
▁males	-10552
▁Absolutely	-10553
fly	-10554
▁Bon	-10555
▁preval	-10556
(-	-10557
▁enforcement	-10558
▁rows	-10559
▁laugh	-10560
liances	-10561
▁charity	-10562
reshold	-10563
▁Turkey	-10564
Co	-10565
When	-10566
▁reef	-10567
▁vend	-10568
▁handy	-10569
▁intake	-10570
▁luxury	-10571
▁precision	-10572
jud	-10573
▁Radio	-10574
▁Univers	-10575
▁festival	-10576
▁Naz	-10577
▁refin	-10578
▁castle	-10579
▁Writing	-10580
PL	-10581
pass	-10582
▁sidest	-10583
employee	-10584
▁medieval	-10585
▁quarters	-10586
▁vig	-10587
▁Util	-10588
▁intu	-10589
▁Cho	-10590
▁Fast	-10591
nowned	-10592
▁emails	-10593
▁export	-10594
▁disasters	-10595
▁peoples	-10596
▁visually	-10597
FC	-10598
rier	-10599
iratory	-10600
▁divine	-10601
▁promising	-10602
▁overwhelmed	-10603
▁Accur	-10604
▁outer	-10605
▁query	-10606
▁Summarize	-10607
hr	-10608
▁Solar	-10609
▁displays	-10610
▁keyboard	-10611
effective	-10612
Id	-10613
aded	-10614
▁offices	-10615
▁Agreement	-10616
▁politician	-10617
ixt	-10618
▁nurt	-10619
driven	-10620
▁clock	-10621
▁loose	-10622
idae	-10623
ulin	-10624
▁enabled	-10625
▁Collabor	-10626
▁Tennessee	-10627
▁residential	-10628
▁Anna	-10629
▁Coca	-10630
▁Steve	-10631
▁copyright	-10632
▁workshops	-10633
▁relaxation	-10634
▁tu	-10635
▁grants	-10636
▁warmth	-10637
▁arrangement	-10638
▁mindfulness	-10639
▁occasionally	-10640
▁Ra	-10641
▁Ped	-10642
▁exped	-10643
▁harness	-10644
▁diameter	-10645
▁Prevention	-10646
▁vocabulary	-10647
▁pour	-10648
▁steam	-10649
▁centre	-10650
▁adversity	-10651
▁beads	-10652
▁plates	-10653
▁battles	-10654
▁printed	-10655
▁adjusted	-10656
▁independently	-10657
izon	-10658
oline	-10659
▁Championship	-10660
▁Video	-10661
▁binary	-10662
▁evil	-10663
▁tot	-10664
▁yours	-10665
▁calendar	-10666
▁Political	-10667
sub	-10668
word	-10669
nings	-10670
▁adopt	-10671
ustrial	-10672
▁bite	-10673
▁lets	-10674
▁Third	-10675
▁Search	-10676
▁persons	-10677
athan	-10678
▁Prem	-10679
▁Bat	-10680
aired	-10681
▁sidestep	-10682
▁Rog	-10683
▁Hi	-10684
▁tag	-10685
esome	-10686
▁actor	-10687
▁Adding	-10688
▁Poland	-10689
▁Lincoln	-10690
disc	-10691
▁Gro	-10692
ifted	-10693
otten	-10694
▁vivid	-10695
▁Within	-10696
▁concerning	-10697
▁references	-10698
▁spacecraft	-10699
liver	-10700
▁cooling	-10701
▁Dy	-10702
According	-10703
▁communications	-10704
▁Ca	-10705
▁ta	-10706
▁Enjoy	-10707
▁winner	-10708
▁surprising	-10709
ooked	-10710
▁Adam	-10711
▁showcase	-10712
marks	-10713
▁census	-10714
▁migration	-10715
ilib	-10716
▁stimulate	-10717
▁threatened	-10718
▁complications	-10719
▁THE	-10720
▁Kong	-10721
▁chaos	-10722
▁planting	-10723
▁emer	-10724
▁Brain	-10725
▁Garden	-10726
▁Foreign	-10727
▁similarities	-10728
:*	-10729
▁dent	-10730
▁Sally	-10731
▁exhaust	-10732
▁recall	-10733
▁credits	-10734
▁thereby	-10735
▁minimizing	-10736
ollar	-10737
▁electro	-10738
▁integers	-10739
TH	-10740
ricane	-10741
▁existed	-10742
▁NE	-10743
eenth	-10744
▁Come	-10745
▁crimes	-10746
iasm	-10747
▁STREET	-10748
olk	-10749
▁rid	-10750
plant	-10751
▁hier	-10752
▁irre	-10753
▁Centre	-10754
▁Stanley	-10755
▁deductions	-10756
▁inflammation	-10757
▁answering	-10758
▁belonging	-10759
▁packages	-10760
▁Definition	-10761
▁duty	-10762
▁rhythm	-10763
▁photograp	-10764
▁appliances	-10765
▁convenient	-10766
▁tamb	-10767
ensing	-10768
▁endangered	-10769
▁celebrating	-10770
▁Kat	-10771
▁imaging	-10772
hma	-10773
▁Mother	-10774
▁Oxford	-10775
▁freely	-10776
▁tempor	-10777
▁trauma	-10778
▁committee	-10779
asant	-10780
▁Norm	-10781
iotics	-10782
▁Motors	-10783
▁simpler	-10784
▁tissues	-10785
▁approval	-10786
▁priority	-10787
▁diversified	-10788
▁corporations	-10789
MRN	-10790
▁debit	-10791
▁slope	-10792
▁discipl	-10793
▁districts	-10794
TV	-10795
▁discipline	-10796
)}{	-10797
▁Os	-10798
rell	-10799
itarian	-10800
▁crystal	-10801
▁displayed	-10802
▁inclusivity	-10803
▁pharmaceutical	-10804
▁Point	-10805
ificent	-10806
▁spices	-10807
▁Indiana	-10808
▁addressed	-10809
▁philosoph	-10810
▁Hein	-10811
▁tactics	-10812
raid	-10813
▁Fig	-10814
store	-10815
▁nose	-10816
▁jewelry	-10817
▁dimensions	-10818
▁Bud	-10819
▁GPT	-10820
▁ram	-10821
▁Depot	-10822
▁farmer	-10823
▁inquir	-10824
▁sacred	-10825
eav	-10826
▁mos	-10827
▁herbs	-10828
▁inherit	-10829
▁convenience	-10830
▁Pur	-10831
▁ham	-10832
charge	-10833
▁troub	-10834
Section	-10835
▁Sweden	-10836
▁timing	-10837
▁landlord	-10838
▁retain	-10839
▁stabil	-10840
▁predicted	-10841
ifer	-10842
amber	-10843
issipp	-10844
▁Alaska	-10845
▁centered	-10846
▁py	-10847
Organ	-10848
ailed	-10849
▁beef	-10850
▁Image	-10851
▁grammar	-10852
imensional	-10853
▁likelihood	-10854
▁showcasing	-10855
▁soda	-10856
▁imports	-10857
df	-10858
▁hide	-10859
ibbean	-10860
▁underwater	-10861
▁”	-10862
投资	-10863
▁hal	-10864
▁Live	-10865
olitan	-10866
▁proven	-10867
▁pressing	-10868
▁perception	-10869
▁Job	-10870
▁Walt	-10871
▁nick	-10872
▁Divid	-10873
▁quadr	-10874
▁Vietnam	-10875
▁intention	-10876
▁emphasizing	-10877
▁subscription	-10878
mouth	-10879
ucose	-10880
▁Join	-10881
▁Marc	-10882
▁snacks	-10883
cribed	-10884
▁digits	-10885
▁Finnish	-10886
▁databases	-10887
file	-10888
▁Nic	-10889
▁painted	-10890
▁evolving	-10891
▁×	-10892
▁Vo	-10893
obil	-10894
ika	-10895
▁Between	-10896
▁wealthy	-10897
▁contexts	-10898
olar	-10899
▁lob	-10900
rated	-10901
▁purple	-10902
▁acquire	-10903
▁enthusiasm	-10904
▁priorities	-10905
▁perseverance	-10906
▁lakes	-10907
▁volumes	-10908
▁celebration	-10909
anna	-10910
iblings	-10911
▁airport	-10912
▁elderly	-10913
▁Es	-10914
arry	-10915
▁vice	-10916
▁acres	-10917
atching	-10918
▁caring	-10919
▁drought	-10920
▁sparked	-10921
▁precisely	-10922
orse	-10923
▁explores	-10924
▁lift	-10925
▁talks	-10926
▁democracy	-10927
bow	-10928
▁Dream	-10929
PMorgan	-10930
▁VI	-10931
▁trains	-10932
▁imagined	-10933
▁establishing	-10934
▁cope	-10935
▁alien	-10936
▁Career	-10937
▁Harvard	-10938
abs	-10939
rip	-10940
xon	-10941
style	-10942
▁Lewis	-10943
App	-10944
actly	-10945
▁Visa	-10946
▁stuck	-10947
▁speeds	-10948
▁Der	-10949
oster	-10950
▁conj	-10951
credit	-10952
▁Travel	-10953
isticated	-10954
▁bands	-10955
▁undert	-10956
▁Generally	-10957
▁Ec	-10958
ighth	-10959
▁impair	-10960
▁Finland	-10961
▁merchant	-10962
▁maintains	-10963
lace	-10964
▁intr	-10965
natural	-10966
western	-10967
▁vertical	-10968
▁struggled	-10969
▁adaptation	-10970
anci	-10971
▁Dun	-10972
pection	-10973
▁Dublin	-10974
▁Heritage	-10975
▁accidents	-10976
▁cholesterol	-10977
oeing	-10978
▁shed	-10979
string	-10980
▁tasked	-10981
▁transmit	-10982
▁brokerage	-10983
▁pride	-10984
OP	-10985
▁Nik	-10986
sized	-10987
▁Hung	-10988
embered	-10989
▁margins	-10990
▁talented	-10991
fare	-10992
ummy	-10993
▁sla	-10994
▁Rain	-10995
ilibrium	-10996
▁railway	-10997
▁territories	-10998
▁gaps	-10999
▁confused	-11000
▁Communication	-11001
▁columns	-11002
▁Az	-11003
rots	-11004
▁Dou	-11005
▁Berlin	-11006
▁Festival	-11007
▁Overview	-11008
▁intensity	-11009
pm	-11010
▁Hu	-11011
\\\\	-11012
bell	-11013
racle	-11014
▁Full	-11015
▁revers	-11016
▁unders	-11017
inton	-11018
▁Ryan	-11019
▁armed	-11020
▁adjusting	-11021
Le	-11022
▁teens	-11023
▁Bureau	-11024
▁genres	-11025
▁marbles	-11026
▁judgment	-11027
erto	-11028
▁rac	-11029
atable	-11030
▁puzzles	-11031
▁consisting	-11032
bel	-11033
▁Philip	-11034
QL	-11035
▁Angel	-11036
▁teles	-11037
▁prohib	-11038
ovascular	-11039
▁breakfast	-11040
zes	-11041
▁slavery	-11042
▁breeding	-11043
▁achievement	-11044
▁proportional	-11045
)*	-11046
▁Wilson	-11047
▁welfare	-11048
▁Offer	-11049
issippi	-11050
▁subtle	-11051
▁incorporated	-11052
ocal	-11053
uits	-11054
▁arranged	-11055
ptic	-11056
▁Ron	-11057
▁ate	-11058
atial	-11059
ipher	-11060
▁Understand	-11061
▁()	-11062
▁Path	-11063
▁aged	-11064
iscons	-11065
▁digest	-11066
▁viewed	-11067
▁longest	-11068
▁qualified	-11069
▁groundbreaking	-11070
▁vine	-11071
▁fosters	-11072
▁descriptions	-11073
▁acknowledging	-11074
▁publ	-11075
▁trips	-11076
▁varies	-11077
▁accompan	-11078
▁consistency	-11079
pose	-11080
zech	-11081
▁bare	-11082
▁mang	-11083
isconsin	-11084
PG	-11085
orp	-11086
▁HTML	-11087
inational	-11088
▁Maryland	-11089
▁echo	-11090
▁pink	-11091
▁Origin	-11092
▁calcium	-11093
▁officially	-11094
)--(	-11095
archy	-11096
▁renowned	-11097
▁varieties	-11098
▁interviews	-11099
▁~	-11100
▁breat	-11101
▁cycles	-11102
▁buttons	-11103
▁readily	-11104
▁tutorial	-11105
▁vitamins	-11106
▁Investing	-11107
▁magnitude	-11108
▁guaranteed	-11109
▁Ingredients	-11110
▁functionality	-11111
▁gym	-11112
opher	-11113
▁aspir	-11114
▁adoles	-11115
▁siblings	-11116
▁medicines	-11117
rible	-11118
▁exports	-11119
▁oranges	-11120
▁remembered	-11121
▁volunteers	-11122
lusions	-11123
opic	-11124
▁okay	-11125
▁fires	-11126
redient	-11127
▁Pfizer	-11128
▁Highway	-11129
▁fingers	-11130
▁floating	-11131
▁batteries	-11132
▁penalties	-11133
▁WH	-11134
▁competing	-11135
▁subsidiaries	-11136
▁Run	-11137
▁meth	-11138
google	-11139
▁packaging	-11140
▁Traditional	-11141
eder	-11142
▁Antar	-11143
▁pound	-11144
▁Action	-11145
▁comedy	-11146
▁slight	-11147
▁injured	-11148
▁Treasury	-11149
▁scheduled	-11150
▁suspicious	-11151
Bl	-11152
▁Dam	-11153
words	-11154
▁Fish	-11155
▁Need	-11156
▁Turk	-11157
Health	-11158
▁hiring	-11159
▁spectrum	-11160
▁threshold	-11161
http	-11162
cmake	-11163
rapeut	-11164
▁campus	-11165
▁temple	-11166
▁trigger	-11167
▁Software	-11168
awn	-11169
▁enric	-11170
▁fulfill	-11171
$$	-11172
Com	-11173
▁Secretary	-11174
▁revealing	-11175
earing	-11176
▁module	-11177
▁Depending	-11178
▁Republican	-11179
▁influencing	-11180
▁prey	-11181
commerce	-11182
▁answered	-11183
▁quantities	-11184
▁Instruct	-11185
▁sophisticated	-11186
bot	-11187
▁Hur	-11188
▁cotton	-11189
▁rib	-11190
apore	-11191
▁functioning	-11192
▁!	-11193
▁Les	-11194
▁Drive	-11195
▁unsure	-11196
▁ABC	-11197
▁dietary	-11198
▁gaining	-11199
▁stimulus	-11200
imb	-11201
▁Could	-11202
▁sne	-11203
inals	-11204
▁Cash	-11205
▁hang	-11206
▁angles	-11207
▁distribute	-11208
▁magnificent	-11209
▁manufacturer	-11210
▁burst	-11211
▁eleph	-11212
▁indicated	-11213
inf	-11214
vit	-11215
▁Tit	-11216
authorized	-11217
▁extension	-11218
▁rush	-11219
ographics	-11220
VE	-11221
▁Reddit	-11222
▁Visual	-11223
▁phrases	-11224
▁preservation	-11225
▁logo	-11226
▁kidney	-11227
▁kilogram	-11228
▁taxation	-11229
▁promotion	-11230
▁Iss	-11231
▁hel	-11232
▁URLs	-11233
▁integral	-11234
▁reminded	-11235
ffe	-11236
oto	-11237
size	-11238
▁Alt	-11239
flies	-11240
▁Right	-11241
▁funded	-11242
▁Protect	-11243
lah	-11244
aneous	-11245
iously	-11246
▁embed	-11247
▁Eating	-11248
▁imagery	-11249
▁juvenile	-11250
▁budgeting	-11251
anz	-11252
ometer	-11253
▁titled	-11254
itzerland	-11255
▁referring	-11256
▁Technologies	-11257
Qu	-11258
▁Rat	-11259
peror	-11260
▁Ever	-11261
▁pens	-11262
▁rally	-11263
▁locally	-11264
▁speakers	-11265
▁collaborative	-11266
flix	-11267
▁Bell	-11268
onduct	-11269
rons	-11270
customer	-11271
UT	-11272
])	-11273
esty	-11274
osit	-11275
▁sor	-11276
▁educated	-11277
▁pressures	-11278
▁constitution	-11279
▁hike	-11280
▁pilot	-11281
▁barrel	-11282
▁Assembly	-11283
▁streaming	-11284
▁Buff	-11285
▁Rena	-11286
▁Role	-11287
▁emerge	-11288
▁missions	-11289
▁attitudes	-11290
▁representatives	-11291
市场	-11292
Val	-11293
mia	-11294
▁Polish	-11295
▁Results	-11296
▁Accuracy	-11297
▁darkness	-11298
▁mastering	-11299
AB	-11300
iva	-11301
uther	-11302
▁Mand	-11303
▁Prim	-11304
▁rough	-11305
▁Arthur	-11306
▁Kansas	-11307
▁perceived	-11308
▁regression	-11309
▁sevent	-11310
▁concert	-11311
Certainly	-11312
▁overnight	-11313
iner	-11314
▁urg	-11315
erness	-11316
▁tasty	-11317
IG	-11318
icon	-11319
▁soy	-11320
▁femin	-11321
▁hypot	-11322
▁Police	-11323
▁brighter	-11324
▁Wisconsin	-11325
▁tournament	-11326
PAN	-11327
▁Body	-11328
▁guided	-11329
Sp	-11330
▁ba	-11331
cter	-11332
▁drag	-11333
▁Consequ	-11334
▁circles	-11335
▁advocating	-11336
▁delivering	-11337
▁Afghanistan	-11338
▁afraid	-11339
▁Substitute	-11340
Us	-11341
▁lungs	-11342
▁footballers	-11343
vi	-11344
unct	-11345
▁Lind	-11346
▁tape	-11347
▁crick	-11348
▁Survey	-11349
▁courts	-11350
▁grades	-11351
▁guides	-11352
▁gardening	-11353
▁enthusiasts	-11354
▁multinational	-11355
URL	-11356
leq	-11357
▁Loss	-11358
▁illum	-11359
▁Gamble	-11360
▁Investig	-11361
▁constitu	-11362
▁cybersecurity	-11363
cycle	-11364
agnetic	-11365
▁Relations	-11366
▁breathtaking	-11367
zone	-11368
▁tube	-11369
powered	-11370
▁ranges	-11371
▁deduction	-11372
▁Hard	-11373
▁Student	-11374
▁rational	-11375
▁trillion	-11376
▁navigation	-11377
Em	-11378
oa	-11379
▁caps	-11380
▁poet	-11381
▁absent	-11382
▁overse	-11383
▁preced	-11384
▁categor	-11385
▁Challeng	-11386
▁stickers	-11387
▁MA	-11388
▁Was	-11389
▁Yeah	-11390
▁crude	-11391
▁ruled	-11392
Ret	-11393
▁restore	-11394
▁Physical	-11395
▁striking	-11396
ophy	-11397
▁fats	-11398
▁nucle	-11399
▁snipp	-11400
▁Setting	-11401
▁charging	-11402
▁replacing	-11403
▁visits	-11404
▁meanings	-11405
▁Laboratory	-11406
”.	-11407
rin	-11408
▁ric	-11409
▁Cisco	-11410
▁Alliance	-11411
▁indirect	-11412
▁histories	-11413
HS	-11414
▁Vi	-11415
rage	-11416
▁Indust	-11417
▁passive	-11418
▁viewers	-11419
▁pose	-11420
rolling	-11421
▁appealing	-11422
▁affil	-11423
▁singles	-11424
▁resolved	-11425
afe	-11426
bes	-11427
▁gad	-11428
adder	-11429
bourne	-11430
▁float	-11431
esterday	-11432
▁proposal	-11433
▁gratitude	-11434
▁rival	-11435
▁riding	-11436
▁accused	-11437
aine	-11438
igue	-11439
umph	-11440
▁lend	-11441
▁intim	-11442
emiconduct	-11443
ymph	-11444
▁dairy	-11445
▁merch	-11446
▁frozen	-11447
▁weighs	-11448
▁hobbies	-11449
▁reinvest	-11450
OD	-11451
▁Czech	-11452
writing	-11453
▁Marine	-11454
▁reveals	-11455
CP	-11456
asa	-11457
▁Gi	-11458
▁deter	-11459
aki	-11460
kyo	-11461
▁Delta	-11462
▁Louisiana	-11463
fire	-11464
named	-11465
estone	-11466
endment	-11467
▁poison	-11468
▁dancing	-11469
▁Caribbean	-11470
▁ye	-11471
osph	-11472
▁mouse	-11473
▁regulate	-11474
ega	-11475
aping	-11476
▁Renaissance	-11477
Are	-11478
▁Rus	-11479
▁chip	-11480
▁expenditure	-11481
Donald	-11482
▁Beyond	-11483
▁Gather	-11484
▁Monitor	-11485
▁mammals	-11486
▁earliest	-11487
▁register	-11488
Organization	-11489
▁exceptional	-11490
EE	-11491
pled	-11492
▁mice	-11493
▁Ukraine	-11494
▁pregnant	-11495
▁races	-11496
angular	-11497
jo	-11498
fund	-11499
▁boss	-11500
▁torn	-11501
▁hobby	-11502
▁Annual	-11503
▁spirits	-11504
▁journeys	-11505
▁networking	-11506
Data	-11507
▁innoc	-11508
attered	-11509
iblical	-11510
▁awesome	-11511
▁Construct	-11512
▁immigrants	-11513
rait	-11514
▁Han	-11515
▁aug	-11516
unger	-11517
▁worries	-11518
ko	-11519
oven	-11520
▁Fer	-11521
▁crust	-11522
ryption	-11523
▁occurring	-11524
▁API	-11525
▁Brian	-11526
▁Swedish	-11527
▁Document	-11528
▁factories	-11529
▁municipality	-11530
▁OF	-11531
▁writes	-11532
▁Toronto	-11533
▁minister	-11534
▁timeline	-11535
▁maj	-11536
▁Seek	-11537
▁kick	-11538
▁dried	-11539
▁setup	-11540
▁votes	-11541
▁Particip	-11542
▁isolated	-11543
▁profitable	-11544
▁equilibrium	-11545
▁von	-11546
▁ratings	-11547
▁interior	-11548
▁seasonal	-11549
shaped	-11550
▁aging	-11551
▁enchant	-11552
▁surprised	-11553
▁tens	-11554
▁Tokyo	-11555
▁delightful	-11556
Rep	-11557
▁cig	-11558
inked	-11559
▁Exerc	-11560
▁Sentence	-11561
▁Singapore	-11562
▁Switzerland	-11563
TX	-11564
offs	-11565
}{\	-11566
▁Davis	-11567
▁smell	-11568
▁founder	-11569
▁renting	-11570
▁nitrogen	-11571
▁discusses	-11572
uster	-11573
▁golf	-11574
▁impl	-11575
▁Fa	-11576
inch	-11577
▁Nap	-11578
▁Pra	-11579
▁closest	-11580
▁legally	-11581
▁opposed	-11582
▁weighted	-11583
▁attempting	-11584
aga	-11585
vering	-11586
▁exclusive	-11587
▁dip	-11588
▁Talk	-11589
▁argued	-11590
▁ultimate	-11591
▁friendships	-11592
▁Ty	-11593
=$<<	-11594
▁Lucy	-11595
icular	-11596
orient	-11597
▁LGBTQ	-11598
▁acids	-11599
▁accountability	-11600
▁Vill	-11601
▁tender	-11602
▁labeled	-11603
▁circular	-11604
▁collapse	-11605
dimensional	-11606
▁immigration	-11607
▁smartphones	-11608
▁tambaya	-11609
rine	-11610
▁ski	-11611
ceeds	-11612
▁ears	-11613
▁Things	-11614
▁endeav	-11615
▁talked	-11616
▁glucose	-11617
emed	-11618
oric	-11619
otes	-11620
pling	-11621
▁Ball	-11622
▁Tips	-11623
▁Philipp	-11624
▁Prepare	-11625
▁wireless	-11626
amous	-11627
▁Leon	-11628
▁upset	-11629
▁median	-11630
▁rarely	-11631
vol	-11632
▁Insp	-11633
▁Kids	-11634
▁scary	-11635
▁Labels	-11636
▁persu	-11637
▁upward	-11638
▁Additional	-11639
LS	-11640
▁Anne	-11641
▁scope	-11642
▁dating	-11643
▁Stephen	-11644
▁landing	-11645
▁mineral	-11646
▁detective	-11647
▁historians	-11648
▁lush	-11649
▁conse	-11650
rection	-11651
▁Solving	-11652
▁dictionary	-11653
▁CS	-11654
atus	-11655
▁Hal	-11656
abama	-11657
urches	-11658
▁seeks	-11659
▁zones	-11660
▁yearly	-11661
▁Changes	-11662
▁membership	-11663
▁mah	-11664
green	-11665
▁Prob	-11666
▁Sher	-11667
ristol	-11668
▁hazard	-11669
▁pestic	-11670
▁explorers	-11671
▁Mississippi	-11672
▁Imm	-11673
▁gamb	-11674
▁diagram	-11675
▁invited	-11676
▁graphics	-11677
▁associate	-11678
▁mechanics	-11679
okes	-11680
eland	-11681
ecutive	-11682
▁storms	-11683
▁Advanced	-11684
▁teamwork	-11685
▁Character	-11686
▁capturing	-11687
▁accidentally	-11688
MT	-11689
vens	-11690
▁fits	-11691
▁hire	-11692
▁Innov	-11693
▁maxim	-11694
▁weaken	-11695
▁reinfor	-11696
▁Descriptions	-11697
ostic	-11698
▁arbit	-11699
▁modest	-11700
▁amongst	-11701
high	-11702
▁Has	-11703
anean	-11704
▁Stone	-11705
▁Commod	-11706
▁lyrics	-11707
agan	-11708
▁Bad	-11709
after	-11710
▁Eric	-11711
▁Chile	-11712
▁iPhone	-11713
▁ingredient	-11714
▁alarm	-11715
▁stops	-11716
▁tries	-11717
▁automatic	-11718
▁usernames	-11719
ril	-11720
▁heated	-11721
▁Verizon	-11722
▁retrieve	-11723
▁questioning	-11724
▁tar	-11725
binom	-11726
athers	-11727
ugging	-11728
▁stack	-11729
▁Growth	-11730
▁talents	-11731
▁responded	-11732
▁Break	-11733
▁JPMorgan	-11734
▁departments	-11735
vals	-11736
▁Round	-11737
▁dilig	-11738
lu	-11739
▁à	-11740
▁Raj	-11741
▁Roll	-11742
otherapy	-11743
▁nuanced	-11744
▁Mathemat	-11745
▁transparent	-11746
▁CF	-11747
▁noting	-11748
▁Historic	-11749
▁analysts	-11750
thew	-11751
▁Item	-11752
▁strings	-11753
▁dominant	-11754
▁villages	-11755
▁followers	-11756
Pal	-11757
max	-11758
▁je	-11759
▁dies	-11760
▁Oliver	-11761
▁Industrial	-11762
child	-11763
▁nerve	-11764
▁Netflix	-11765
▁stretch	-11766
▁counting	-11767
mo	-11768
▁Allow	-11769
▁Visit	-11770
▁Volume	-11771
▁Friends	-11772
▁tourism	-11773
▁variation	-11774
▁earthquake	-11775
IM	-11776
Med	-11777
▁Sammy	-11778
▁transfers	-11779
▁interventions	-11780
lib	-11781
▁Wa	-11782
aven	-11783
emet	-11784
▁bugs	-11785
▁executed	-11786
▁sacrific	-11787
▁authorized	-11788
▁commodities	-11789
▁pulled	-11790
▁satisfied	-11791
▁civilizations	-11792
Tube	-11793
▁academ	-11794
▁evenly	-11795
▁comprehend	-11796
)$.	-11797
ynt	-11798
▁Sant	-11799
▁airpl	-11800
▁hills	-11801
▁Norway	-11802
▁Article	-11803
▁exclude	-11804
▁bankruptcy	-11805
▁coral	-11806
▁token	-11807
▁mature	-11808
▁perpet	-11809
▁caution	-11810
▁letting	-11811
▁outline	-11812
Act	-11813
onds	-11814
ludes	-11815
▁Barb	-11816
▁Medal	-11817
▁Questions	-11818
▁Conference	-11819
▁cryptocurrency	-11820
acon	-11821
▁Sky	-11822
▁holidays	-11823
conf	-11824
▁mas	-11825
▁bees	-11826
▁intest	-11827
▁stereotypes	-11828
▁Typ	-11829
▁iter	-11830
▁shock	-11831
▁relatives	-11832
api	-11833
▁Rose	-11834
▁Smart	-11835
▁trace	-11836
▁abroad	-11837
▁manipulate	-11838
dig	-11839
▁Bru	-11840
▁scared	-11841
▁qualify	-11842
▁listened	-11843
▁Tree	-11844
▁openly	-11845
▁protest	-11846
▁homework	-11847
▁Argentina	-11848
▁geographical	-11849
▁ma	-11850
olly	-11851
▁Aad	-11852
versely	-11853
▁Picture	-11854
▁automate	-11855
mind	-11856
▁nom	-11857
otype	-11858
▁Anim	-11859
▁shops	-11860
▁walks	-11861
atories	-11862
▁versat	-11863
▁Seattle	-11864
▁circulation	-11865
▁respiratory	-11866
▁theoretical	-11867
++	-11868
PII	-11869
▁odds	-11870
mother	-11871
▁oneself	-11872
Im	-11873
racks	-11874
▁Cert	-11875
▁Repe	-11876
covery	-11877
▁Legal	-11878
▁stepped	-11879
▁limiting	-11880
▁Mountains	-11881
▁intelligent	-11882
▁Hindu	-11883
fulness	-11884
▁Seeing	-11885
▁concluded	-11886
▁seriously	-11887
TO	-11888
▁sug	-11889
▁abnormal	-11890
▁responding	-11891
▁distinctive	-11892
}^	-11893
▁Arm	-11894
▁dot	-11895
▁Jacob	-11896
specific	-11897
▁galaxies	-11898
▁AB	-11899
▁keys	-11900
ustral	-11901
▁packed	-11902
By	-11903
▁feas	-11904
irates	-11905
▁evident	-11906
▁killing	-11907
▁Individual	-11908
TM	-11909
hal	-11910
ordan	-11911
▁breed	-11912
▁hybrid	-11913
▁astronaut	-11914
▁fo	-11915
▁Son	-11916
▁liv	-11917
▁Holy	-11918
▁tort	-11919
lahoma	-11920
▁evolve	-11921
▁faculty	-11922
▁invention	-11923
▁accompanied	-11924
▁wing	-11925
▁vocal	-11926
▁pollut	-11927
apor	-11928
▁Medit	-11929
holding	-11930
▁provin	-11931
▁resemb	-11932
▁Cop	-11933
▁socio	-11934
▁addiction	-11935
▁Brad	-11936
▁gate	-11937
▁Alabama	-11938
NS	-11939
▁pm	-11940
▁gods	-11941
▁manif	-11942
▁clarity	-11943
▁flights	-11944
▁deposited	-11945
▁epid	-11946
▁discom	-11947
▁inspect	-11948
wall	-11949
achers	-11950
▁Swiss	-11951
▁Thought	-11952
▁YouTube	-11953
ocity	-11954
▁Iowa	-11955
emetery	-11956
▁Custom	-11957
▁emotionally	-11958
▁reliability	-11959
▁carb	-11960
▁yoga	-11961
▁Identifiable	-11962
▁Bh	-11963
wind	-11964
▁enorm	-11965
▁locals	-11966
▁rabbit	-11967
All	-11968
▁Introdu	-11969
rup	-11970
iffs	-11971
▁Jake	-11972
▁dismiss	-11973
▁editing	-11974
seen	-11975
▁dad	-11976
▁Virt	-11977
▁cave	-11978
heimer	-11979
▁anger	-11980
▁Benefits	-11981
▁respected	-11982
▁utilities	-11983
▁researcher	-11984
erty	-11985
▁BBC	-11986
▁caf	-11987
▁repet	-11988
▁grounds	-11989
▁screening	-11990
ni	-11991
},	-11992
▁"/	-11993
▁Guard	-11994
▁secured	-11995
▁thriving	-11996
▁discounted	-11997
▁ecological	-11998
eld	-11999
ties	-12000
▁Bag	-12001
osaur	-12002
ercury	-12003
▁cattle	-12004
▁clever	-12005
▁entitled	-12006
▁appreciating	-12007
iya	-12008
PHONE	-12009
▁Bush	-12010
▁hack	-12011
astics	-12012
▁EMAIL	-12013
uv	-12014
sex	-12015
cult	-12016
iler	-12017
pill	-12018
▁assembly	-12019
▁Collection	-12020
▁autonomous	-12021
mal	-12022
▁ft	-12023
▁PHONE	-12024
▁compost	-12025
▁Training	-12026
▁Techniques	-12027
▁Agriculture	-12028
racking	-12029
▁Senior	-12030
▁layout	-12031
▁surviv	-12032
▁planted	-12033
▁adjacent	-12034
▁experimental	-12035
ão	-12036
\\$	-12037
arma	-12038
gged	-12039
EMAIL	-12040
label	-12041
▁Core	-12042
forget	-12043
havior	-12044
▁membr	-12045
▁wisely	-12046
USERNAME	-12047
▁violent	-12048
▁adapting	-12049
▁responsibly	-12050
zer	-12051
▁Dom	-12052
▁Unt	-12053
▁Chair	-12054
▁batch	-12055
▁mobility	-12056
▁underground	-12057
▁Ros	-12058
STREET	-12059
owners	-12060
▁varied	-12061
▁DRIVING	-12062
ropolitan	-12063
▁Dave	-12064
PASSPORT	-12065
▁Exactly	-12066
▁PASSPORT	-12067
▁randomly	-12068
▁cardiovascular	-12069
$)	-12070
()`	-12071
hea	-12072
idth	-12073
▁Dear	-12074
▁beer	-12075
▁fier	-12076
AADHAR	-12077
DRIVING	-12078
▁AADHAR	-12079
▁Aadhar	-12080
▁USERNAME	-12081
ugs	-12082
▁coup	-12083
▁Clear	-12084
▁Types	-12085
▁Compet	-12086
▁shooting	-12087
So	-12088
burn	-12089
▁Anth	-12090
▁modify	-12091
▁instant	-12092
aron	-12093
ieve	-12094
▁Hem	-12095
▁funny	-12096
▁piano	-12097
▁relies	-12098
▁Balance	-12099
▁alleged	-12100
▁artifacts	-12101
▁structured	-12102
▁establishment	-12103
▁Drug	-12104
▁Past	-12105
▁timely	-12106
▁Employee	-12107
▁controversial	-12108
▁EPA	-12109
▁bin	-12110
estab	-12111
▁Exxon	-12112
▁Sound	-12113
▁Wells	-12114
▁detected	-12115
GM	-12116
tage	-12117
▁Inv	-12118
▁por	-12119
These	-12120
String	-12121
▁triple	-12122
▁Devices	-12123
▁snippet	-12124
▁storing	-12125
▁testament	-12126
▁considerable	-12127
.|	-12128
TA	-12129
▁Fem	-12130
▁metric	-12131
▁mortgages	-12132
bian	-12133
▁aka	-12134
▁eleg	-12135
▁Cloud	-12136
▁Queens	-12137
▁physician	-12138
▁diversification	-12139
cs	-12140
rary	-12141
▁bits	-12142
▁Cooper	-12143
▁discomfort	-12144
▁unauthorized	-12145
IB	-12146
doors	-12147
▁pine	-12148
▁picking	-12149
▁Kentucky	-12150
igs	-12151
inth	-12152
▁Colomb	-12153
▁protocols	-12154
inum	-12155
▁tor	-12156
illance	-12157
▁Wikipedia	-12158
▁neighboring	-12159
▁isolation	-12160
▁realizing	-12161
rav	-12162
▁SA	-12163
▁chlor	-12164
▁satisfy	-12165
▁Military	-12166
▁volatile	-12167
ustainable	-12168
--------------	-12169
▁Transportation	-12170
unar	-12171
▁drum	-12172
▁wanting	-12173
▁warrant	-12174
▁decreasing	-12175
▁SE	-12176
▁Edit	-12177
▁Motor	-12178
▁overs	-12179
▁cleaner	-12180
▁passions	-12181
otechnology	-12182
▁completion	-12183
▁situated	-12184
ista	-12185
ugby	-12186
▁Joh	-12187
▁elabor	-12188
▁conclude	-12189
▁entrance	-12190
▁episodes	-12191
▁complaint	-12192
▁Mit	-12193
itcoin	-12194
▁Graph	-12195
▁aster	-12196
▁accessibility	-12197
Mod	-12198
erranean	-12199
▁Increased	-12200
▁practition	-12201
▁hem	-12202
▁jazz	-12203
▁noun	-12204
▁similarly	-12205
▁Dictionary	-12206
▁PC	-12207
▁pill	-12208
▁lawsuit	-12209
▁abandoned	-12210
▁encounters	-12211
aksh	-12212
enna	-12213
▁Fox	-12214
ceries	-12215
▁overd	-12216
orizons	-12217
▁Instructions	-12218
▁architectural	-12219
HC	-12220
▁mac	-12221
▁gray	-12222
▁hung	-12223
▁genus	-12224
▁Cambridge	-12225
▁sequences	-12226
▁volunteer	-12227
▁Cold	-12228
▁Block	-12229
▁fisher	-12230
▁defeated	-12231
▁tablespoons	-12232
▁mm	-12233
aire	-12234
Revenue	-12235
▁washing	-12236
▁conclusions	-12237
▁Ltd	-12238
▁ampl	-12239
▁Baker	-12240
▁Boeing	-12241
▁Period	-12242
▁Baseball	-12243
▁Contents	-12244
▁repayment	-12245
▁Television	-12246
án	-12247
oded	-12248
▁Mess	-12249
▁theft	-12250
▁meteor	-12251
▁murder	-12252
▁appropri	-12253
▁fraudulent	-12254
▁withdrawal	-12255
this	-12256
borne	-12257
▁Malays	-12258
MI	-12259
▁southeast	-12260
▁Professional	-12261
▁ads	-12262
▁Target	-12263
▁descent	-12264
▁Politics	-12265
▁analyzed	-12266
forgettable	-12267
oop	-12268
▁dozen	-12269
▁grapp	-12270
▁prize	-12271
▁reass	-12272
▁glasses	-12273
▁squares	-12274
▁continent	-12275
▁publications	-12276
ques	-12277
▁Toy	-12278
▁gau	-12279
▁recept	-12280
▁disclosed	-12281
▁integrating	-12282
▁manipulation	-12283
▁Mix	-12284
raded	-12285
▁mush	-12286
ouston	-12287
▁Brook	-12288
▁Amount	-12289
▁colonies	-12290
▁securely	-12291
▁uncomfortable	-12292
hot	-12293
▁pert	-12294
▁flags	-12295
▁Temple	-12296
▁enrich	-12297
▁Oklahoma	-12298
▁Strategies	-12299
▁glac	-12300
▁duties	-12301
▁scarves	-12302
▁sleeping	-12303
▁accompany	-12304
oning	-12305
▁alph	-12306
▁laser	-12307
▁lenders	-12308
▁particle	-12309
▁advertise	-12310
▁dramatically	-12311
▁bee	-12312
since	-12313
▁strip	-12314
▁vectors	-12315
▁distress	-12316
▁Encyclopedia	-12317
▁True	-12318
akespe	-12319
▁crown	-12320
atriate	-12321
▁String	-12322
▁unfold	-12323
▁governing	-12324
geq	-12325
▁scales	-12326
▁originated	-12327
▁Box	-12328
onial	-12329
▁compat	-12330
▁declined	-12331
▁partially	-12332
▁antibiotics	-12333
▁authentication	-12334
requ	-12335
ailing	-12336
▁nodes	-12337
▁triumph	-12338
▁Mediterranean	-12339
aver	-12340
ilem	-12341
isons	-12342
▁epic	-12343
▁Heinz	-12344
▁Austria	-12345
").	-12346
laimed	-12347
▁aloud	-12348
ailable	-12349
▁renewed	-12350
urse	-12351
abled	-12352
▁heal	-12353
▁Store	-12354
▁transc	-12355
▁authentic	-12356
▁prospects	-12357
▁kit	-12358
akespeare	-12359
▁Province	-12360
▁attitude	-12361
▁nutrient	-12362
▁respectful	-12363
▁historically	-12364
map	-12365
idel	-12366
▁Hab	-12367
▁Rap	-12368
▁Poly	-12369
▁slide	-12370
▁Morris	-12371
▁brokers	-12372
▁newspapers	-12373
hess	-12374
mann	-12375
product	-12376
▁Getting	-12377
agen	-12378
tered	-12379
eworks	-12380
▁autism	-12381
▁claiming	-12382
▁Ak	-12383
ycled	-12384
aration	-12385
▁consulting	-12386
irs	-12387
▁Tai	-12388
▁ber	-12389
emies	-12390
enger	-12391
▁Mort	-12392
▁bulk	-12393
▁Buddh	-12394
▁drums	-12395
▁inviting	-12396
▁northeast	-12397
▁definitions	-12398
keys	-12399
▁coron	-12400
▁chains	-12401
▁browser	-12402
▁boundary	-12403
▁Southwest	-12404
▁absolutely	-12405
cr	-12406
▁rings	-12407
▁advisable	-12408
▁weaknesses	-12409
axis	-12410
enza	-12411
▁enemy	-12412
▁breathe	-12413
▁highway	-12414
▁privile	-12415
▁receipt	-12416
ographies	-12417
▁Specifically	-12418
▁Hughes	-12419
▁defeat	-12420
▁gasoline	-12421
▁vaccines	-12422
▁unfamiliar	-12423
▁negotiating	-12424
风险	-12425
▁Blood	-12426
▁algebra	-12427
▁bananas	-12428
▁holdings	-12429
nut	-12430
▁Wow	-12431
▁pup	-12432
▁tong	-12433
culiar	-12434
mented	-12435
▁Kraft	-12436
▁inhib	-12437
▁accord	-12438
▁refrig	-12439
ighed	-12440
▁Lady	-12441
▁pursuit	-12442
Add	-12443
▁Got	-12444
▁hip	-12445
press	-12446
▁affairs	-12447
▁champion	-12448
ohy	-12449
mental	-12450
▁pocket	-12451
▁prayer	-12452
SC	-12453
Our	-12454
▁Instru	-12455
▁parking	-12456
▁climbing	-12457
▁Lu	-12458
ibli	-12459
oids	-12460
wavering	-12461
▁Governor	-12462
▁downturn	-12463
▁projected	-12464
asm	-12465
▁Na	-12466
▁Las	-12467
▁mart	-12468
▁pitch	-12469
▁brothers	-12470
▁स	-12471
ilty	-12472
eller	-12473
▁Greg	-12474
▁forum	-12475
ritious	-12476
▁Square	-12477
▁hiding	-12478
▁suicide	-12479
▁civilization	-12480
unks	-12481
▁oct	-12482
▁cloth	-12483
▁mirror	-12484
▁Curious	-12485
▁passwords	-12486
▁persistent	-12487
▁devastating	-12488
▁semiconduct	-12489
▁comprehension	-12490
ée	-12491
Cal	-12492
avy	-12493
case	-12494
▁Oak	-12495
▁blo	-12496
akota	-12497
annel	-12498
erred	-12499
▁owes	-12500
▁resort	-12501
▁legitimate	-12502
▁highlighted	-12503
Se	-12504
▁examined	-12505
▁balancing	-12506
▁rays	-12507
▁Holly	-12508
▁parse	-12509
▁Factors	-12510
▁Journey	-12511
▁dangers	-12512
▁orientation	-12513
oups	-12514
rapeutic	-12515
▁coaches	-12516
▁museums	-12517
▁scholar	-12518
▁contents	-12519
▁unwavering	-12520
▁emergencies	-12521
occ	-12522
anny	-12523
▁guest	-12524
amilton	-12525
▁Bitcoin	-12526
▁hormone	-12527
▁attributes	-12528
▁Contemporary	-12529
icts	-12530
▁debris	-12531
▁equitable	-12532
▁calculator	-12533
rub	-12534
agar	-12535
atal	-12536
aund	-12537
▁Fall	-12538
▁Mobil	-12539
▁shots	-12540
ruptions	-12541
▁flooding	-12542
▁consuming	-12543
▁Hay	-12544
▁smok	-12545
▁ties	-12546
semble	-12547
▁royal	-12548
▁Procter	-12549
▁instantly	-12550
▁residence	-12551
oen	-12552
▁Vers	-12553
▁sear	-12554
balance	-12555
▁promises	-12556
▁Executive	-12557
▁vegetation	-12558
iley	-12559
▁hosting	-12560
▁rituals	-12561
▁threads	-12562
▁grateful	-12563
▁smartphone	-12564
▁Shakespeare	-12565
Col	-12566
mad	-12567
exist	-12568
▁cough	-12569
zheimer	-12570
▁commands	-12571
▁=>	-12572
▁thy	-12573
eterm	-12574
screen	-12575
▁Peace	-12576
▁poets	-12577
oriented	-12578
▁Bristol	-12579
▁groceries	-12580
▁incidents	-12581
len	-12582
mans	-12583
rise	-12584
ships	-12585
▁Years	-12586
▁guiding	-12587
▁admitted	-12588
▁sciences	-12589
▁fascinated	-12590
estock	-12591
▁fails	-12592
▁tennis	-12593
▁insulin	-12594
ante	-12595
▁asthma	-12596
▁unforgettable	-12597
iour	-12598
usal	-12599
▁Mes	-12600
▁pref	-12601
entially	-12602
▁Summary	-12603
▁angry	-12604
▁behalf	-12605
▁Portugal	-12606
▁licensed	-12607
ref	-12608
vas	-12609
beta	-12610
array	-12611
▁spray	-12612
▁assessments	-12613
MD	-12614
▁Pit	-12615
▁Nick	-12616
▁Utah	-12617
▁precip	-12618
▁rescue	-12619
▁neighborhoods	-12620
▁Anton	-12621
▁deepen	-12622
▁lengths	-12623
▁backyard	-12624
▁releasing	-12625
▁FA	-12626
▁TR	-12627
▁__	-12628
▁Large	-12629
▁tired	-12630
▁Driving	-12631
▁Statistics	-12632
arer	-12633
minute	-12634
▁reign	-12635
▁Officer	-12636
▁hormones	-12637
▁interpretations	-12638
gae	-12639
giene	-12640
▁Near	-12641
▁oils	-12642
levant	-12643
▁Categ	-12644
▁sixth	-12645
▁Ensure	-12646
▁acknowledge	-12647
Your	-12648
▁Bir	-12649
▁Heat	-12650
▁wake	-12651
▁Appro	-12652
▁Macro	-12653
▁Miller	-12654
▁reserv	-12655
▁defining	-12656
Pay	-12657
▁Pas	-12658
ports	-12659
▁Gram	-12660
▁behave	-12661
▁mothers	-12662
▁needing	-12663
▁reforms	-12664
▁astronom	-12665
▁gambling	-12666
▁peculiar	-12667
▁depreciation	-12668
communications	-12669
▁Championships	-12670
char	-12671
▁cum	-12672
▁irrig	-12673
▁rocket	-12674
▁designer	-12675
▁protagonist	-12676
HP	-12677
ibb	-12678
▁lon	-12679
▁biom	-12680
▁Consolid	-12681
▁datasets	-12682
▁consecutive	-12683
{(	-12684
John	-12685
uese	-12686
track	-12687
▁Billy	-12688
▁Standards	-12689
cat	-12690
▁CR	-12691
asted	-12692
▁Matthew	-12693
▁chopped	-12694
▁homeless	-12695
▁prevents	-12696
▁hi	-12697
esis	-12698
Share	-12699
▁Bird	-12700
▁buck	-12701
▁Element	-12702
▁preference	-12703
▁negotiations	-12704
KE	-12705
▁LED	-12706
▁pel	-12707
emade	-12708
index	-12709
ohydr	-12710
▁Lock	-12711
hetical	-12712
▁Jordan	-12713
▁refere	-12714
▁rounded	-12715
▁confront	-12716
forestation	-12717
rus	-12718
▁Sem	-12719
ateur	-12720
▁Term	-12721
illips	-12722
▁franch	-12723
▁McDonald	-12724
ipv	-12725
orig	-12726
▁Gene	-12727
▁exit	-12728
father	-12729
▁Trump	-12730
▁shine	-12731
▁Airport	-12732
▁eagerly	-12733
▁flowing	-12734
▁HR	-12735
grow	-12736
▁beta	-12737
▁divor	-12738
▁empire	-12739
▁arrival	-12740
▁filings	-12741
▁pic	-12742
raced	-12743
▁Dark	-12744
▁seas	-12745
▁Gallery	-12746
▁relates	-12747
▁Ministry	-12748
▁spokesman	-12749
▁geographic	-12750
▁punishment	-12751
▁boats	-12752
▁saves	-12753
▁Holdings	-12754
▁settlers	-12755
▁dict	-12756
▁panc	-12757
▁bulbs	-12758
▁powered	-12759
▁Indonesia	-12760
▁Knowledge	-12761
▁Ten	-12762
initial	-12763
▁Potter	-12764
▁outdoors	-12765
▁relating	-12766
▁Alzheimer	-12767
▁separation	-12768
▁DC	-12769
third	-12770
▁gran	-12771
equity	-12772
▁Adapt	-12773
▁Athlet	-12774
▁slower	-12775
▁refused	-12776
▁creators	-12777
▁reputable	-12778
▁consciousness	-12779
minded	-12780
▁verte	-12781
▁Memorial	-12782
▁arrested	-12783
▁graduated	-12784
▁mythology	-12785
▁opposition	-12786
▁respecting	-12787
▁transforming	-12788
▁jar	-12789
▁rod	-12790
▁rum	-12791
▁dual	-12792
▁receiv	-12793
language	-12794
▁Regularly	-12795
▁disappear	-12796
▁presenting	-12797
▁correlation	-12798
▁""	-12799
▁Urban	-12800
▁sends	-12801
▁Charlie	-12802
▁balloon	-12803
▁mapping	-12804
star	-12805
▁Moh	-12806
▁Burn	-12807
irable	-12808
▁Encoura	-12809
▁schemes	-12810
▁nutritious	-12811
fact	-12812
▁Ren	-12813
▁tumor	-12814
▁sticks	-12815
▁individ	-12816
▁frustration	-12817
Tax	-12818
ahoo	-12819
▁sovere	-12820
▁static	-12821
▁Keeping	-12822
▁sellers	-12823
▁tourist	-12824
▁Currently	-12825
MB	-12826
enter	-12827
▁hats	-12828
▁atomic	-12829
ationally	-12830
▁Architect	-12831
▁compromise	-12832
▁multiplying	-12833
erick	-12834
▁worn	-12835
▁Season	-12836
▁airline	-12837
▁neurons	-12838
held	-12839
orns	-12840
▁hasn	-12841
▁Success	-12842
▁romance	-12843
▁Melbourne	-12844
▁practiced	-12845
▁representations	-12846
NG	-12847
ova	-12848
brew	-12849
inea	-12850
source	-12851
healthy	-12852
▁ceremony	-12853
▁metaphor	-12854
▁rewarding	-12855
▁yesterday	-12856
}(	-12857
olen	-12858
▁Magn	-12859
▁soup	-12860
▁Democr	-12861
▁constra	-12862
roductive	-12863
▁Regional	-12864
▁enormous	-12865
▁corruption	-12866
▁visibility	-12867
▁restoration	-12868
plus	-12869
anner	-12870
▁diagnose	-12871
▁Treatment	-12872
▁Challenges	-12873
▁Lisa	-12874
alysis	-12875
insula	-12876
▁Final	-12877
▁amort	-12878
▁prose	-12879
▁suscept	-12880
UC	-12881
aunt	-12882
▁lip	-12883
▁Balt	-12884
▁fleet	-12885
▁Hawaii	-12886
▁Notable	-12887
▁absence	-12888
▁reprodu	-12889
▁mortality	-12890
▁appearances	-12891
▁subsequently	-12892
▁cous	-12893
▁irrit	-12894
▁biases	-12895
▁leases	-12896
dess	-12897
dated	-12898
econom	-12899
▁infin	-12900
▁nobody	-12901
▁critics	-12902
▁bullying	-12903
▁gast	-12904
▁Israeli	-12905
▁synthetic	-12906
▁Emerg	-12907
▁Repeat	-12908
▁salmon	-12909
▁removal	-12910
▁premiums	-12911
▁exhibition	-12912
▁Consequently	-12913
stop	-12914
irrel	-12915
▁dirt	-12916
▁loving	-12917
▁Clinton	-12918
▁Subject	-12919
▁carrots	-12920
▁viewing	-12921
▁drawings	-12922
▁cultivate	-12923
▁linguistic	-12924
enez	-12925
este	-12926
mate	-12927
▁Salt	-12928
▁worship	-12929
▁Hamilton	-12930
ws	-12931
lem	-12932
rors	-12933
total	-12934
▁lying	-12935
▁bubble	-12936
▁thinks	-12937
▁tricks	-12938
▁magazines	-12939
▁happier	-12940
▁confusing	-12941
▁म	-12942
core	-12943
▁Bot	-12944
immanci	-12945
▁Intrig	-12946
▁climbs	-12947
▁contem	-12948
▁terrible	-12949
▁quadratic	-12950
VS	-12951
▁Ark	-12952
about	-12953
▁conce	-12954
▁stadium	-12955
iop	-12956
ernel	-12957
anding	-12958
▁Patrick	-12959
▁visualize	-12960
▁leveraging	-12961
:-	-12962
icut	-12963
▁Say	-12964
\\%$.	-12965
▁woods	-12966
▁rabbits	-12967
▁declines	-12968
▁Pa	-12969
lesh	-12970
wegian	-12971
▁Simple	-12972
▁fundament	-12973
▁Christopher	-12974
▁equivalents	-12975
cha	-12976
▁Cru	-12977
▁tab	-12978
otion	-12979
▁Clark	-12980
▁Grade	-12981
▁cancers	-12982
ols	-12983
sea	-12984
tech	-12985
inery	-12986
▁ware	-12987
▁Century	-12988
▁neglect	-12989
▁shadows	-12990
▁proceeds	-12991
Me	-12992
SK	-12993
▁asc	-12994
intage	-12995
▁incurred	-12996
▁mahimmanci	-12997
▁Beat	-12998
▁shade	-12999
▁winners	-13000
▁overhead	-13001
▁Kir	-13002
▁plt	-13003
▁Fargo	-13004
▁auction	-13005
▁melting	-13006
▁Creative	-13007
▁Biography	-13008
▁aspirations	-13009
di	-13010
▁Nev	-13011
▁fate	-13012
▁educate	-13013
▁therapies	-13014
uy	-13015
▁Lay	-13016
▁Houston	-13017
▁spr	-13018
ribute	-13019
▁locate	-13020
▁fatigue	-13021
▁manages	-13022
▁churches	-13023
▁geometric	-13024
▁appreciated	-13025
nia	-13026
mith	-13027
essed	-13028
▁Duke	-13029
▁Ross	-13030
▁ruling	-13031
▁Egyptian	-13032
▁translated	-13033
agg	-13034
▁om	-13035
path	-13036
input	-13037
lation	-13038
▁paras	-13039
▁bearing	-13040
▁aspiring	-13041
▁crossing	-13042
▁understandable	-13043
▁Scen	-13044
paying	-13045
▁hence	-13046
▁Harmony	-13047
▁Production	-13048
obi	-13049
weet	-13050
▁Barn	-13051
▁bark	-13052
▁closes	-13053
▁rooted	-13054
▁wheels	-13055
employed	-13056
ropriate	-13057
▁Franklin	-13058
▁exchanged	-13059
▁requested	-13060
FE	-13061
▁cosm	-13062
▁dilem	-13063
▁anyway	-13064
▁cancell	-13065
▁Effective	-13066
▁presidential	-13067
uns	-13068
▁Tony	-13069
▁emit	-13070
osaurs	-13071
rehens	-13072
▁audit	-13073
▁await	-13074
▁Michel	-13075
▁united	-13076
▁erosion	-13077
▁Schedule	-13078
▁frameworks	-13079
▁CH	-13080
▁mim	-13081
▁Navig	-13082
▁execute	-13083
anchester	-13084
▁abundant	-13085
▁horizons	-13086
▁reviewed	-13087
▁predators	-13088
▁atmospheric	-13089
▁inheritance	-13090
▁participated	-13091
DE	-13092
DR	-13093
wal	-13094
rust	-13095
▁bol	-13096
reated	-13097
▁apologize	-13098
▁Experiment	-13099
▁multiplied	-13100
law	-13101
cence	-13102
leans	-13103
▁Album	-13104
partial	-13105
▁stayed	-13106
▁improves	-13107
Te	-13108
▁Rab	-13109
▁Pain	-13110
▁lawn	-13111
▁allev	-13112
▁onion	-13113
▁Rachel	-13114
▁individually	-13115
▁visualization	-13116
rieve	-13117
imeter	-13118
▁revel	-13119
▁enduring	-13120
▁horizontal	-13121
▁prosperity	-13122
var	-13123
▁Gh	-13124
larg	-13125
▁Vit	-13126
▁ash	-13127
▁prox	-13128
▁Consumer	-13129
▁Guidelines	-13130
GA	-13131
rade	-13132
adays	-13133
▁bake	-13134
▁wasan	-13135
▁Applying	-13136
▁virtually	-13137
▁Portuguese	-13138
▁Dor	-13139
▁Tech	-13140
▁jack	-13141
▁phil	-13142
▁plots	-13143
▁cancel	-13144
▁specify	-13145
▁unwanted	-13146
▁unpredict	-13147
▁behavioral	-13148
idal	-13149
pool	-13150
▁IPO	-13151
arium	-13152
▁Cape	-13153
Please	-13154
▁timeless	-13155
Pl	-13156
▁orb	-13157
▁cinem	-13158
▁Better	-13159
▁compens	-13160
▁invented	-13161
▁firsthand	-13162
▁switching	-13163
▁pollutants	-13164
hu	-13165
alo	-13166
ois	-13167
kind	-13168
pton	-13169
▁piv	-13170
▁Much	-13171
▁nomin	-13172
▁ignore	-13173
▁characteristic	-13174
agu	-13175
▁cube	-13176
▁parad	-13177
▁Nation	-13178
▁anxious	-13179
izational	-13180
▁Function	-13181
▁embedded	-13182
▁routines	-13183
▁schedules	-13184
At	-13185
▁Bron	-13186
▁Iron	-13187
▁neat	-13188
▁colour	-13189
▁Kennedy	-13190
▁regarded	-13191
▁writings	-13192
▁illustrations	-13193
▁collaborations	-13194
andy	-13195
only	-13196
▁Friend	-13197
▁Quebec	-13198
function	-13199
▁shoulder	-13200
▁tourists	-13201
▁velocity	-13202
▁Six	-13203
▁Maint	-13204
forming	-13205
inction	-13206
regation	-13207
elson	-13208
▁conqu	-13209
Austral	-13210
▁Centers	-13211
▁Feeling	-13212
▁Turkish	-13213
▁Dividing	-13214
▁homemade	-13215
▁festivals	-13216
Man	-13217
With	-13218
▁Jay	-13219
▁aligns	-13220
▁publishing	-13221
▁CT	-13222
▁Cro	-13223
arians	-13224
▁Doctor	-13225
▁impress	-13226
▁proactive	-13227
▁processor	-13228
▁optimizing	-13229
▁viewpoints	-13230
▁registration	-13231
▁Il	-13232
azed	-13233
▁Amur	-13234
▁Jerry	-13235
▁appet	-13236
PR	-13237
num	-13238
onymous	-13239
▁allowance	-13240
fu	-13241
enh	-13242
▁Sad	-13243
▁vegan	-13244
▁musician	-13245
▁dece	-13246
▁Topic	-13247
▁Simply	-13248
ynthesis	-13249
▁deliber	-13250
▁Inflation	-13251
▁predicting	-13252
▁entrepreneur	-13253
inst	-13254
▁trem	-13255
▁Domin	-13256
▁Freed	-13257
▁sheep	-13258
▁onions	-13259
▁pushed	-13260
▁determines	-13261
bb	-13262
One	-13263
gic	-13264
heat	-13265
auses	-13266
▁guilty	-13267
▁Mission	-13268
▁crystals	-13269
▁Sa	-13270
Part	-13271
▁hol	-13272
jamin	-13273
▁Plat	-13274
vision	-13275
▁jumping	-13276
▁teenagers	-13277
▁encryption	-13278
▁hypothetical	-13279
yes	-13280
▁bay	-13281
▁mask	-13282
amount	-13283
▁Indians	-13284
▁hazards	-13285
▁AC	-13286
hard	-13287
▁Occ	-13288
price	-13289
▁vegg	-13290
▁alleg	-13291
▁begun	-13292
▁payable	-13293
▁Exercise	-13294
▁accessed	-13295
▁manageable	-13296
onder	-13297
▁likes	-13298
quarter	-13299
▁Castle	-13300
▁rotation	-13301
▁obtaining	-13302
▁relatable	-13303
▁coordination	-13304
▁il	-13305
▁makers	-13306
▁Private	-13307
▁briefly	-13308
▁attracted	-13309
▁intuitive	-13310
▁accomplished	-13311
▁WW	-13312
▁Pear	-13313
▁leak	-13314
▁pale	-13315
▁pret	-13316
▁solo	-13317
▁thumb	-13318
▁radical	-13319
▁Brazilian	-13320
aman	-13321
▁Gab	-13322
▁Pap	-13323
▁Sab	-13324
andra	-13325
iches	-13326
ritis	-13327
▁seaf	-13328
igation	-13329
▁Notice	-13330
▁fallen	-13331
▁tastes	-13332
▁damages	-13333
▁refriger	-13334
▁tangible	-13335
▁municipal	-13336
▁satisfies	-13337
HL	-13338
▁decay	-13339
▁Region	-13340
▁throat	-13341
velength	-13342
ez	-13343
▁DE	-13344
length	-13345
▁renov	-13346
▁Secondly	-13347
▁triggers	-13348
Net	-13349
arad	-13350
elle	-13351
ibles	-13352
ifice	-13353
lined	-13354
▁Sources	-13355
▁momentum	-13356
▁acceptable	-13357
Gr	-13358
▁pi	-13359
▁lar	-13360
inator	-13361
▁payout	-13362
▁Virtual	-13363
▁Processing	-13364
▁accommodate	-13365
▁confidently	-13366
▁Aqu	-13367
▁Dat	-13368
▁Alph	-13369
▁anch	-13370
▁yard	-13371
▁Inside	-13372
▁propag	-13373
▁develops	-13374
▁companions	-13375
▁é	-13376
▁DO	-13377
arth	-13378
▁hub	-13379
depth	-13380
▁Decl	-13381
▁amsar	-13382
▁baked	-13383
▁philosophical	-13384
UL	-13385
uj	-13386
▁pipe	-13387
▁snack	-13388
▁interf	-13389
▁shadow	-13390
▁signature	-13391
▁marginalized	-13392
▁noteb	-13393
process	-13394
▁Around	-13395
▁enters	-13396
▁indoor	-13397
▁refine	-13398
▁rubber	-13399
▁Weather	-13400
▁Classify	-13401
▁portions	-13402
▁Norwegian	-13403
▁breakthrough	-13404
▁Wolf	-13405
▁rebu	-13406
parents	-13407
▁payroll	-13408
▁terrain	-13409
▁utilized	-13410
▁developer	-13411
▁Governments	-13412
▁attractions	-13413
▁distinguish	-13414
Type	-13415
arity	-13416
shire	-13417
there	-13418
▁Dead	-13419
▁glue	-13420
▁denied	-13421
▁lively	-13422
▁microsc	-13423
▁equities	-13424
▁jer	-13425
▁ambit	-13426
▁casual	-13427
▁deficit	-13428
ertainment	-13429
PI	-13430
▁pp	-13431
agle	-13432
▁Vik	-13433
▁Prin	-13434
▁Site	-13435
giving	-13436
▁slips	-13437
▁Dakota	-13438
▁checked	-13439
▁passenger	-13440
▁Bah	-13441
▁Row	-13442
izard	-13443
learn	-13444
▁neut	-13445
▁pean	-13446
▁Census	-13447
▁traditionally	-13448
▁GPS	-13449
▁cans	-13450
▁deer	-13451
retion	-13452
writer	-13453
▁squee	-13454
olesale	-13455
iversary	-13456
▁preserved	-13457
▁documentary	-13458
ardo	-13459
party	-13460
▁Until	-13461
▁backing	-13462
▁colleges	-13463
▁rigorous	-13464
pec	-13465
hell	-13466
}{\\	-13467
▁cord	-13468
▁posed	-13469
▁Mental	-13470
▁resonate	-13471
▁Connecticut	-13472
"),	-13473
vable	-13474
▁Bring	-13475
▁Staff	-13476
▁lowering	-13477
▁parliament	-13478
Go	-13479
zo	-13480
non	-13481
▁Alf	-13482
▁Band	-13483
▁Fried	-13484
▁invis	-13485
▁nights	-13486
▁Sharing	-13487
▁enemies	-13488
▁specialist	-13489
▁Publication	-13490
▁Sri	-13491
Trans	-13492
▁axis	-13493
▁cows	-13494
arithm	-13495
▁Nobel	-13496
▁meter	-13497
▁recycled	-13498
MR	-13499
▁ا	-13500
▁Pier	-13501
flower	-13502
kshire	-13503
▁Carlos	-13504
▁interval	-13505
▁Developing	-13506
▁exercising	-13507
▁accessories	-13508
▁NC	-13509
▁dining	-13510
▁inherited	-13511
▁altogether	-13512
▁simulation	-13513
PD	-13514
fi	-13515
影响	-13516
▁Rene	-13517
▁dess	-13518
▁mold	-13519
▁stems	-13520
▁unlock	-13521
▁signing	-13522
IST	-13523
bound	-13524
▁Susan	-13525
▁Average	-13526
▁silence	-13527
▁cylinder	-13528
▁communicating	-13529
▁Hyd	-13530
▁cable	-13531
▁Strong	-13532
▁alphabet	-13533
▁Manchester	-13534
neg	-13535
▁Ni	-13536
▁Mom	-13537
▁Poll	-13538
▁Hispan	-13539
▁hosted	-13540
▁muffin	-13541
▁lighter	-13542
▁collateral	-13543
▁therapeutic	-13544
▁environmentally	-13545
ti	-13546
thal	-13547
▁Gil	-13548
▁Nike	-13549
▁Pick	-13550
▁till	-13551
▁Quality	-13552
▁Theatre	-13553
▁integrate	-13554
Life	-13555
▁ink	-13556
▁bree	-13557
▁diets	-13558
▁desires	-13559
▁markers	-13560
▁Buddhism	-13561
▁Clinical	-13562
▁fulfilling	-13563
▁quantitative	-13564
”,	-13565
aph	-13566
Serv	-13567
▁Eli	-13568
chestra	-13569
▁failures	-13570
▁Performance	-13571
MC	-13572
othy	-13573
▁scan	-13574
▁Songs	-13575
▁escal	-13576
▁stamp	-13577
▁Samuel	-13578
▁meticul	-13579
▁Nutrition	-13580
▁companion	-13581
▁competitions	-13582
dx	-13583
▁Carn	-13584
▁herb	-13585
▁hill	-13586
▁adaptability	-13587
▁obsc	-13588
▁silent	-13589
▁spectac	-13590
heres	-13591
rolog	-13592
▁Chev	-13593
▁Basic	-13594
▁Marsh	-13595
▁mosqu	-13596
▁Planning	-13597
▁Technical	-13598
▁strengthens	-13599
▁headquarters	-13600
don	-13601
beat	-13602
infl	-13603
▁pap	-13604
abbat	-13605
▁cure	-13606
uminum	-13607
▁Adams	-13608
▁Hebrew	-13609
▁Luther	-13610
▁exotic	-13611
▁prejud	-13612
▁traged	-13613
▁anthrop	-13614
▁Evaluate	-13615
▁ov	-13616
▁Cass	-13617
▁Magic	-13618
angible	-13619
▁Captain	-13620
▁heading	-13621
▁operator	-13622
▁Assessment	-13623
▁coordinates	-13624
Py	-13625
chi	-13626
▁pix	-13627
isted	-13628
▁tribe	-13629
▁Yellow	-13630
▁clarify	-13631
▁formats	-13632
▁livestock	-13633
▁jurisdiction	-13634
▁NO	-13635
onal	-13636
▁huh	-13637
▁yummy	-13638
▁startup	-13639
▁spreadshe	-13640
▁diver	-13641
▁belongs	-13642
▁shifting	-13643
▁brainstorm	-13644
▁Discovering	-13645
▁strengthening	-13646
nie	-13647
▁Roc	-13648
▁Yum	-13649
agger	-13650
▁atom	-13651
▁plug	-13652
▁termin	-13653
▁tomato	-13654
========	-13655
▁scattered	-13656
▁beautifully	-13657
▁temporarily	-13658
GB	-13659
▁Amurka	-13660
▁priced	-13661
▁quotes	-13662
▁recipient	-13663
names	-13664
▁Snow	-13665
▁rust	-13666
▁Apply	-13667
▁lymph	-13668
▁reads	-13669
▁aquatic	-13670
▁molecule	-13671
▁simplicity	-13672
▁nutritional	-13673
▁concentrations	-13674
्र	-13675
nals	-13676
▁DVD	-13677
▁node	-13678
▁Adjust	-13679
▁burned	-13680
▁magnet	-13681
▁rainfall	-13682
▁installation	-13683
psy	-13684
▁FC	-13685
engu	-13686
▁Luke	-13687
▁Novel	-13688
▁chromos	-13689
▁screens	-13690
▁Benjamin	-13691
▁resilient	-13692
▁democratic	-13693
可以	-13694
boy	-13695
▁FDA	-13696
▁Hans	-13697
▁Lines	-13698
▁Paper	-13699
▁energ	-13700
▁enhances	-13701
▁promoted	-13702
▁stepping	-13703
▁Evolution	-13704
▁ambitious	-13705
▁bacterial	-13706
▁subsidiary	-13707
white	-13708
terior	-13709
▁dimin	-13710
▁Warren	-13711
▁dealer	-13712
▁needle	-13713
▁hitting	-13714
▁spatial	-13715
▁absorbed	-13716
▁Educational	-13717
▁shr	-13718
ancies	-13719
hetics	-13720
▁salad	-13721
▁unpre	-13722
▁consisted	-13723
▁disciplines	-13724
▁disparities	-13725
Su	-13726
WS	-13727
iami	-13728
worm	-13729
erver	-13730
▁Nord	-13731
▁Moore	-13732
▁shirts	-13733
▁Finding	-13734
▁adopting	-13735
▁elementary	-13736
▁executives	-13737
)=	-13738
sl	-13739
anthrop	-13740
▁essays	-13741
▁Correct	-13742
▁lawyers	-13743
▁shortly	-13744
▁survived	-13745
▁forgotten	-13746
▁nurturing	-13747
▁satellites	-13748
és	-13749
▁las	-13750
▁Webs	-13751
theless	-13752
▁lesser	-13753
▁pencil	-13754
▁intimid	-13755
▁appointment	-13756
▁accomplishments	-13757
▁UC	-13758
atter	-13759
rokes	-13760
Script	-13761
▁Brother	-13762
▁Healthy	-13763
▁experimenting	-13764
PP	-13765
good	-13766
▁Prog	-13767
arring	-13768
▁prest	-13769
regular	-13770
▁planes	-13771
▁Species	-13772
▁geometry	-13773
▁finishing	-13774
Ne	-13775
hedral	-13776
namics	-13777
▁eaten	-13778
▁hygiene	-13779
▁accounted	-13780
▁Depression	-13781
eda	-13782
alia	-13783
angel	-13784
▁Astron	-13785
▁attempted	-13786
▁submitted	-13787
▁policymakers	-13788
▁spell	-13789
▁Apache	-13790
▁Celebr	-13791
▁Philos	-13792
▁nonprofit	-13793
▁dys	-13794
color	-13795
▁carn	-13796
▁Biology	-13797
▁paycheck	-13798
▁demanding	-13799
▁assignment	-13800
▁Kind	-13801
umatic	-13802
▁Linux	-13803
▁freel	-13804
▁costly	-13805
▁headed	-13806
▁sodium	-13807
▁blending	-13808
▁literally	-13809
▁EV	-13810
coin	-13811
width	-13812
▁fake	-13813
▁vest	-13814
▁Tower	-13815
▁conve	-13816
▁Looking	-13817
▁hanging	-13818
▁voltage	-13819
▁supplier	-13820
▁Establish	-13821
▁impairment	-13822
▁Ger	-13823
▁Simon	-13824
▁merger	-13825
▁viable	-13826
▁Municip	-13827
▁governor	-13828
▁outbreak	-13829
uum	-13830
▁ON	-13831
▁jun	-13832
▁Alan	-13833
ailand	-13834
houses	-13835
▁sphere	-13836
▁seamlessly	-13837
▁distributions	-13838
▁pars	-13839
▁euros	-13840
▁infant	-13841
▁Atlanta	-13842
▁Physics	-13843
▁Geography	-13844
▁Intrigued	-13845
▁evaluated	-13846
▁resistant	-13847
▁apparently	-13848
▁obligation	-13849
XX	-13850
▁Wy	-13851
Cost	-13852
While	-13853
▁Matt	-13854
▁painful	-13855
▁thermal	-13856
▁Beh	-13857
▁Hart	-13858
▁font	-13859
▁Carbon	-13860
▁Pretty	-13861
▁Manager	-13862
▁spelling	-13863
▁Typically	-13864
UV	-13865
may	-13866
oria	-13867
izable	-13868
uscript	-13869
▁Howard	-13870
▁twists	-13871
iscovery	-13872
▁Quarter	-13873
▁barrier	-13874
▁strictly	-13875
▁progressive	-13876
▁threatening	-13877
.$	-13878
chron	-13879
▁Trend	-13880
▁employs	-13881
▁occupied	-13882
▁Jefferson	-13883
▁grandmother	-13884
▁reproductive	-13885
lett	-13886
restr	-13887
▁Save	-13888
▁camps	-13889
▁warmer	-13890
icultural	-13891
▁expiration	-13892
▁Instruments	-13893
▁surveillance	-13894
▁Tip	-13895
▁guy	-13896
▁minim	-13897
▁metres	-13898
▁slaves	-13899
▁robotic	-13900
▁elaborate	-13901
▁tirelessly	-13902
auc	-13903
raham	-13904
stick	-13905
▁cycl	-13906
▁drew	-13907
▁hired	-13908
▁pasta	-13909
▁racism	-13910
▁animation	-13911
▁enterprise	-13912
po	-13913
▁fet	-13914
▁Juan	-13915
▁blow	-13916
▁Defense	-13917
OG	-13918
mus	-13919
ATION	-13920
▁Front	-13921
▁rehab	-13922
▁trash	-13923
irement	-13924
▁Nevada	-13925
eram	-13926
angles	-13927
▁glance	-13928
▁distort	-13929
matic	-13930
▁slip	-13931
▁wrap	-13932
▁gauge	-13933
selling	-13934
▁builds	-13935
▁sensor	-13936
▁proudly	-13937
▁trapped	-13938
struction	-13939
▁behaviour	-13940
▁kilograms	-13941
▁assignments	-13942
▁confidential	-13943
atar	-13944
antha	-13945
▁File	-13946
▁hadn	-13947
▁Kevin	-13948
▁invite	-13949
▁shallow	-13950
▁minority	-13951
▁counseling	-13952
UE	-13953
▁प	-13954
▁",	-13955
lore	-13956
ravel	-13957
utter	-13958
▁Pack	-13959
▁toll	-13960
▁trim	-13961
▁boards	-13962
▁Excited	-13963
▁filters	-13964
▁frustrated	-13965
▁rainforest	-13966
▁mg	-13967
ders	-13968
unes	-13969
Value	-13970
▁pile	-13971
prints	-13972
▁tempt	-13973
▁tablets	-13974
▁recommends	-13975
▁instability	-13976
ioxid	-13977
▁disk	-13978
▁maker	-13979
▁pests	-13980
▁slice	-13981
▁unint	-13982
▁Content	-13983
▁sensory	-13984
▁warfare	-13985
▁DI	-13986
▁iP	-13987
uclear	-13988
▁swing	-13989
▁toile	-13990
▁speaks	-13991
▁sadness	-13992
▁Southeast	-13993
▁Rece	-13994
ulates	-13995
▁Grant	-13996
▁explos	-13997
▁Township	-13998
▁machinery	-13999
▁sustained	-14000
▁bases	-14001
▁hoped	-14002
▁hiking	-14003
▁recess	-14004
▁chairman	-14005
▁Connection	-14006
▁accountant	-14007
▁Rober	-14008
▁tricky	-14009
▁Activities	-14010
▁supplements	-14011
▁transmitted	-14012
base	-14013
feed	-14014
▁trucks	-14015
▁cluster	-14016
▁Teachers	-14017
▁electrom	-14018
▁investigating	-14019
pop	-14020
cker	-14021
help	-14022
sole	-14023
▁milit	-14024
▁Transfer	-14025
▁terminal	-14026
▁Od	-14027
▁Side	-14028
▁Venez	-14029
▁propri	-14030
iplinary	-14031
▁resides	-14032
▁Symptoms	-14033
▁logarithm	-14034
May	-14035
aro	-14036
pring	-14037
▁Exam	-14038
▁nurse	-14039
▁nurses	-14040
▁autonomy	-14041
▁pointing	-14042
▁consensus	-14043
pret	-14044
iolet	-14045
▁Verm	-14046
lie	-14047
ped	-14048
thod	-14049
elong	-14050
▁Safe	-14051
▁Basket	-14052
▁stolen	-14053
▁trails	-14054
▁Include	-14055
▁optical	-14056
▁disposal	-14057
▁indicator	-14058
▁Nig	-14059
▁Grad	-14060
wealth	-14061
▁downs	-14062
▁suited	-14063
▁biblical	-14064
▁incentive	-14065
▁intervals	-14066
▁recommendation	-14067
Let	-14068
▁IM	-14069
▁OR	-14070
gage	-14071
▁Dog	-14072
▁Jess	-14073
▁chairs	-14074
▁fibers	-14075
▁lovely	-14076
.).	-14077
▁Jup	-14078
▁melt	-14079
▁whis	-14080
▁gadgets	-14081
▁platinum	-14082
YZ	-14083
ui	-14084
Des	-14085
lad	-14086
Euro	-14087
uder	-14088
▁Gas	-14089
title	-14090
▁wand	-14091
▁colony	-14092
▁Consult	-14093
▁Importance	-14094
▁expedition	-14095
▁practitioners	-14096
▁probabilities	-14097
iga	-14098
itu	-14099
▁PDF	-14100
▁Serve	-14101
▁Weight	-14102
▁damaging	-14103
▁invasive	-14104
▁workshop	-14105
▁alternate	-14106
▁divisible	-14107
▁wavelength	-14108
asma	-14109
▁Palest	-14110
▁assemb	-14111
▁shells	-14112
▁challenged	-14113
▁Independence	-14114
enti	-14115
▁Ali	-14116
▁VII	-14117
▁span	-14118
▁Photo	-14119
▁whisp	-14120
written	-14121
▁corners	-14122
▁peppers	-14123
▁prolong	-14124
▁invasion	-14125
▁documented	-14126
▁playground	-14127
▁withdrawals	-14128
▁cheer	-14129
▁pastries	-14130
▁carbohydr	-14131
.;	-14132
Rate	-14133
▁Kal	-14134
▁Rah	-14135
▁Magaz	-14136
▁Plate	-14137
▁galaxy	-14138
▁metabol	-14139
▁stressed	-14140
▁advancement	-14141
Ms	-14142
days	-14143
hill	-14144
▁Beng	-14145
▁encl	-14146
▁horror	-14147
▁Increase	-14148
▁billions	-14149
▁Consolidated	-14150
BE	-14151
▁AL	-14152
▁Had	-14153
▁Lie	-14154
▁Mun	-14155
▁Cell	-14156
manship	-14157
▁Spirit	-14158
▁imposed	-14159
▁Currency	-14160
▁robotics	-14161
▁volcanic	-14162
▁cherished	-14163
▁invisible	-14164
▁Roy	-14165
▁cust	-14166
▁ranks	-14167
▁weapon	-14168
atherine	-14169
▁assault	-14170
▁incomes	-14171
▁Alphabet	-14172
▁Thailand	-14173
▁overseas	-14174
▁Statement	-14175
▁introduces	-14176
▁misunderstand	-14177
dam	-14178
▁Ga	-14179
▁UV	-14180
▁Hath	-14181
▁notion	-14182
▁founding	-14183
vitational	-14184
▁succeeded	-14185
PV	-14186
kar	-14187
▁ED	-14188
▁Ky	-14189
sign	-14190
ocaust	-14191
▁Budget	-14192
▁permit	-14193
▁roller	-14194
cedented	-14195
▁Anthony	-14196
▁Francis	-14197
▁expects	-14198
▁Solutions	-14199
▁divisions	-14200
▁translate	-14201
▁postgraduate	-14202
▁thoughtfully	-14203
ECT	-14204
ouch	-14205
▁Diet	-14206
asting	-14207
ulsion	-14208
ndering	-14209
▁curves	-14210
▁assumes	-14211
▁holders	-14212
dev	-14213
sil	-14214
▁PL	-14215
ricia	-14216
▁Cuba	-14217
achelor	-14218
▁cooler	-14219
ilitation	-14220
▁wellness	-14221
▁telephone	-14222
▁collectively	-14223
▁compassionate	-14224
Do	-14225
ando	-14226
▁spill	-14227
cultural	-14228
▁bicycle	-14229
▁aviation	-14230
▁Scientific	-14231
▁pesticides	-14232
▁configuration	-14233
heed	-14234
olas	-14235
▁Pil	-14236
itime	-14237
orned	-14238
▁flip	-14239
▁sons	-14240
▁catast	-14241
▁bubbles	-14242
▁throwing	-14243
▁superheroes	-14244
elia	-14245
▁hosts	-14246
▁Legisl	-14247
▁adhere	-14248
▁entries	-14249
▁Buddhist	-14250
dots	-14251
oler	-14252
stan	-14253
they	-14254
▁deck	-14255
restrial	-14256
▁altered	-14257
▁genetics	-14258
▁severity	-14259
企业	-14260
ige	-14261
alism	-14262
▁Rick	-14263
▁indu	-14264
antine	-14265
▁classrooms	-14266
oco	-14267
roit	-14268
▁Ele	-14269
opter	-14270
▁buzz	-14271
▁eats	-14272
▁coping	-14273
▁deductible	-14274
▁substantially	-14275
.:	-14276
np	-14277
▁Lib	-14278
ulous	-14279
▁Allen	-14280
▁delves	-14281
▁Abraham	-14282
▁beaches	-14283
▁reminders	-14284
▁provisions	-14285
▁commitments	-14286
egas	-14287
elsh	-14288
athon	-14289
▁imper	-14290
▁shiny	-14291
▁compact	-14292
▁calculus	-14293
▁witnessed	-14294
▁vulnerability	-14295
ía	-14296
dem	-14297
▁Prom	-14298
▁packs	-14299
▁Dollar	-14300
▁weaker	-14301
▁scoring	-14302
▁strikes	-14303
placement	-14304
▁Margaret	-14305
illet	-14306
apters	-14307
▁taxpay	-14308
▁suppose	-14309
▁Malaysia	-14310
▁advocacy	-14311
▁revolutionary	-14312
wer	-14313
bird	-14314
charg	-14315
shine	-14316
▁Saud	-14317
▁Miami	-14318
▁floods	-14319
▁Cooking	-14320
▁Opportun	-14321
▁morality	-14322
via	-14323
West	-14324
oths	-14325
ussion	-14326
▁valley	-14327
▁reliance	-14328
▁username	-14329
opolitical	-14330
▁discovers	-14331
▁immersive	-14332
▁interacting	-14333
aran	-14334
rose	-14335
urtles	-14336
pective	-14337
▁Former	-14338
▁empowers	-14339
ión	-14340
mons	-14341
ping	-14342
▁fox	-14343
▁tie	-14344
▁outs	-14345
▁shirt	-14346
version	-14347
▁fierce	-14348
▁medalists	-14349
▁therapist	-14350
fil	-14351
lav	-14352
emor	-14353
▁Vin	-14354
ospace	-14355
▁monument	-14356
▁Potential	-14357
▁Securities	-14358
▁extinction	-14359
▁gig	-14360
▁mph	-14361
▁draws	-14362
▁warri	-14363
▁Observ	-14364
▁Denmark	-14365
▁advised	-14366
▁greener	-14367
▁modifications	-14368
▁ह	-14369
tic	-14370
▁EC	-14371
▁Corp	-14372
▁Gord	-14373
▁Email	-14374
▁Yahoo	-14375
▁PayPal	-14376
▁fluids	-14377
▁judges	-14378
▁depicted	-14379
▁organism	-14380
▁Enh	-14381
▁Engaging	-14382
▁surgical	-14383
▁operators	-14384
▁Elementary	-14385
Eng	-14386
Not	-14387
ania	-14388
rely	-14389
seud	-14390
▁gut	-14391
▁edit	-14392
▁Tools	-14393
▁hunger	-14394
▁trader	-14395
araderie	-14396
positive	-14397
▁humidity	-14398
▁Encouraging	-14399
▁Hom	-14400
uters	-14401
▁dign	-14402
▁unch	-14403
imedia	-14404
▁Kings	-14405
▁dying	-14406
▁swall	-14407
▁Measure	-14408
▁Usually	-14409
▁descend	-14410
▁pleasure	-14411
▁Marketing	-14412
▁Queensland	-14413
)$,	-14414
▁Fle	-14415
gered	-14416
▁Ages	-14417
▁Jenn	-14418
▁Laur	-14419
ishers	-14420
▁jumps	-14421
▁irrigation	-14422
▁evolutionary	-14423
Fi	-14424
ethe	-14425
onna	-14426
▁Bear	-14427
▁Requ	-14428
▁chim	-14429
▁Compar	-14430
▁provision	-14431
▁predictive	-14432
▁projections	-14433
aza	-14434
gium	-14435
ikin	-14436
role	-14437
▁voy	-14438
▁uint	-14439
▁Falls	-14440
Request	-14441
▁phosph	-14442
▁shield	-14443
▁warmly	-14444
▁insider	-14445
▁donations	-14446
▁fractions	-14447
▁converting	-14448
RS	-14449
Wor	-14450
onut	-14451
▁upg	-14452
urous	-14453
▁Hence	-14454
▁screw	-14455
▁Cities	-14456
▁contrad	-14457
▁Identity	-14458
▁clusters	-14459
▁reminding	-14460
▁Statements	-14461
▁camaraderie	-14462
▁Applications	-14463
▁macroeconomic	-14464
▁semiconductor	-14465
▁Walter	-14466
▁smarter	-14467
▁Industry	-14468
▁formerly	-14469
▁touching	-14470
ologically	-14471
▁appearing	-14472
▁versatile	-14473
▁Operations	-14474
▁inspection	-14475
Pe	-14476
actic	-14477
▁Solve	-14478
▁punct	-14479
▁Resource	-14480
▁credited	-14481
▁entertaining	-14482
▁organizational	-14483
hyd	-14484
▁ion	-14485
▁numpy	-14486
hearted	-14487
▁Circle	-14488
▁delays	-14489
▁circuits	-14490
▁performs	-14491
▁everybody	-14492
▁constructing	-14493
▁unprecedented	-14494
fold	-14495
▁CDC	-14496
▁Hop	-14497
▁Unc	-14498
▁Plot	-14499
▁grief	-14500
▁sorry	-14501
▁urine	-14502
▁Remove	-14503
▁honesty	-14504
▁textbook	-14505
▁malicious	-14506
▁travelers	-14507
hou	-14508
eron	-14509
▁PhD	-14510
▁mall	-14511
▁Jason	-14512
▁Previous	-14513
▁paperwork	-14514
>,	-14515
cx	-14516
▁Py	-14517
▁RD	-14518
ector	-14519
oking	-14520
riers	-14521
▁knee	-14522
▁Dougl	-14523
▁snake	-14524
▁vintage	-14525
▁periodic	-14526
▁survivors	-14527
▁arc	-14528
▁umb	-14529
comed	-14530
unate	-14531
▁icon	-14532
▁Anderson	-14533
▁Embracing	-14534
▁supernatural	-14535
Key	-14536
▁los	-14537
effic	-14538
lings	-14539
▁Excel	-14540
centage	-14541
▁outlined	-14542
▁assessing	-14543
▁historian	-14544
▁impacting	-14545
▁OS	-14546
▁Cas	-14547
▁joints	-14548
▁Freedom	-14549
▁podcast	-14550
▁geography	-14551
Gu	-14552
{-	-14553
ERS	-14554
▁<-	-14555
umble	-14556
▁Dick	-14557
thlete	-14558
emption	-14559
▁Newton	-14560
▁aboard	-14561
▁syntax	-14562
▁Utilize	-14563
abbatical	-14564
▁Samantha	-14565
▁Hollywood	-14566
▁Holocaust	-14567
▁disruptions	-14568
▁subtracting	-14569
iser	-14570
▁fixing	-14571
▁Venezuel	-14572
▁sandwich	-14573
▁suspected	-14574
ANT	-14575
zyme	-14576
maker	-14577
▁Welsh	-14578
▁algae	-14579
▁patch	-14580
ampshire	-14581
▁sculptures	-14582
▁prescription	-14583
▁precipitation	-14584
otive	-14585
plete	-14586
▁Honey	-14587
herence	-14588
▁Artists	-14589
▁licensing	-14590
▁stretching	-14591
inx	-14592
▁Ein	-14593
▁Roh	-14594
▁guys	-14595
▁dolph	-14596
▁germs	-14597
▁Muslims	-14598
▁Poor	-14599
▁highs	-14600
otional	-14601
▁humble	-14602
▁Premier	-14603
▁veggies	-14604
▁sabbatical	-14605
▁unpredictable	-14606
town	-14607
▁Nich	-14608
▁quit	-14609
▁Improve	-14610
▁stating	-14611
▁Chemical	-14612
▁analyses	-14613
▁sediment	-14614
▁Berkshire	-14615
▁forecasts	-14616
[...]
