<pad>	0
<bos>	0
<eos>	0
<unk>	0
<user>	0
<assistant>	0
▁t	-0
he	-1
▁a	-2
in	-3
▁the	-4
▁o	-5
re	-6
▁s	-7
▁w	-8
er	-9
nd	-10
at	-11
on	-12
is	-13
▁b	-14
it	-15
ou	-16
ed	-17
▁c	-18
▁h	-19
en	-20
▁f	-21
▁of	-22
▁m	-23
or	-24
es	-25
▁and	-26
an	-27
ing	-28
▁to	-29
▁p	-30
ar	-31
▁in	-32
▁d	-33
al	-34
as	-35
▁th	-36
▁l	-37
om	-38
ic	-39
▁n	-40
ll	-41
▁he	-42
le	-43
▁I	-44
ion	-45
▁e	-46
▁g	-47
▁be	-48
ad	-49
▁T	-50
st	-51
ot	-52
ent	-53
ly	-54
ve	-55
ow	-56
▁re	-57
ut	-58
im	-59
id	-60
se	-61
ac	-62
ld	-63
▁that	-64
▁y	-65
et	-66
▁A	-67
▁wh	-68
▁S	-69
ro	-70
▁on	-71
▁was	-72
gh	-73
ay	-74
▁for	-75
ver	-76
▁u	-77
ith	-78
ir	-79
ur	-80
▁it	-81
▁is	-82
▁as	-83
ce	-84
am	-85
▁with	-86
▁st	-87
▁you	-88
▁C	-89
▁M	-90
▁The	-91
▁his	-92
ri	-93
▁we	-94
ct	-95
ter	-96
▁an	-97
▁H	-98
▁B	-99
▁ha	-100
her	-101
ch	-102
▁“	-103
il	-104
ght	-105
▁at	-106
if	-107
▁not	-108
ain	-109
ation	-110
oo	-111
ill	-112
▁se	-113
ke	-114
▁had	-115
▁P	-116
ul	-117
▁her	-118
▁de	-119
ould	-120
▁W	-121
▁1	-122
th	-123
▁su	-124
ess	-125
pe	-126
ore	-127
▁by	-128
▁r	-129
▁sh	-130
ge	-131
rom	-132
and	-133
▁me	-134
▁con	-135
red	-136
est	-137
us	-138
ol	-139
ich	-140
qu	-141
▁(	-142
▁him	-143
▁com	-144
ate	-145
▁L	-146
ab	-147
▁F	-148
▁v	-149
▁or	-150
▁from	-151
ers	-152
▁D	-153
▁have	-154
um	-155
nt	-156
res	-157
▁ex	-158
▁ne	-159
▁so	-160
▁which	-161
▁sa	-162
ist	-163
all	-164
▁R	-165
▁G	-166
ant	-167
▁k	-168
ard	-169
pp	-170
▁E	-171
▁pro	-172
▁"	-173
ight	-174
os	-175
▁all	-176
▁she	-177
em	-178
▁my	-179
▁but	-180
▁are	-181
▁N	-182
▁this	-183
ig	-184
▁al	-185
our	-186
▁ch	-187
art	-188
▁whe	-189
el	-190
ust	-191
iv	-192
▁2	-193
ive	-194
ap	-195
ous	-196
un	-197
▁O	-198
ie	-199
ity	-200
▁up	-201
▁do	-202
00	-203
ome	-204
▁int	-205
ast	-206
▁were	-207
▁they	-208
▁who	-209
ment	-210
ort	-211
ame	-212
▁man	-213
ak	-214
ies	-215
ong	-216
op	-217
ind	-218
\\	-219
out	-220
od	-221
ag	-222
ound	-223
▁one	-224
▁le	-225
▁tr	-226
▁J	-227
▁said	-228
▁ab	-229
▁wor	-230
▁their	-231
ost	-232
▁He	-233
▁pl	-234
▁them	-235
ood	-236
very	-237
ud	-238
pt	-239
ure	-240
▁kn	-241
oc	-242
ell	-243
one	-244
sel	-245
▁would	-246
▁no	-247
ect	-248
▁out	-249
ther	-250
.”	-251
ough	-252
ine	-253
▁can	-254
ide	-255
▁will	-256
ack	-257
own	-258
▁there	-259
ff	-260
ace	-261
ra	-262
▁go	-263
▁been	-264
reat	-265
ance	-266
ue	-267
▁j	-268
ice	-269
ook	-270
▁ar	-271
ry	-272
ond	-273
ber	-274
ear	-275
▁un	-276
▁Th	-277
pl	-278
are	-279
▁$	-280
ven	-281
itt	-282
ake	-283
cc	-284
▁li	-285
ci	-286
au	-287
ally	-288
ount	-289
hed	-290
▁In	-291
age	-292
▁your	-293
ass	-294
able	-295
ish	-296
▁more	-297
ere	-298
▁us	-299
▁when	-300
▁ad	-301
act	-302
▁ag	-303
ions	-304
▁qu	-305
▁am	-306
ime	-307
▁\\	-308
ep	-309
▁im	-310
▁pr	-311
▁has	-312
,”	-313
▁It	-314
ence	-315
self	-316
▁en	-317
▁cl	-318
▁sp	-319
▁per	-320
▁gr	-321
ose	-322
▁other	-323
ated	-324
ary	-325
end	-326
▁if	-327
▁K	-328
per	-329
urn	-330
▁into	-331
▁=	-332
ite	-333
▁-	-334
ans	-335
ire	-336
▁ro	-337
▁tw	-338
fter	-339
ord	-340
▁dis	-341
av	-342
▁any	-343
▁comp	-344
▁some	-345
ach	-346
▁19	-347
ress	-348
▁St	-349
▁fe	-350
oll	-351
ade	-352
ays	-353
▁than	-354
▁what	-355
▁could	-356
cl	-357
ble	-358
ove	-359
▁Y	-360
ings	-361
▁br	-362
ree	-363
▁U	-364
▁time	-365
▁over	-366
fore	-367
ip	-368
ile	-369
▁cont	-370
▁like	-371
ang	-372
ink	-373
▁about	-374
wn	-375
▁Ch	-376
nder	-377
▁And	-378
ign	-379
og	-380
▁off	-381
ark	-382
▁res	-383
ng	-384
▁V	-385
ru	-386
bl	-387
▁know	-388
irst	-389
▁its	-390
other	-391
ick	-392
▁part	-393
we	-394
iz	-395
ia	-396
▁did	-397
▁after	-398
ian	-399
▁bl	-400
ought	-401
ult	-402
▁very	-403
▁again	-404
▁then	-405
▁spe	-406
▁But	-407
ious	-408
ved	-409
ath	-410
ck	-411
oy	-412
▁two	-413
▁Mr	-414
▁only	-415
▁year	-416
▁see	-417
hing	-418
▁great	-419
ne	-420
▁our	-421
▁fl	-422
▁pre	-423
▁first	-424
▁pe	-425
ied	-426
ild	-427
ife	-428
▁now	-429
ations	-430
▁look	-431
so	-432
▁should	-433
ft	-434
oin	-435
▁too	-436
▁hand	-437
ittle	-438
tain	-439
▁upon	-440
te	-441
▁under	-442
▁3	-443
mer	-444
uch	-445
ward	-446
ather	-447
▁thr	-448
▁des	-449
ical	-450
ull	-451
▁rem	-452
ave	-453
▁bet	-454
▁little	-455
orm	-456
ons	-457
▁bec	-458
▁sc	-459
ces	-460
ition	-461
?”	-462
ase	-463
▁made	-464
▁imp	-465
ial	-466
ory	-467
▁how	-468
ors	-469
▁such	-470
▁where	-471
orn	-472
ail	-473
▁before	-474
ful	-475
ew	-476
."	-477
▁acc	-478
xt	-479
ise	-480
old	-481
▁down	-482
▁She	-483
ily	-484
ens	-485
▁ind	-486
▁may	-487
▁long	-488
),	-489
▁these	-490
▁good	-491
ction	-492
ness	-493
hat	-494
right	-495
ked	-496
iss	-497
▁ser	-498
▁cons	-499
hen	-500
▁also	-501
▁sm	-502
du	-503
▁much	-504
way	-505
ater	-506
oss	-507
ty	-508
▁must	-509
ict	-510
▁own	-511
▁app	-512
▁say	-513
man	-514
air	-515
ks	-516
▁day	-517
iff	-518
▁every	-519
▁comm	-520
ced	-521
igh	-522
▁well	-523
▁back	-524
oth	-525
▁ear	-526
ople	-527
ered	-528
▁new	-529
▁‘	-530
ouse	-531
▁This	-532
▁most	-533
ady	-534
▁20	-535
▁through	-536
▁even	-537
▁inv	-538
▁wr	-539
▁old	-540
ents	-541
aw	-542
▁[	-543
▁att	-544
ates	-545
▁think	-546
ving	-547
▁rec	-548
ren	-549
▁+	-550
▁str	-551
ince	-552
hes	-553
▁never	-554
▁ret	-555
ted	-556
▁'	-557
vers	-558
▁way	-559
ual	-560
▁came	-561
▁ent	-562
▁rep	-563
▁men	-564
▁gl	-565
▁make	-566
led	-567
pect	-568
▁te	-569
les	-570
▁sl	-571
..	-572
ried	-573
▁pass	-574
▁4	-575
▁pres	-576
▁let	-577
▁being	-578
▁ey	-579
und	-580
▁might	-581
amp	-582
▁come	-583
ause	-584
▁inf	-585
ars	-586
land	-587
▁ob	-588
▁get	-589
▁Re	-590
ock	-591
▁people	-592
▁himself	-593
▁As	-594
▁beg	-595
▁call	-596
▁just	-597
ves	-598
▁life	-599
ener	-600
!”	-601
▁many	-602
▁5	-603
▁em	-604
▁cr	-605
▁thought	-606
▁those	-607
▁200	-608
▁ap	-609
▁end	-610
▁work	-611
▁num	-612
▁We	-613
▁years	-614
erest	-615
ject	-616
▁found	-617
▁bel	-618
▁sec	-619
▁seem	-620
▁ke	-621
ts	-622
ited	-623
,"	-624
▁op	-625
▁here	-626
ob	-627
▁shall	-628
▁supp	-629
aking	-630
ever	-631
ange	-632
▁inc	-633
▁sub	-634
▁diff	-635
ible	-636
▁without	-637
▁ass	-638
▁set	-639
hy	-640
ool	-641
ollow	-642
tern	-643
ared	-644
▁co	-645
▁You	-646
▁count	-647
▁rel	-648
▁dist	-649
ank	-650
omet	-651
imes	-652
▁wom	-653
vel	-654
ished	-655
ower	-656
▁find	-657
▁last	-658
▁each	-659
▁ac	-660
▁There	-661
ms	-662
▁head	-663
▁same	-664
▁reg	-665
▁went	-666
▁act	-667
get	-668
ret	-669
▁interest	-670
▁exp	-671
ub	-672
▁word	-673
▁inst	-674
▁Se	-675
ened	-676
▁They	-677
riend	-678
ib	-679
▁while	-680
▁turn	-681
ix	-682
▁An	-683
ween	-684
ters	-685
▁car	-686
ont	-687
▁Ar	-688
▁add	-689
▁mon	-690
▁pers	-691
▁want	-692
▁still	-693
less	-694
rib	-695
▁prof	-696
▁po	-697
▁take	-698
▁follow	-699
▁cour	-700
its	-701
▁To	-702
▁Al	-703
ating	-704
ubl	-705
▁right	-706
▁Un	-707
the	-708
▁char	-709
▁between	-710
als	-711
0.	-712
▁away	-713
▁giv	-714
cy	-715
▁ev	-716
▁friend	-717
ning	-718
▁need	-719
ments	-720
▁For	-721
ner	-722
cess	-723
▁three	-724
ased	-725
ting	-726
▁form	-727
▁fin	-728
▁house	-729
▁ans	-730
iness	-731
▁eyes	-732
li	-733
up	-734
ular	-735
The	-736
ss	-737
gr	-738
ertain	-739
ities	-740
ER	-741
ale	-742
▁return	-743
▁val	-744
der	-745
▁18	-746
▁place	-747
▁young	-748
▁world	-749
▁sur	-750
ax	-751
clud	-752
ific	-753
ows	-754
uring	-755
▁mat	-756
▁ref	-757
▁If	-758
ative	-759
▁appe	-760
▁conf	-761
▁child	-762
▁play	-763
cial	-764
ph	-765
cept	-766
▁Br	-767
ently	-768
▁At	-769
▁somet	-770
ures	-771
▁don	-772
000	-773
▁bu	-774
▁gu	-775
ways	-776
▁against	-777
▁put	-778
▁fr	-779
▁disc	-780
▁tell	-781
▁lo	-782
▁another	-783
▁produ	-784
▁mar	-785
alk	-786
▁cur	-787
▁So	-788
▁min	-789
▁ter	-790
▁face	-791
▁left	-792
▁far	-793
▁number	-794
ple	-795
▁201	-796
▁gener	-797
▁ins	-798
▁sil	-799
az	-800
ier	-801
▁both	-802
▁hel	-803
▁bre	-804
).	-805
▁unt	-806
▁night	-807
▁inter	-808
▁–	-809
ired	-810
▁saw	-811
▁took	-812
oot	-813
any	-814
ody	-815
hip	-816
gin	-817
ute	-818
▁pol	-819
uth	-820
ived	-821
ffect	-822
gg	-823
▁ever	-824
ither	-825
▁cap	-826
ason	-827
▁though	-828
▁Mar	-829
▁adv	-830
fr	-831
▁poss	-832
▁nothing	-833
▁6	-834
▁heart	-835
eren	-836
iet	-837
▁ple	-838
▁yet	-839
thing	-840
▁mind	-841
▁ext	-842
▁love	-843
ident	-844
▁things	-845
▁home	-846
▁On	-847
ah	-848
▁Eng	-849
ised	-850
▁bus	-851
▁because	-852
row	-853
tal	-854
▁sw	-855
ross	-856
▁How	-857
▁When	-858
▁war	-859
▁De	-860
ility	-861
▁high	-862
▁lar	-863
▁dec	-864
▁once	-865
▁give	-866
▁fam	-867
vern	-868
ution	-869
rew	-870
▁equ	-871
▁pur	-872
io	-873
▁name	-874
▁Then	-875
▁prov	-876
▁nat	-877
▁rest	-878
▁happ	-879
ract	-880
ican	-881
lect	-882
den	-883
▁sy	-884
▁Com	-885
ton	-886
▁always	-887
▁father	-888
ense	-889
ins	-890
ps	-891
▁light	-892
oun	-893
▁invest	-894
▁mom	-895
ten	-896
▁poin	-897
▁def	-898
▁use	-899
▁perf	-900
ational	-901
▁bo	-902
alf	-903
▁det	-904
ene	-905
osed	-906
▁(1	-907
ices	-908
wer	-909
▁includ	-910
▁dr	-911
aid	-912
▁serv	-913
cul	-914
▁sim	-915
oney	-916
.]	-917
▁Le	-918
ern	-919
▁met	-920
▁total	-921
ics	-922
▁read	-923
▁Wh	-924
ched	-925
ained	-926
▁art	-927
▁che	-928
▁used	-929
ield	-930
outh	-931
▁care	-932
▁belie	-933
▁called	-934
▁stre	-935
▁Amer	-936
irl	-937
▁looked	-938
day	-939
▁room	-940
20	-941
pped	-942
▁going	-943
▁help	-944
con	-945
here	-946
▁got	-947
oh	-948
▁New	-949
▁occ	-950
▁person	-951
▁fact	-952
▁small	-953
▁Be	-954
aps	-955
▁few	-956
ined	-957
▁publ	-958
▁side	-959
be	-960
ants	-961
▁woman	-962
▁kind	-963
▁does	-964
▁Sh	-965
▁Fr	-966
▁mo	-967
▁fell	-968
augh	-969
▁dire	-970
▁near	-971
▁thing	-972
▁feel	-973
▁asked	-974
ying	-975
med	-976
ope	-977
▁certain	-978
▁cle	-979
▁sat	-980
▁since	-981
▁told	-982
▁cond	-983
ider	-984
▁God	-985
▁His	-986
ption	-987
▁hour	-988
▁hum	-989
▁What	-990
most	-991
▁seemed	-992
▁*	-993
▁Mrs	-994
wards	-995
akes	-996
▁stand	-997
ention	-998
oice	-999
▁whole	-1000
ling	-1001
▁&	-1002
▁given	-1003
▁country	-1004
iew	-1005
▁hands	-1006
ug	-1007
▁moment	-1008
▁Pro	-1009
ury	-1010
▁done	-1011
▁nor	-1012
not	-1013
▁mod	-1014
▁full	-1015
You	-1016
anc	-1017
ately	-1018
▁among	-1019
ged	-1020
▁days	-1021
▁show	-1022
▁mark	-1023
olog	-1024
▁Pr	-1025
▁second	-1026
▁trans	-1027
▁contin	-1028
br	-1029
▁dep	-1030
▁heard	-1031
▁stud	-1032
▁land	-1033
aut	-1034
ages	-1035
▁vis	-1036
ash	-1037
ains	-1038
ery	-1039
aken	-1040
ually	-1041
▁sign	-1042
▁beh	-1043
▁quest	-1044
▁having	-1045
▁money	-1046
▁better	-1047
▁8	-1048
▁best	-1049
▁mem	-1050
▁less	-1051
▁el	-1052
ets	-1053
▁month	-1054
pr	-1055
▁pri	-1056
▁gold	-1057
▁fore	-1058
▁something	-1059
▁half	-1060
▁No	-1061
▁whom	-1062
▁rece	-1063
▁seen	-1064
▁bro	-1065
stand	-1066
▁cent	-1067
ames	-1068
▁sk	-1069
ides	-1070
▁7	-1071
▁cor	-1072
▁hard	-1073
▁present	-1074
chool	-1075
▁four	-1076
▁|	-1077
▁\\[	-1078
lish	-1079
▁knew	-1080
ird	-1081
ives	-1082
▁cal	-1083
tle	-1084
▁sent	-1085
ues	-1086
ines	-1087
▁state	-1088
ote	-1089
ured	-1090
▁That	-1091
▁open	-1092
▁book	-1093
▁water	-1094
▁wind	-1095
▁\\]	-1096
▁X	-1097
▁mother	-1098
▁door	-1099
▁var	-1100
▁start	-1101
elt	-1102
▁began	-1103
▁soon	-1104
▁\	-1105
▁Ind	-1106
▁power	-1107
▁est	-1108
▁tre	-1109
▁enough	-1110
▁profit	-1111
ided	-1112
ung	-1113
▁del	-1114
}{	-1115
▁lead	-1116
▁dou	-1117
selves	-1118
▁ri	-1119
ned	-1120
▁business	-1121
me	-1122
?"	-1123
ork	-1124
▁sing	-1125
▁King	-1126
ley	-1127
▁cost	-1128
▁ed	-1129
▁keep	-1130
▁10	-1131
erent	-1132
uc	-1133
▁199	-1134
▁real	-1135
▁inde	-1136
▁Is	-1137
iting	-1138
atch	-1139
aster	-1140
▁Cl	-1141
▁col	-1142
▁Q	-1143
▁girl	-1144
frac	-1145
▁All	-1146
▁gave	-1147
▁law	-1148
▁hor	-1149
unt	-1150
▁during	-1151
ized	-1152
ek	-1153
▁next	-1154
▁words	-1155
▁until	-1156
eng	-1157
aj	-1158
▁ste	-1159
▁answer	-1160
▁death	-1161
▁run	-1162
▁round	-1163
bers	-1164
▁ph	-1165
▁mean	-1166
▁Ex	-1167
▁Gr	-1168
to	-1169
▁Sp	-1170
ane	-1171
▁coll	-1172
ists	-1173
mon	-1174
▁requ	-1175
▁large	-1176
aces	-1177
▁es	-1178
ison	-1179
▁prom	-1180
▁loc	-1181
▁wa	-1182
▁appro	-1183
erm	-1184
alth	-1185
▁course	-1186
▁myself	-1187
▁const	-1188
▁air	-1189
ivers	-1190
aring	-1191
▁quite	-1192
▁comple	-1193
▁opp	-1194
erv	-1195
used	-1196
ably	-1197
ued	-1198
▁turned	-1199
50	-1200
ians	-1201
orning	-1202
▁prin	-1203
ully	-1204
▁expl	-1205
▁repl	-1206
com	-1207
▁known	-1208
ief	-1209
ism	-1210
raw	-1211
ural	-1212
eth	-1213
ances	-1214
ering	-1215
gether	-1216
bt	-1217
▁together	-1218
▁adm	-1219
▁Ad	-1220
oke	-1221
uck	-1222
▁ann	-1223
ert	-1224
▁king	-1225
▁voice	-1226
ize	-1227
▁almost	-1228
rist	-1229
▁different	-1230
ohn	-1231
uss	-1232
▁exper	-1233
oud	-1234
my	-1235
▁boy	-1236
haps	-1237
▁wife	-1238
aint	-1239
▁amount	-1240
▁white	-1241
ister	-1242
▁direct	-1243
by	-1244
▁brought	-1245
▁stru	-1246
▁govern	-1247
aim	-1248
▁tri	-1249
HE	-1250
▁9	-1251
▁sol	-1252
▁value	-1253
▁morning	-1254
ral	-1255
▁Miss	-1256
osition	-1257
▁prop	-1258
▁rather	-1259
ok	-1260
▁thou	-1261
ember	-1262
▁Con	-1263
▁$1	-1264
It	-1265
▁pay	-1266
▁suff	-1267
▁hon	-1268
ON	-1269
▁sure	-1270
▁Her	-1271
▁list	-1272
▁Now	-1273
ann	-1274
ov	-1275
pend	-1276
,—	-1277
oul	-1278
▁div	-1279
of	-1280
,000	-1281
▁ide	-1282
conom	-1283
cent	-1284
▁poor	-1285
▁John	-1286
▁within	-1287
bo	-1288
▁Tr	-1289
ience	-1290
son	-1291
ital	-1292
▁order	-1293
▁often	-1294
▁American	-1295
▁along	-1296
ision	-1297
▁felt	-1298
▁short	-1299
▁son	-1300
▁Z	-1301
sh	-1302
ient	-1303
▁public	-1304
▁consider	-1305
▁fall	-1306
aced	-1307
$.	-1308
▁sum	-1309
▁taken	-1310
ex	-1311
velop	-1312
▁pat	-1313
▁effect	-1314
▁eas	-1315
▁account	-1316
ressed	-1317
▁charac	-1318
stem	-1319
▁dri	-1320
▁After	-1321
▁company	-1322
▁fun	-1323
app	-1324
fully	-1325
▁hold	-1326
▁understand	-1327
▁With	-1328
HA	-1329
▁case	-1330
une	-1331
iter	-1332
▁others	-1333
ude	-1334
ee	-1335
▁stood	-1336
▁Sc	-1337
▁.	-1338
men	-1339
ceed	-1340
▁matter	-1341
▁sold	-1342
▁partic	-1343
▁times	-1344
▁Or	-1345
▁med	-1346
▁Ph	-1347
erence	-1348
▁mus	-1349
▁import	-1350
▁x	-1351
▁mil	-1352
iving	-1353
▁par	-1354
▁beaut	-1355
▁children	-1356
▁sever	-1357
▁whose	-1358
▁spec	-1359
▁inform	-1360
ccess	-1361
▁question	-1362
irc	-1363
▁incre	-1364
undred	-1365
ys	-1366
ger	-1367
use	-1368
▁speak	-1369
▁Em	-1370
bs	-1371
▁however	-1372
▁cannot	-1373
▁One	-1374
▁aw	-1375
▁talk	-1376
de	-1377
gy	-1378
ached	-1379
venue	-1380
▁gent	-1381
ams	-1382
▁Bl	-1383
▁bed	-1384
▁lay	-1385
▁ris	-1386
▁sle	-1387
▁themselves	-1388
▁My	-1389
▁grow	-1390
orts	-1391
▁herself	-1392
▁Lord	-1393
▁anything	-1394
▁strong	-1395
IN	-1396
▁main	-1397
▁family	-1398
▁ty	-1399
.’	-1400
▁aff	-1401
▁expect	-1402
▁rate	-1403
▁sun	-1404
▁became	-1405
▁till	-1406
▁friends	-1407
rap	-1408
rigin	-1409
amed	-1410
▁dark	-1411
▁women	-1412
ready	-1413
▁foot	-1414
▁Christ	-1415
arch	-1416
ards	-1417
▁Nor	-1418
▁lear	-1419
▁point	-1420
ric	-1421
▁above	-1422
▁ele	-1423
▁reason	-1424
▁least	-1425
What	-1426
▁fire	-1427
▁result	-1428
ott	-1429
▁1.	-1430
▁true	-1431
ape	-1432
II	-1433
▁black	-1434
▁ill	-1435
▁hundred	-1436
▁several	-1437
▁fur	-1438
▁tem	-1439
▁obs	-1440
▁city	-1441
▁12	-1442
▁says	-1443
gan	-1444
▁15	-1445
▁English	-1446
ctor	-1447
▁pleas	-1448
ording	-1449
uff	-1450
read	-1451
▁meet	-1452
ats	-1453
urch	-1454
▁hist	-1455
▁Sir	-1456
▁town	-1457
▁around	-1458
,’	-1459
ron	-1460
!"	-1461
ior	-1462
▁prev	-1463
ination	-1464
fort	-1465
▁Car	-1466
▁Par	-1467
▁dev	-1468
ality	-1469
ended	-1470
▁means	-1471
▁bar	-1472
ney	-1473
▁wond	-1474
▁close	-1475
ask	-1476
▁already	-1477
▁passed	-1478
illed	-1479
▁body	-1480
uro	-1481
▁believe	-1482
▁econom	-1483
ec	-1484
ession	-1485
▁cried	-1486
▁fear	-1487
▁later	-1488
▁common	-1489
dden	-1490
▁offic	-1491
enty	-1492
▁proper	-1493
▁THE	-1494
TER	-1495
▁making	-1496
ases	-1497
ically	-1498
ze	-1499
▁gentle	-1500
▁school	-1501
▁hope	-1502
▁pop	-1503
▁live	-1504
▁following	-1505
▁hear	-1506
▁0.	-1507
▁free	-1508
▁held	-1509
▁success	-1510
EN	-1511
...	-1512
▁fil	-1513
▁thy	-1514
▁looking	-1515
▁leg	-1516
▁sound	-1517
▁feet	-1518
▁gone	-1519
▁fa	-1520
▁dear	-1521
els	-1522
text	-1523
ousand	-1524
▁step	-1525
enn	-1526
▁sit	-1527
▁ca	-1528
▁develop	-1529
▁dem	-1530
▁infl	-1531
▁system	-1532
.)	-1533
▁low	-1534
AN	-1535
▁ground	-1536
▁dead	-1537
▁creat	-1538
▁17	-1539
▁deep	-1540
▁five	-1541
overed	-1542
▁behind	-1543
reen	-1544
▁origin	-1545
▁lab	-1546
ai	-1547
owed	-1548
over	-1549
▁sudden	-1550
▁eng	-1551
▁become	-1552
anger	-1553
▁ve	-1554
ring	-1555
▁ask	-1556
let	-1557
▁mid	-1558
▁conc	-1559
aining	-1560
wered	-1561
sp	-1562
▁Pl	-1563
▁av	-1564
▁thousand	-1565
▁Let	-1566
ection	-1567
▁(?	-1568
▁abs	-1569
▁subject	-1570
▁Am	-1571
▁Bar	-1572
lf	-1573
▁dro	-1574
OR	-1575
▁respect	-1576
▁mer	-1577
▁human	-1578
▁sal	-1579
▁necess	-1580
▁leave	-1581
▁alone	-1582
ature	-1583
oon	-1584
▁brother	-1585
▁198	-1586
.,	-1587
10	-1588
rent	-1589
▁mis	-1590
ica	-1591
▁really	-1592
▁character	-1593
▁ra	-1594
▁win	-1595
ina	-1596
▁resp	-1597
aughter	-1598
itions	-1599
▁answered	-1600
19	-1601
oup	-1602
▁six	-1603
que	-1604
▁class	-1605
▁sn	-1606
▁spir	-1607
ries	-1608
▁won	-1609
1.	-1610
val	-1611
▁possible	-1612
▁line	-1613
for	-1614
▁whether	-1615
ster	-1616
rench	-1617
▁why	-1618
▁United	-1619
ustom	-1620
And	-1621
▁thee	-1622
▁replied	-1623
▁past	-1624
aves	-1625
▁Ger	-1626
▁pret	-1627
▁circ	-1628
▁itself	-1629
idence	-1630
itted	-1631
ression	-1632
▁either	-1633
▁bur	-1634
▁By	-1635
oor	-1636
▁prot	-1637
rie	-1638
▁16	-1639
▁pap	-1640
▁perhaps	-1641
ES	-1642
fe	-1643
ified	-1644
▁However	-1645
▁swe	-1646
▁da	-1647
▁prob	-1648
▁bring	-1649
ploy	-1650
▁ord	-1651
aged	-1652
uthor	-1653
▁able	-1654
No	-1655
▁coin	-1656
▁move	-1657
▁appear	-1658
▁chang	-1659
▁indeed	-1660
ata	-1661
▁perform	-1662
iod	-1663
▁nature	-1664
▁lost	-1665
ission	-1666
▁Can	-1667
Yes	-1668
▁object	-1669
▁calcul	-1670
▁returned	-1671
▁lady	-1672
▁government	-1673
ik	-1674
▁port	-1675
▁Do	-1676
▁general	-1677
▁build	-1678
int	-1679
▁pract	-1680
iver	-1681
▁manner	-1682
ches	-1683
▁sea	-1684
▁2.	-1685
▁red	-1686
▁cre	-1687
▁silver	-1688
orrow	-1689
▁sell	-1690
▁doubt	-1691
▁view	-1692
empt	-1693
atter	-1694
ament	-1695
ety	-1696
ium	-1697
▁(19	-1698
▁revenue	-1699
angu	-1700
▁rev	-1701
▁Not	-1702
ilt	-1703
▁thus	-1704
icult	-1705
resent	-1706
▁See	-1707
▁fav	-1708
▁clear	-1709
▁0	-1710
▁early	-1711
▁letter	-1712
▁ir	-1713
airs	-1714
25	-1715
ush	-1716
aven	-1717
▁ten	-1718
▁received	-1719
ony	-1720
▁polit	-1721
ones	-1722
ored	-1723
▁(?),	-1724
par	-1725
ump	-1726
Oh	-1727
but	-1728
▁market	-1729
▁else	-1730
▁pain	-1731
▁oper	-1732
▁These	-1733
ius	-1734
▁Will	-1735
form	-1736
▁States	-1737
▁commun	-1738
ien	-1739
▁exc	-1740
▁tax	-1741
iously	-1742
ball	-1743
▁French	-1744
AR	-1745
band	-1746
wh	-1747
▁begin	-1748
▁Har	-1749
▁Euro	-1750
▁design	-1751
▁bene	-1752
▁coming	-1753
▁mag	-1754
▁wish	-1755
▁CHA	-1756
▁plan	-1757
▁cut	-1758
▁hig	-1759
▁price	-1760
▁eff	-1761
But	-1762
▁towards	-1763
crib	-1764
side	-1765
▁fund	-1766
▁support	-1767
ivid	-1768
▁across	-1769
▁fre	-1770
▁quick	-1771
▁Mad	-1772
▁Col	-1773
▁Cal	-1774
▁soul	-1775
ges	-1776
▁jud	-1777
though	-1778
▁/	-1779
ator	-1780
ounded	-1781
▁fair	-1782
2.	-1783
▁post	-1784
▁change	-1785
▁worth	-1786
▁earth	-1787
▁197	-1788
▁top	-1789
▁mount	-1790
▁decl	-1791
▁Go	-1792
co	-1793
mp	-1794
attle	-1795
▁wall	-1796
▁sir	-1797
ror	-1798
iful	-1799
▁Ne	-1800
that	-1801
aving	-1802
dle	-1803
▁Ge	-1804
utes	-1805
ots	-1806
▁Ab	-1807
body	-1808
aught	-1809
▁story	-1810
arent	-1811
ability	-1812
▁determ	-1813
▁$\\	-1814
He	-1815
ken	-1816
▁ut	-1817
▁doll	-1818
3.	-1819
▁priv	-1820
bert	-1821
iam	-1822
▁difficult	-1823
▁dest	-1824
acy	-1825
▁fort	-1826
erences	-1827
1,	-1828
▁ship	-1829
▁break	-1830
▁self	-1831
▁period	-1832
▁blood	-1833
▁hus	-1834
▁big	-1835
ology	-1836
▁author	-1837
iled	-1838
▁table	-1839
▁Char	-1840
▁har	-1841
itive	-1842
▁vol	-1843
▁Brit	-1844
room	-1845
▁horse	-1846
▁May	-1847
ograp	-1848
mat	-1849
ague	-1850
^2	-1851
uct	-1852
iversity	-1853
▁arm	-1854
lled	-1855
▁former	-1856
▁command	-1857
▁service	-1858
▁wood	-1859
▁investment	-1860
ternal	-1861
▁quar	-1862
▁sort	-1863
▁week	-1864
▁bes	-1865
irt	-1866
▁road	-1867
▁including	-1868
oe	-1869
▁unc	-1870
ead	-1871
ught	-1872
▁particular	-1873
ls	-1874
▁trou	-1875
▁CHAP	-1876
antly	-1877
▁led	-1878
▁mill	-1879
▁Europe	-1880
▁CHAPTER	-1881
▁perfect	-1882
▁fig	-1883
▁product	-1884
▁kept	-1885
por	-1886
tered	-1887
Well	-1888
▁hours	-1889
▁Per	-1890
▁followed	-1891
▁draw	-1892
itting	-1893
▁estab	-1894
ume	-1895
▁age	-1896
▁lim	-1897
▁Ed	-1898
▁ce	-1899
alked	-1900
▁ran	-1901
▁stri	-1902
istr	-1903
▁conv	-1904
▁evening	-1905
▁rele	-1906
▁German	-1907
▁truth	-1908
▁England	-1909
af	-1910
▁pie	-1911
▁Fl	-1912
▁therefore	-1913
bed	-1914
▁further	-1915
▁super	-1916
▁tou	-1917
▁information	-1918
.'	-1919
▁months	-1920
ming	-1921
▁Cap	-1922
▁sight	-1923
▁affect	-1924
▁late	-1925
itten	-1926
▁acqu	-1927
▁ye	-1928
▁Of	-1929
otion	-1930
▁Tom	-1931
▁Count	-1932
▁compan	-1933
▁deal	-1934
rave	-1935
▁Ro	-1936
che	-1937
▁bit	-1938
▁#	-1939
▁cross	-1940
▁arri	-1941
ledge	-1942
urs	-1943
rodu	-1944
ample	-1945
▁princi	-1946
▁din	-1947
itude	-1948
isf	-1949
▁remark	-1950
cient	-1951
▁camp	-1952
▁husband	-1953
▁added	-1954
▁fail	-1955
ement	-1956
medi	-1957
▁saying	-1958
▁regard	-1959
▁ru	-1960
ler	-1961
▁join	-1962
asion	-1963
▁organ	-1964
mber	-1965
▁bad	-1966
▁cast	-1967
▁vill	-1968
ajor	-1969
ancial	-1970
▁Pe	-1971
▁eye	-1972
iment	-1973
▁idea	-1974
idge	-1975
▁taking	-1976
iety	-1977
▁arms	-1978
▁process	-1979
▁Man	-1980
▁anim	-1981
▁bank	-1982
▁treat	-1983
ift	-1984
▁Wor	-1985
▁ready	-1986
▁squ	-1987
▁game	-1988
sequ	-1989
ising	-1990
▁i	-1991
▁except	-1992
▁longer	-1993
ogn	-1994
chn	-1995
▁disp	-1996
▁field	-1997
head	-1998
▁appeared	-1999
▁fut	-2000
▁Comm	-2001
ously	-2002
sem	-2003
▁soft	-2004
▁music	-2005
▁hur	-2006
▁sense	-2007
12	-2008
▁continued	-2009
",	-2010
ald	-2011
ode	-2012
iding	-2013
▁langu	-2014
▁single	-2015
▁oil	-2016
ories	-2017
erved	-2018
ondon	-2019
▁exist	-2020
▁everything	-2021
▁walk	-2022
ole	-2023
▁From	-2024
anced	-2025
▁—	-2026
▁Aust	-2027
▁purp	-2028
oci	-2029
▁due	-2030
▁appl	-2031
▁visit	-2032
▁demand	-2033
rop	-2034
▁wonder	-2035
iol	-2036
30	-2037
▁hair	-2038
▁14	-2039
ili	-2040
ey	-2041
▁dre	-2042
ma	-2043
bled	-2044
ham	-2045
▁surpr	-2046
▁represent	-2047
aff	-2048
▁mult	-2049
▁heav	-2050
ency	-2051
uly	-2052
▁employ	-2053
where	-2054
ggest	-2055
Th	-2056
ulation	-2057
▁sleep	-2058
▁mist	-2059
▁Ap	-2060
well	-2061
▁spirit	-2062
▁196	-2063
▁strange	-2064
hys	-2065
5,	-2066
eter	-2067
▁esc	-2068
▁trave	-2069
owers	-2070
▁assist	-2071
owing	-2072
▁quiet	-2073
▁London	-2074
▁{	-2075
▁Gu	-2076
cially	-2077
str	-2078
inct	-2079
▁daughter	-2080
▁accom	-2081
▁York	-2082
▁earn	-2083
ixed	-2084
▁stay	-2085
▁didn	-2086
▁elect	-2087
▁using	-2088
▁cause	-2089
▁watch	-2090
ength	-2091
▁wild	-2092
▁mere	-2093
▁natural	-2094
▁suggest	-2095
▁history	-2096
pper	-2097
▁health	-2098
▁Dr	-2099
▁Here	-2100
▁front	-2101
hern	-2102
dom	-2103
oose	-2104
yn	-2105
▁der	-2106
200	-2107
▁position	-2108
irm	-2109
▁sometimes	-2110
ager	-2111
▁custom	-2112
▁rose	-2113
ively	-2114
▁office	-2115
cri	-2116
▁mur	-2117
ividual	-2118
bit	-2119
rit	-2120
▁entire	-2121
atic	-2122
▁imag	-2123
usion	-2124
▁opened	-2125
oly	-2126
$,	-2127
rect	-2128
yond	-2129
▁excl	-2130
▁spoke	-2131
▁seems	-2132
2,	-2133
▁slow	-2134
▁hast	-2135
▁important	-2136
inary	-2137
▁twenty	-2138
▁War	-2139
▁comes	-2140
arrow	-2141
▁record	-2142
▁Some	-2143
▁fellow	-2144
18	-2145
▁complete	-2146
3,	-2147
▁South	-2148
set	-2149
ential	-2150
▁fine	-2151
▁Since	-2152
▁jour	-2153
We	-2154
▁forg	-2155
▁master	-2156
ument	-2157
▁rock	-2158
▁third	-2159
▁according	-2160
oman	-2161
▁reached	-2162
▁cold	-2163
riage	-2164
▁100	-2165
uted	-2166
lex	-2167
▁future	-2168
▁tend	-2169
▁iss	-2170
▁satisf	-2171
▁cry	-2172
ization	-2173
▁Pres	-2174
port	-2175
▁living	-2176
▁remember	-2177
stit	-2178
▁influ	-2179
ills	-2180
▁Te	-2181
▁function	-2182
16	-2183
like	-2184
▁link	-2185
▁beautiful	-2186
ify	-2187
▁repe	-2188
ruct	-2189
aly	-2190
▁Qu	-2191
▁progr	-2192
.—	-2193
▁er	-2194
▁lad	-2195
15	-2196
▁trad	-2197
ples	-2198
▁proble	-2199
▁pot	-2200
▁corn	-2201
▁Ref	-2202
▁makes	-2203
▁various	-2204
▁individual	-2205
▁secret	-2206
ires	-2207
▁comb	-2208
▁meas	-2209
▁level	-2210
▁court	-2211
▁party	-2212
box	-2213
▁la	-2214
▁hot	-2215
▁University	-2216
aimed	-2217
itary	-2218
cious	-2219
ounds	-2220
▁contro	-2221
▁report	-2222
▁attempt	-2223
aul	-2224
ening	-2225
ication	-2226
▁send	-2227
▁conn	-2228
olution	-2229
▁den	-2230
▁North	-2231
att	-2232
▁polic	-2233
▁enc	-2234
▁fif	-2235
AL	-2236
ected	-2237
That	-2238
▁forth	-2239
▁ver	-2240
▁wanted	-2241
ike	-2242
▁dog	-2243
ging	-2244
▁length	-2245
▁Me	-2246
▁coins	-2247
resh	-2248
▁immedi	-2249
▁season	-2250
▁forward	-2251
isc	-2252
▁State	-2253
▁fight	-2254
alt	-2255
▁carried	-2256
▁arr	-2257
▁financial	-2258
na	-2259
ille	-2260
4.	-2261
▁eight	-2262
AT	-2263
pping	-2264
▁Rep	-2265
line	-2266
▁suddenly	-2267
▁died	-2268
":	-2269
▁enem	-2270
ighb	-2271
▁song	-2272
▁written	-2273
▁necessary	-2274
omin	-2275
▁desp	-2276
▁scar	-2277
▁project	-2278
▁faith	-2279
▁Min	-2280
fer	-2281
▁neg	-2282
▁exact	-2283
ST	-2284
ales	-2285
yl	-2286
irth	-2287
▁chief	-2288
▁carry	-2289
▁opin	-2290
▁Thus	-2291
▁pretty	-2292
ops	-2293
iers	-2294
▁coun	-2295
▁danger	-2296
▁knowledge	-2297
▁doing	-2298
▁occasion	-2299
ours	-2300
▁World	-2301
▁gen	-2302
▁30	-2303
▁Step	-2304
▁based	-2305
▁peace	-2306
:0	-2307
▁La	-2308
cience	-2309
▁beyond	-2310
▁current	-2311
▁force	-2312
hood	-2313
▁streng	-2314
night	-2315
▁loss	-2316
▁happy	-2317
reg	-2318
▁chance	-2319
reet	-2320
▁exam	-2321
▁river	-2322
▁window	-2323
ilar	-2324
▁depart	-2325
▁glad	-2326
▁Comp	-2327
action	-2328
ara	-2329
▁ant	-2330
arr	-2331
▁invol	-2332
▁test	-2333
7.	-2334
joy	-2335
min	-2336
uation	-2337
▁--	-2338
▁Tw	-2339
▁Don	-2340
▁pict	-2341
40	-2342
▁deg	-2343
▁inn	-2344
▁neighb	-2345
pecially	-2346
▁pen	-2347
▁compl	-2348
▁accept	-2349
▁breat	-2350
▁En	-2351
▁et	-2352
▁yourself	-2353
▁British	-2354
uke	-2355
ences	-2356
▁team	-2357
▁tried	-2358
ege	-2359
▁El	-2360
▁series	-2361
▁impro	-2362
▁share	-2363
▁members	-2364
▁Sw	-2365
▁sens	-2366
ingly	-2367
erve	-2368
times	-2369
what	-2370
7,	-2371
▁Fe	-2372
▁mine	-2373
▁viol	-2374
▁Geor	-2375
▁recogn	-2376
▁risk	-2377
▁dollars	-2378
iction	-2379
▁ought	-2380
▁none	-2381
▁ago	-2382
▁dut	-2383
4,	-2384
▁ban	-2385
▁West	-2386
▁init	-2387
fit	-2388
▁group	-2389
eness	-2390
▁suppose	-2391
▁<	-2392
▁describ	-2393
▁church	-2394
▁ang	-2395
▁addition	-2396
▁attack	-2397
▁started	-2398
▁experience	-2399
▁fast	-2400
▁minutes	-2401
▁educ	-2402
▁toward	-2403
ites	-2404
▁cred	-2405
▁France	-2406
5.	-2407
▁af	-2408
essed	-2409
▁pray	-2410
6.	-2411
▁hy	-2412
light	-2413
▁mention	-2414
▁circum	-2415
▁feeling	-2416
▁books	-2417
reme	-2418
cend	-2419
rest	-2420
▁Why	-2421
ially	-2422
▁entered	-2423
);	-2424
?’	-2425
▁try	-2426
▁prison	-2427
▁host	-2428
▁grand	-2429
▁OF	-2430
▁moved	-2431
▁Dav	-2432
,'	-2433
eks	-2434
ancy	-2435
off	-2436
▁pal	-2437
▁Jan	-2438
▁sto	-2439
▁References	-2440
cer	-2441
▁3.	-2442
▁redu	-2443
▁nearly	-2444
▁slight	-2445
cing	-2446
osp	-2447
▁higher	-2448
▁simple	-2449
work	-2450
▁option	-2451
▁address	-2452
ox	-2453
▁paper	-2454
hel	-2455
ears	-2456
▁relig	-2457
▁sweet	-2458
bur	-2459
itch	-2460
▁Aug	-2461
▁example	-2462
rupt	-2463
idered	-2464
▁13	-2465
▁sad	-2466
▁laugh	-2467
▁enjoy	-2468
**	-2469
agement	-2470
sc	-2471
6,	-2472
ply	-2473
ises	-2474
▁event	-2475
▁prep	-2476
ented	-2477
▁food	-2478
▁feat	-2479
▁11	-2480
▁detail	-2481
▁stock	-2482
▁unto	-2483
▁convers	-2484
▁expected	-2485
▁remained	-2486
▁Ext	-2487
--	-2488
▁lived	-2489
hod	-2490
▁crit	-2491
go	-2492
▁Coll	-2493
owd	-2494
▁mad	-2495
ushed	-2496
rs	-2497
▁techn	-2498
ternational	-2499
▁mouth	-2500
▁area	-2501
cil	-2502
▁mass	-2503
ners	-2504
▁neither	-2505
▁personal	-2506
icle	-2507
▁greater	-2508
spect	-2509
umb	-2510
▁phys	-2511
▁miles	-2512
8,	-2513
▁vict	-2514
ivil	-2515
▁fac	-2516
▁contr	-2517
▁economic	-2518
▁Well	-2519
▁stra	-2520
▁Su	-2521
rix	-2522
▁include	-2523
▁bread	-2524
▁joy	-2525
▁wat	-2526
tained	-2527
▁Cent	-2528
ha	-2529
ocr	-2530
raft	-2531
▁wrong	-2532
▁bal	-2533
▁cru	-2534
▁especially	-2535
▁soci	-2536
▁House	-2537
▁easy	-2538
▁below	-2539
▁tit	-2540
▁plain	-2541
▁introdu	-2542
▁pos	-2543
imate	-2544
anch	-2545
ortun	-2546
▁language	-2547
AS	-2548
▁band	-2549
▁major	-2550
".	-2551
▁imm	-2552
▁purpose	-2553
IC	-2554
▁indust	-2555
eneral	-2556
▁local	-2557
▁intell	-2558
▁save	-2559
▁Fin	-2560
▁Reg	-2561
▁gentleman	-2562
ston	-2563
▁parts	-2564
▁laid	-2565
▁station	-2566
▁sister	-2567
ae	-2568
king	-2569
▁obl	-2570
▁provide	-2571
8.	-2572
you	-2573
ining	-2574
ech	-2575
cell	-2576
—”	-2577
bum	-2578
come	-2579
▁Lady	-2580
▁mess	-2581
▁remain	-2582
▁capital	-2583
▁original	-2584
▁dress	-2585
▁drink	-2586
▁trust	-2587
lo	-2588
▁yes	-2589
▁wide	-2590
▁lower	-2591
▁write	-2592
▁works	-2593
▁US	-2594
▁data	-2595
▁century	-2596
ests	-2597
osing	-2598
▁dinner	-2599
RE	-2600
▁final	-2601
▁mater	-2602
▁special	-2603
het	-2604
aded	-2605
9,	-2606
▁rap	-2607
arden	-2608
▁offer	-2609
iced	-2610
▁mut	-2611
▁cover	-2612
▁growth	-2613
▁August	-2614
with	-2615
▁Mc	-2616
▁distance	-2617
oes	-2618
▁Paris	-2619
rel	-2620
▁Mary	-2621
▁numbers	-2622
▁private	-2623
▁getting	-2624
ship	-2625
▁happened	-2626
▁Sy	-2627
▁While	-2628
In	-2629
▁}	-2630
▁di	-2631
▁Mon	-2632
▁sac	-2633
▁delight	-2634
▁hat	-2635
▁Govern	-2636
▁instead	-2637
aching	-2638
▁green	-2639
kn	-2640
▁placed	-2641
oured	-2642
ula	-2643
▁Ag	-2644
vere	-2645
iant	-2646
▁vers	-2647
▁considered	-2648
yle	-2649
▁news	-2650
su	-2651
▁Phil	-2652
▁presence	-2653
Why	-2654
▁broad	-2655
▁wrote	-2656
▁ball	-2657
rey	-2658
▁although	-2659
▁condition	-2660
▁opt	-2661
▁thinking	-2662
▁difference	-2663
▁blue	-2664
ishing	-2665
▁silence	-2666
▁pleasure	-2667
▁z	-2668
cher	-2669
▁Was	-2670
ruction	-2671
▁paid	-2672
▁separ	-2673
▁social	-2674
boxed	-2675
▁bear	-2676
▁Gl	-2677
▁comfort	-2678
▁inqu	-2679
ama	-2680
▁youth	-2681
▁fool	-2682
▁action	-2683
▁Oh	-2684
▁und	-2685
uary	-2686
▁arg	-2687
▁Ant	-2688
▁compet	-2689
wise	-2690
▁National	-2691
oint	-2692
▁hath	-2693
▁equal	-2694
▁miss	-2695
▁bright	-2696
If	-2697
▁birth	-2698
▁probably	-2699
eder	-2700
▁circumst	-2701
▁hop	-2702
▁lord	-2703
fl	-2704
▁walked	-2705
▁specific	-2706
▁attention	-2707
amb	-2708
▁rich	-2709
▁occup	-2710
▁smile	-2711
▁Des	-2712
▁Sec	-2713
▁box	-2714
▁strength	-2715
asp	-2716
▁Pol	-2717
▁Hist	-2718
oid	-2719
],	-2720
ois	-2721
raid	-2722
▁Canad	-2723
▁street	-2724
▁million	-2725
▁proceed	-2726
rill	-2727
▁typ	-2728
iling	-2729
rif	-2730
▁spend	-2731
▁Alex	-2732
▁played	-2733
▁chair	-2734
olly	-2735
rief	-2736
▁belong	-2737
▁method	-2738
▁services	-2739
▁Que	-2740
▁trouble	-2741
bling	-2742
▁whis	-2743
icked	-2744
ees	-2745
lying	-2746
▁anx	-2747
▁High	-2748
now	-2749
axim	-2750
▁becom	-2751
▁trees	-2752
ades	-2753
wor	-2754
▁Ear	-2755
irty	-2756
rict	-2757
▁bird	-2758
▁island	-2759
▁wit	-2760
▁weak	-2761
▁March	-2762
itor	-2763
▁City	-2764
▁cult	-2765
▁built	-2766
imin	-2767
▁village	-2768
▁married	-2769
AM	-2770
▁25	-2771
▁crowd	-2772
ril	-2773
oses	-2774
lished	-2775
▁likely	-2776
▁press	-2777
aug	-2778
▁aut	-2779
ford	-2780
▁standing	-2781
▁Cr	-2782
▁tele	-2783
▁heavy	-2784
col	-2785
▁similar	-2786
▁Sm	-2787
▁die	-2788
▁Res	-2789
▁sav	-2790
▁School	-2791
▁type	-2792
▁figure	-2793
▁relations	-2794
▁straight	-2795
▁political	-2796
▁equation	-2797
▁film	-2798
▁conce	-2799
▁north	-2800
OU	-2801
hold	-2802
▁liter	-2803
▁program	-2804
▁certainly	-2805
My	-2806
||	-2807
ival	-2808
ergy	-2809
80	-2810
aled	-2811
▁clot	-2812
▁places	-2813
▁Indian	-2814
▁bill	-2815
▁safe	-2816
▁depend	-2817
60	-2818
ET	-2819
▁burn	-2820
▁signific	-2821
9.	-2822
▁drew	-2823
▁produced	-2824
▁opinion	-2825
▁Acc	-2826
▁mor	-2827
ublic	-2828
(1	-2829
ios	-2830
erson	-2831
▁avail	-2832
▁meant	-2833
isted	-2834
▁named	-2835
▁heaven	-2836
ky	-2837
▁desire	-2838
▁working	-2839
▁eat	-2840
▁non	-2841
▁annual	-2842
▁expression	-2843
uous	-2844
▁194	-2845
▁ep	-2846
reed	-2847
aries	-2848
▁lie	-2849
▁lips	-2850
ounced	-2851
▁latter	-2852
▁points	-2853
▁species	-2854
▁Med	-2855
atever	-2856
▁seeing	-2857
▁Extract	-2858
▁exec	-2859
▁ident	-2860
ibility	-2861
2)	-2862
▁ways	-2863
▁army	-2864
▁battle	-2865
▁Captain	-2866
otal	-2867
een	-2868
▁problem	-2869
▁beginning	-2870
ING	-2871
▁born	-2872
▁links	-2873
▁Lou	-2874
▁opportun	-2875
roy	-2876
itation	-2877
▁concern	-2878
road	-2879
▁loved	-2880
ils	-2881
▁Cor	-2882
▁album	-2883
▁fat	-2884
There	-2885
▁touch	-2886
▁env	-2887
▁discuss	-2888
icient	-2889
ivity	-2890
olute	-2891
▁god	-2892
▁bound	-2893
▁Ass	-2894
▁study	-2895
▁material	-2896
▁cou	-2897
▁conduct	-2898
▁building	-2899
return	-2900
rible	-2901
▁immediately	-2902
▁Austral	-2903
▁outside	-2904
orses	-2905
▁occur	-2906
▁raised	-2907
ding	-2908
utions	-2909
▁space	-2910
▁quarter	-2911
▁knows	-2912
▁express	-2913
▁please	-2914
▁deli	-2915
▁quickly	-2916
ny	-2917
ouses	-2918
▁firm	-2919
▁broken	-2920
▁showed	-2921
lling	-2922
▁key	-2923
IL	-2924
key	-2925
▁thoughts	-2926
ables	-2927
ray	-2928
IS	-2929
wood	-2930
▁afraid	-2931
▁caught	-2932
aped	-2933
istic	-2934
▁purch	-2935
!’	-2936
▁associ	-2937
▁seven	-2938
▁south	-2939
▁property	-2940
▁frequ	-2941
ux	-2942
▁struck	-2943
AD	-2944
How	-2945
▁cand	-2946
▁steps	-2947
bles	-2948
▁Oct	-2949
gar	-2950
▁June	-2951
eds	-2952
▁fresh	-2953
ators	-2954
face	-2955
uses	-2956
▁profession	-2957
▁calculate	-2958
▁grew	-2959
▁Hen	-2960
▁note	-2961
IT	-2962
ique	-2963
▁bas	-2964
uge	-2965
▁term	-2966
▁hung	-2967
▁piece	-2968
▁$\\$	-2969
▁extra	-2970
▁appearance	-2971
▁giving	-2972
▁Soc	-2973
gress	-2974
▁regular	-2975
▁Co	-2976
▁II	-2977
▁fixed	-2978
▁slowly	-2979
▁rad	-2980
ashion	-2981
▁floor	-2982
▁filled	-2983
▁consequ	-2984
▁respons	-2985
▁`	-2986
oted	-2987
▁struct	-2988
St	-2989
▁arch	-2990
icate	-2991
▁lif	-2992
▁gall	-2993
ani	-2994
▁Val	-2995
arily	-2996
▁terms	-2997
lem	-2998
▁Gree	-2999
▁perm	-3000
▁Christian	-3001
▁enter	-3002
dot	-3003
▁mot	-3004
▁generally	-3005
nal	-3006
ana	-3007
▁Cour	-3008
▁Sept	-3009
play	-3010
▁beauty	-3011
tt	-3012
ights	-3013
▁trib	-3014
▁First	-3015
▁glass	-3016
▁provided	-3017
osop	-3018
▁text	-3019
oyal	-3020
▁path	-3021
▁correct	-3022
▁national	-3023
▁stopped	-3024
▁Je	-3025
▁Madame	-3026
▁writing	-3027
▁ess	-3028
unk	-3029
▁virt	-3030
▁allow	-3031
▁fing	-3032
▁hardly	-3033
▁scarce	-3034
▁President	-3035
▁neare	-3036
▁society	-3037
▁dam	-3038
▁trem	-3039
asing	-3040
ilities	-3041
▁letters	-3042
▁195	-3043
▁influence	-3044
alys	-3045
esty	-3046
view	-3047
▁reve	-3048
teen	-3049
vent	-3050
▁popular	-3051
umn	-3052
▁General	-3053
▁established	-3054
11	-3055
▁:	-3056
3)	-3057
▁George	-3058
▁lot	-3059
▁needs	-3060
▁sitting	-3061
▁dra	-3062
ources	-3063
anged	-3064
▁tone	-3065
▁civil	-3066
▁claim	-3067
▁Prince	-3068
EL	-3069
▁Paul	-3070
nes	-3071
▁task	-3072
ossible	-3073
▁covered	-3074
▁Up	-3075
▁board	-3076
▁Rich	-3077
▁Russ	-3078
ification	-3079
▁increase	-3080
▁horses	-3081
uel	-3082
▁America	-3083
▁rul	-3084
▁emb	-3085
known	-3086
▁bud	-3087
ander	-3088
▁modern	-3089
▁Im	-3090
ibly	-3091
unch	-3092
▁sett	-3093
▁Jack	-3094
▁waiting	-3095
▁passion	-3096
▁forgot	-3097
75	-3098
oom	-3099
▁wis	-3100
ensive	-3101
▁exclaimed	-3102
▁Our	-3103
▁pack	-3104
▁sides	-3105
US	-3106
▁July	-3107
lement	-3108
matrix	-3109
▁formed	-3110
▁tree	-3111
▁direction	-3112
▁questions	-3113
▁50	-3114
just	-3115
house	-3116
▁gives	-3117
▁id	-3118
▁advant	-3119
▁Church	-3120
▁receive	-3121
noon	-3122
▁Sam	-3123
▁suc	-3124
▁Your	-3125
▁fem	-3126
▁capt	-3127
▁shar	-3128
▁strugg	-3129
urity	-3130
▁policy	-3131
▁bond	-3132
▁credit	-3133
hest	-3134
▁log	-3135
▁James	-3136
▁doctor	-3137
▁events	-3138
▁pull	-3139
iles	-3140
▁prim	-3141
ieur	-3142
▁speech	-3143
▁development	-3144
▁maxim	-3145
▁thick	-3146
▁ur	-3147
▁aver	-3148
lected	-3149
hens	-3150
▁honour	-3151
▁store	-3152
gest	-3153
}$	-3154
arm	-3155
▁David	-3156
▁External	-3157
▁Afr	-3158
▁favor	-3159
▁closed	-3160
▁Mor	-3161
ris	-3162
▁Sim	-3163
iring	-3164
▁succeed	-3165
▁Therefore	-3166
▁changed	-3167
put	-3168
:00	-3169
ober	-3170
▁daily	-3171
▁learned	-3172
▁kill	-3173
▁wait	-3174
zz	-3175
▁$2	-3176
▁Bill	-3177
▁Just	-3178
▁alt	-3179
iable	-3180
▁lives	-3181
▁journey	-3182
uf	-3183
▁track	-3184
▁killed	-3185
)^	-3186
pal	-3187
ocks	-3188
▁rese	-3189
▁poet	-3190
▁member	-3191
14	-3192
▁boat	-3193
▁conditions	-3194
▁24	-3195
▁stat	-3196
▁dream	-3197
▁served	-3198
▁trying	-3199
▁exactly	-3200
▁warm	-3201
ram	-3202
▁neck	-3203
▁easily	-3204
▁September	-3205
chie	-3206
▁running	-3207
▁||	-3208
oved	-3209
umed	-3210
▁William	-3211
▁players	-3212
▁club	-3213
aughed	-3214
▁stone	-3215
cdot	-3216
ancing	-3217
▁rapid	-3218
▁shad	-3219
onsieur	-3220
▁aud	-3221
▁gun	-3222
▁rail	-3223
ointed	-3224
field	-3225
▁race	-3226
lin	-3227
estern	-3228
cle	-3229
▁laughed	-3230
hib	-3231
umber	-3232
born	-3233
▁fal	-3234
▁leaving	-3235
▁van	-3236
▁Nove	-3237
ource	-3238
▁trade	-3239
▁Roman	-3240
▁middle	-3241
▁duty	-3242
▁oblig	-3243
eg	-3244
▁tears	-3245
▁corner	-3246
▁situation	-3247
▁$3	-3248
▁Every	-3249
▁temper	-3250
cast	-3251
▁East	-3252
▁mach	-3253
▁star	-3254
▁stop	-3255
▁foreign	-3256
▁rates	-3257
▁phil	-3258
▁learn	-3259
▁forget	-3260
▁silent	-3261
sec	-3262
▁Great	-3263
▁allowed	-3264
▁ign	-3265
▁January	-3266
▁Spe	-3267
▁fle	-3268
▁percent	-3269
▁tro	-3270
▁grave	-3271
rig	-3272
ett	-3273
aur	-3274
▁Peter	-3275
ares	-3276
▁summer	-3277
▁afternoon	-3278
▁impossible	-3279
iron	-3280
▁buy	-3281
mb	-3282
▁Mark	-3283
▁required	-3284
▁Where	-3285
▁More	-3286
pmatrix	-3287
▁Act	-3288
▁ens	-3289
apter	-3290
▁spent	-3291
▁degree	-3292
▁takes	-3293
ville	-3294
▁official	-3295
▁goes	-3296
▁reading	-3297
ese	-3298
▁AN	-3299
▁require	-3300
▁Part	-3301
▁kiss	-3302
ingu	-3303
icated	-3304
▁military	-3305
▁population	-3306
ether	-3307
▁bott	-3308
alysis	-3309
▁decided	-3310
erc	-3311
how	-3312
?;	-3313
acher	-3314
▁##	-3315
▁April	-3316
▁weeks	-3317
▁liber	-3318
▁rid	-3319
{1	-3320
▁noble	-3321
▁talking	-3322
▁sor	-3323
ellow	-3324
▁guard	-3325
▁charge	-3326
▁usual	-3327
▁directly	-3328
urance	-3329
▁attend	-3330
▁enemy	-3331
hab	-3332
▁model	-3333
▁attract	-3334
▁persons	-3335
▁fit	-3336
▁repeated	-3337
▁region	-3338
▁simply	-3339
="	-3340
ateg	-3341
change	-3342
▁names	-3343
▁cab	-3344
▁Option	-3345
▁surr	-3346
▁forest	-3347
▁usually	-3348
uk	-3349
izing	-3350
rem	-3351
▁job	-3352
▁October	-3353
under	-3354
▁grad	-3355
▁furn	-3356
▁boys	-3357
▁contrib	-3358
▁speaking	-3359
▁cop	-3360
▁ancient	-3361
▁broke	-3362
▁**	-3363
resp	-3364
▁Mich	-3365
▁shot	-3366
▁’	-3367
▁dig	-3368
▁cases	-3369
▁meeting	-3370
anted	-3371
itable	-3372
▁cat	-3373
▁Park	-3374
▁production	-3375
▁gaz	-3376
▁dom	-3377
▁sick	-3378
▁breath	-3379
▁4.	-3380
▁meaning	-3381
emb	-3382
▁spread	-3383
0,	-3384
▁shut	-3385
orough	-3386
ids	-3387
▁Bo	-3388
▁etc	-3389
▁spot	-3390
▁whatever	-3391
▁garden	-3392
▁conversation	-3393
▁arrived	-3394
▁contract	-3395
▁published	-3396
adem	-3397
▁apart	-3398
▁sin	-3399
aging	-3400
▁leading	-3401
▁turning	-3402
▁Prov	-3403
▁available	-3404
▁Mart	-3405
▁beside	-3406
▁weight	-3407
▁changes	-3408
▁Cont	-3409
▁hall	-3410
▁approach	-3411
▁extreme	-3412
▁observed	-3413
sy	-3414
▁sword	-3415
▁County	-3416
▁favour	-3417
pro	-3418
▁net	-3419
▁Mag	-3420
asc	-3421
▁Feb	-3422
▁Yet	-3423
....	-3424
▁minute	-3425
icip	-3426
oken	-3427
▁offered	-3428
uments	-3429
\\\\	-3430
▁Mus	-3431
eal	-3432
appe	-3433
▁tast	-3434
▁Their	-3435
▁dread	-3436
▁beat	-3437
▁evil	-3438
▁check	-3439
▁control	-3440
▁positive	-3441
▁circumstances	-3442
13	-3443
▁November	-3444
▁Off	-3445
▁reach	-3446
▁impact	-3447
▁worked	-3448
▁students	-3449
▁community	-3450
17	-3451
▁needed	-3452
▁Ber	-3453
▁Yes	-3454
atory	-3455
▁engine	-3456
▁search	-3457
▁During	-3458
▁Street	-3459
iqu	-3460
asons	-3461
▁Che	-3462
▁selling	-3463
▁Jer	-3464
▁marriage	-3465
dy	-3466
inite	-3467
IV	-3468
▁histor	-3469
vert	-3470
▁spring	-3471
apt	-3472
omm	-3473
▁excell	-3474
agon	-3475
▁Mac	-3476
▁clean	-3477
▁released	-3478
bly	-3479
▁pun	-3480
ipped	-3481
ael	-3482
ological	-3483
▁Ser	-3484
▁fashion	-3485
ii	-3486
gu	-3487
oring	-3488
▁constit	-3489
nce	-3490
ental	-3491
▁games	-3492
▁access	-3493
ixt	-3494
hered	-3495
morrow	-3496
▁countries	-3497
OL	-3498
▁Queen	-3499
▁complex	-3500
▁rob	-3501
▁spr	-3502
▁parent	-3503
amber	-3504
itiz	-3505
ampions	-3506
▁career	-3507
▁Charles	-3508
▁deriv	-3509
ED	-3510
▁utter	-3511
aph	-3512
▁costs	-3513
▁believed	-3514
ule	-3515
▁Int	-3516
▁Sch	-3517
stood	-3518
▁Black	-3519
▁looks	-3520
ography	-3521
gl	-3522
zen	-3523
onse	-3524
cember	-3525
▁Even	-3526
back	-3527
▁Mil	-3528
▁base	-3529
▁increased	-3530
ev	-3531
▁sand	-3532
vey	-3533
500	-3534
▁pock	-3535
▁wished	-3536
▁flowers	-3537
▁education	-3538
left	-3539
▁train	-3540
▁content	-3541
▁features	-3542
▁Pat	-3543
▁fru	-3544
▁habit	-3545
▁style	-3546
▁Ir	-3547
▁scene	-3548
orthern	-3549
▁Duke	-3550
▁title	-3551
ems	-3552
using	-3553
▁pred	-3554
▁girls	-3555
erous	-3556
▁economy	-3557
▁discovered	-3558
lend	-3559
▁lines	-3560
▁afterwards	-3561
▁Red	-3562
▁magn	-3563
▁threat	-3564
▁pure	-3565
▁memory	-3566
▁inj	-3567
She	-3568
ols	-3569
▁202	-3570
▁performance	-3571
▁iron	-3572
▁,	-3573
▁mel	-3574
▁Court	-3575
▁nation	-3576
▁establish	-3577
ctions	-3578
▁philosop	-3579
fast	-3580
▁European	-3581
▁distinct	-3582
amm	-3583
isions	-3584
▁initial	-3585
▁district	-3586
acing	-3587
▁cloud	-3588
▁speed	-3589
ications	-3590
ulations	-3591
▁companies	-3592
pire	-3593
▁vent	-3594
▁determined	-3595
▁San	-3596
▁concept	-3597
▁od	-3598
▁Port	-3599
▁size	-3600
ruary	-3601
▁193	-3602
▁Bur	-3603
▁evidence	-3604
aming	-3605
▁susp	-3606
▁honor	-3607
▁merely	-3608
apan	-3609
aches	-3610
kin	-3611
▁independ	-3612
iance	-3613
▁debt	-3614
▁entirely	-3615
▁Jim	-3616
Wh	-3617
▁card	-3618
▁instant	-3619
pan	-3620
▁Hall	-3621
ora	-3622
▁Sub	-3623
lection	-3624
▁greatest	-3625
▁refer	-3626
▁movement	-3627
look	-3628
▁picture	-3629
▁somewhat	-3630
▁Tur	-3631
▁perce	-3632
▁caused	-3633
ipp	-3634
▁incl	-3635
vision	-3636
▁range	-3637
▁absolute	-3638
1)	-3639
Not	-3640
itz	-3641
▁Louis	-3642
▁Pal	-3643
▁Sen	-3644
▁Art	-3645
▁fright	-3646
▁houses	-3647
▁actually	-3648
rt	-3649
omen	-3650
▁Thom	-3651
▁quality	-3652
tr	-3653
ician	-3654
▁surprise	-3655
aper	-3656
atives	-3657
▁December	-3658
▁Jew	-3659
▁fol	-3660
▁energy	-3661
▁finished	-3662
▁mentioned	-3663
▁],	-3664
▁mort	-3665
ients	-3666
▁captain	-3667
▁Bel	-3668
▁Mont	-3669
▁ones	-3670
▁prec	-3671
▁novel	-3672
▁apparent	-3673
▁pra	-3674
▁seat	-3675
ID	-3676
▁foc	-3677
▁Cons	-3678
▁destroy	-3679
▁Sund	-3680
▁rise	-3681
▁create	-3682
▁rat	-3683
igned	-3684
osite	-3685
cription	-3686
▁football	-3687
yr	-3688
ias	-3689
▁budget	-3690
▁serious	-3691
▁shout	-3692
▁instit	-3693
▁App	-3694
▁Ste	-3695
▁isn	-3696
▁laws	-3697
▁marry	-3698
▁shore	-3699
▁walls	-3700
▁yield	-3701
alled	-3702
▁supply	-3703
▁Sat	-3704
▁Ben	-3705
:—	-3706
▁0.0	-3707
▁eager	-3708
▁pleased	-3709
This	-3710
▁funds	-3711
ait	-3712
▁Dem	-3713
cript	-3714
▁Hel	-3715
▁wouldn	-3716
▁opportunity	-3717
iar	-3718
book	-3719
clock	-3720
▁escape	-3721
▁February	-3722
pir	-3723
▁bab	-3724
aker	-3725
ulated	-3726
▁scarcely	-3727
▁Who	-3728
▁hero	-3729
▁dry	-3730
▁potential	-3731
▁Good	-3732
▁impl	-3733
▁resol	-3734
▁measure	-3735
ograph	-3736
▁descend	-3737
▁bell	-3738
▁thirty	-3739
OM	-3740
▁wine	-3741
▁Two	-3742
▁Cam	-3743
▁Jud	-3744
▁tour	-3745
▁included	-3746
Do	-3747
ishment	-3748
gel	-3749
▁Japan	-3750
▁Lin	-3751
▁particularly	-3752
▁surface	-3753
▁cell	-3754
▁wealth	-3755
▁appre	-3756
▁passing	-3757
aud	-3758
raz	-3759
▁White	-3760
ideo	-3761
▁maid	-3762
▁grace	-3763
▁sex	-3764
▁rain	-3765
rav	-3766
ault	-3767
▁Win	-3768
▁hom	-3769
▁Henry	-3770
▁understood	-3771
idden	-3772
▁drawing	-3773
▁ring	-3774
▁height	-3775
▁average	-3776
▁results	-3777
▁principal	-3778
▁reb	-3779
▁notice	-3780
▁mountain	-3781
▁color	-3782
retched	-3783
▁Jose	-3784
AC	-3785
▁fro	-3786
peror	-3787
▁admin	-3788
▁doesn	-3789
ago	-3790
▁Emily	-3791
▁drawn	-3792
▁College	-3793
time	-3794
▁achie	-3795
▁beneath	-3796
ips	-3797
▁Ac	-3798
aked	-3799
ration	-3800
▁perfectly	-3801
▁empt	-3802
respond	-3803
▁intellig	-3804
▁understanding	-3805
5)	-3806
ipe	-3807
urb	-3808
▁cup	-3809
▁History	-3810
▁shown	-3811
▁units	-3812
▁police	-3813
▁happiness	-3814
math	-3815
irgin	-3816
▁Dep	-3817
▁Wil	-3818
▁tender	-3819
▁21	-3820
▁fortune	-3821
EC	-3822
Right	-3823
▁coach	-3824
▁earli	-3825
▁declared	-3826
▁experien	-3827
▁advantage	-3828
▁40	-3829
▁ladies	-3830
▁wants	-3831
▁tar	-3832
rency	-3833
▁rule	-3834
▁double	-3835
▁practice	-3836
▁tall	-3837
▁passage	-3838
▁remains	-3839
▁pleasant	-3840
▁false	-3841
gment	-3842
▁described	-3843
Is	-3844
ENT	-3845
▁lean	-3846
▁leaves	-3847
cies	-3848
▁bow	-3849
▁worse	-3850
pered	-3851
▁pale	-3852
▁choose	-3853
mit	-3854
▁Old	-3855
▁aim	-3856
ested	-3857
▁remaining	-3858
24	-3859
▁advent	-3860
▁moon	-3861
▁stro	-3862
▁forms	-3863
▁TO	-3864
▁calm	-3865
▁hang	-3866
▁stage	-3867
▁Law	-3868
▁rare	-3869
▁wise	-3870
▁soldiers	-3871
▁gar	-3872
▁agree	-3873
▁forced	-3874
icles	-3875
outhern	-3876
▁spoken	-3877
▁balance	-3878
▁quant	-3879
▁industry	-3880
_{	-3881
ware	-3882
▁coast	-3883
▁proud	-3884
▁prevent	-3885
▁related	-3886
▁supposed	-3887
elle	-3888
▁page	-3889
▁Rome	-3890
▁chall	-3891
▁terrible	-3892
ashed	-3893
no	-3894
\\%	-3895
gypt	-3896
▁Mal	-3897
▁west	-3898
▁dropped	-3899
iliar	-3900
▁Island	-3901
▁couldn	-3902
▁clothes	-3903
onel	-3904
▁article	-3905
antic	-3906
ironment	-3907
▁faces	-3908
▁fifty	-3909
▁Lu	-3910
▁doc	-3911
▁sky	-3912
▁ideas	-3913
ishop	-3914
▁2006	-3915
▁orders	-3916
ION	-3917
rian	-3918
▁lack	-3919
▁difficulty	-3920
ari	-3921
–19	-3922
▁Prin	-3923
▁Government	-3924
rees	-3925
▁Arab	-3926
▁Order	-3927
▁holding	-3928
elve	-3929
oups	-3930
▁reply	-3931
ching	-3932
▁phot	-3933
▁snow	-3934
▁narrow	-3935
▁amb	-3936
▁bitter	-3937
astic	-3938
▁benef	-3939
▁joined	-3940
omb	-3941
▁bod	-3942
essor	-3943
▁dism	-3944
▁multip	-3945
▁India	-3946
ka	-3947
ulf	-3948
▁sake	-3949
▁Egypt	-3950
▁square	-3951
▁matters	-3952
▁throughout	-3953
Ah	-3954
she	-3955
Then	-3956
▁improve	-3957
▁distrib	-3958
▁Mer	-3959
▁ears	-3960
▁promise	-3961
rael	-3962
ension	-3963
▁distingu	-3964
lebr	-3965
▁maintain	-3966
ico	-3967
imately	-3968
▁authority	-3969
▁Other	-3970
uls	-3971
acity	-3972
▁states	-3973
equ	-3974
iny	-3975
▁wid	-3976
▁bottom	-3977
hem	-3978
▁hill	-3979
▁uncle	-3980
▁motion	-3981
▁correspond	-3982
ocked	-3983
▁River	-3984
▁response	-3985
arsh	-3986
▁hunt	-3987
▁justice	-3988
▁symp	-3989
▁$\	-3990
▁derivative	-3991
olic	-3992
▁judge	-3993
▁winter	-3994
▁instance	-3995
▁sch	-3996
▁blind	-3997
▁threw	-3998
▁withd	-3999
▁According	-4000
▁wand	-4001
▁Richard	-4002
Don	-4003
▁XX	-4004
▁created	-4005
▁Ann	-4006
▁spite	-4007
▁research	-4008
gen	-4009
ajesty	-4010
▁citiz	-4011
▁drive	-4012
▁announced	-4013
▁aston	-4014
▁pa	-4015
burg	-4016
▁progress	-4017
ading	-4018
Rightarrow	-4019
▁1,	-4020
▁Serv	-4021
▁inside	-4022
▁existence	-4023
▁hes	-4024
▁heat	-4025
isters	-4026
▁earned	-4027
▁animals	-4028
▁Union	-4029
enth	-4030
▁male	-4031
rant	-4032
):	-4033
▁pet	-4034
▁formula	-4035
▁Div	-4036
▁lying	-4037
▁plant	-4038
▁courage	-4039
inal	-4040
▁Rec	-4041
▁heads	-4042
▁serve	-4043
▁lose	-4044
▁finally	-4045
▁playing	-4046
▁entertain	-4047
▁opening	-4048
bon	-4049
▁pair	-4050
▁cheer	-4051
▁conscious	-4052
ais	-4053
▁qual	-4054
LE	-4055
▁\\$	-4056
▁adop	-4057
▁highest	-4058
▁analysis	-4059
▁Ital	-4060
icious	-4061
▁sales	-4062
ads	-4063
▁role	-4064
▁consum	-4065
▁pieces	-4066
Now	-4067
▁wear	-4068
ounding	-4069
▁unknown	-4070
▁fully	-4071
▁sorry	-4072
▁grass	-4073
▁moving	-4074
▁•	-4075
▁stick	-4076
▁confidence	-4077
▁ves	-4078
▁unless	-4079
▁cook	-4080
▁located	-4081
They	-4082
▁twice	-4083
▁wel	-4084
▁emer	-4085
ifying	-4086
▁assistant	-4087
iday	-4088
▁effort	-4089
▁science	-4090
aign	-4091
▁Coun	-4092
ogether	-4093
abor	-4094
year	-4095
▁plat	-4096
▁tradition	-4097
liament	-4098
▁smiled	-4099
ending	-4100
▁collect	-4101
gle	-4102
33	-4103
olf	-4104
▁inhab	-4105
▁Israel	-4106
▁subs	-4107
ta	-4108
van	-4109
orne	-4110
▁Are	-4111
▁Sol	-4112
▁produce	-4113
▁roy	-4114
▁gate	-4115
▁exerc	-4116
▁labor	-4117
eed	-4118
▁192	-4119
▁today	-4120
chan	-4121
culiar	-4122
▁sharp	-4123
anish	-4124
▁wonderful	-4125
▁deb	-4126
ortion	-4127
▁honest	-4128
▁storm	-4129
▁League	-4130
▁player	-4131
▁rights	-4132
▁pick	-4133
▁shook	-4134
ords	-4135
▁admir	-4136
▁...	-4137
▁saf	-4138
▁Germany	-4139
ulous	-4140
▁2000	-4141
▁income	-4142
▁finding	-4143
▁officer	-4144
▁opposite	-4145
▁thank	-4146
▁weather	-4147
▁products	-4148
▁Franc	-4149
▁prince	-4150
▁decision	-4151
iforn	-4152
▁Frank	-4153
▁theory	-4154
tw	-4155
▁previous	-4156
▁Sal	-4157
▁east	-4158
▁breast	-4159
▁presented	-4160
rain	-4161
▁gro	-4162
▁tail	-4163
▁appears	-4164
▁Total	-4165
▁peculiar	-4166
oned	-4167
oms	-4168
▁vain	-4169
▁vast	-4170
▁animal	-4171
▁servant	-4172
▁23	-4173
oles	-4174
▁officers	-4175
▁Robert	-4176
▁message	-4177
▁prices	-4178
▁curious	-4179
8)	-4180
erable	-4181
▁shows	-4182
▁disappe	-4183
ufact	-4184
▁stir	-4185
▁simpl	-4186
iven	-4187
▁tong	-4188
▁settle	-4189
▁largest	-4190
▁ordered	-4191
isl	-4192
▁instr	-4193
▁thin	-4194
▁Sunday	-4195
▁Such	-4196
▁People	-4197
▁prepared	-4198
▁Sl	-4199
iently	-4200
▁ow	-4201
▁Mid	-4202
▁encour	-4203
▁witness	-4204
pet	-4205
▁tim	-4206
▁cool	-4207
▁sen	-4208
▁tal	-4209
ker	-4210
oop	-4211
umph	-4212
▁Add	-4213
order	-4214
ederal	-4215
▁imper	-4216
▁interp	-4217
▁additional	-4218
hington	-4219
nat	-4220
▁protect	-4221
▁celebr	-4222
▁invested	-4223
aval	-4224
which	-4225
▁$4	-4226
▁Cong	-4227
▁loud	-4228
▁familiar	-4229
▁burst	-4230
▁Pet	-4231
▁yellow	-4232
▁ourselves	-4233
▁continue	-4234
▁significant	-4235
bf	-4236
ria	-4237
▁inte	-4238
▁standard	-4239
acle	-4240
▁186	-4241
▁stranger	-4242
estic	-4243
▁bare	-4244
▁site	-4245
▁developed	-4246
▁fill	-4247
▁glob	-4248
▁groups	-4249
▁vessel	-4250
▁growing	-4251
▁shoulder	-4252
▁sail	-4253
▁professional	-4254
4)	-4255
▁proof	-4256
▁glance	-4257
▁27	-4258
verse	-4259
▁catch	-4260
▁rout	-4261
▁valley	-4262
fortun	-4263
▁subst	-4264
▁aware	-4265
▁Californ	-4266
▁Pri	-4267
▁concl	-4268
▁fancy	-4269
▁plants	-4270
agn	-4271
▁watched	-4272
▁Str	-4273
▁Scot	-4274
!—	-4275
2}	-4276
iation	-4277
stitute	-4278
▁Gold	-4279
▁Canada	-4280
▁advice	-4281
▁failed	-4282
▁promised	-4283
▁excellent	-4284
▁importance	-4285
▁Bu	-4286
▁brief	-4287
▁values	-4288
▁options	-4289
OT	-4290
lymp	-4291
▁Many	-4292
▁bull	-4293
Ch	-4294
▁writ	-4295
▁transl	-4296
▁Cath	-4297
▁accompl	-4298
▁surprised	-4299
esh	-4300
▁dim	-4301
▁(200	-4302
itc	-4303
▁conqu	-4304
▁IN	-4305
aret	-4306
▁nine	-4307
▁seek	-4308
▁consist	-4309
▁knowing	-4310
embered	-4311
▁fallen	-4312
To	-4313
▁Day	-4314
▁fish	-4315
ground	-4316
▁Father	-4317
▁determine	-4318
▁Dick	-4319
▁beast	-4320
▁central	-4321
III	-4322
bar	-4323
▁volume	-4324
rid	-4325
▁spect	-4326
do	-4327
▁flat	-4328
▁freed	-4329
▁minim	-4330
▁streets	-4331
▁creature	-4332
▁darkness	-4333
board	-4334
▁shop	-4335
▁forgotten	-4336
▁Scott	-4337
aling	-4338
asket	-4339
▁Olymp	-4340
▁assem	-4341
▁ended	-4342
▁royal	-4343
▁twelve	-4344
▁Washington	-4345
▁ain	-4346
▁priest	-4347
▁advanced	-4348
IR	-4349
anks	-4350
▁intended	-4351
▁affection	-4352
▁conclud	-4353
▁choice	-4354
▁international	-4355
▁eld	-4356
▁Brown	-4357
▁rough	-4358
▁pocket	-4359
ampionship	-4360
ded	-4361
urally	-4362
▁recomm	-4363
▁religion	-4364
▁fier	-4365
▁rising	-4366
▁safety	-4367
▁president	-4368
?'	-4369
oices	-4370
worth	-4371
▁Under	-4372
iments	-4373
▁Trans	-4374
▁version	-4375
▁pit	-4376
▁murm	-4377
▁review	-4378
▁crown	-4379
▁fault	-4380
▁explained	-4381
▁International	-4382
▁bag	-4383
▁farm	-4384
▁banks	-4385
▁Michael	-4386
UR	-4387
▁Ham	-4388
▁Pre	-4389
appro	-4390
ilies	-4391
▁empty	-4392
▁Before	-4393
▁nice	-4394
▁Rob	-4395
6)	-4396
ym	-4397
▁22	-4398
enses	-4399
stone	-4400
▁Prof	-4401
bing	-4402
tion	-4403
▁tor	-4404
▁roof	-4405
▁depos	-4406
ospital	-4407
▁resist	-4408
▁shoulders	-4409
ette	-4410
▁exceed	-4411
▁settled	-4412
sey	-4413
▁commer	-4414
▁famous	-4415
▁bi	-4416
▁behav	-4417
▁display	-4418
▁terror	-4419
UM	-4420
▁\\\\	-4421
▁shadow	-4422
▁observ	-4423
▁greatly	-4424
gs	-4425
▁date	-4426
▁plans	-4427
▁Thomas	-4428
▁Mount	-4429
▁gentlemen	-4430
▁management	-4431
▁relationship	-4432
▁28	-4433
▁entr	-4434
▁remembered	-4435
▁ge	-4436
▁clim	-4437
▁forces	-4438
▁talked	-4439
ino	-4440
▁factors	-4441
▁possess	-4442
▁190	-4443
▁mir	-4444
▁dust	-4445
▁walking	-4446
▁Ah	-4447
▁lod	-4448
▁reflect	-4449
▁California	-4450
asure	-4451
enced	-4452
▁skin	-4453
:2	-4454
▁returns	-4455
▁agreed	-4456
▁waited	-4457
▁diss	-4458
▁forty	-4459
▁resem	-4460
▁couple	-4461
▁ende	-4462
▁legs	-4463
overy	-4464
itated	-4465
▁Company	-4466
tering	-4467
▁suspect	-4468
▁faint	-4469
▁possession	-4470
▁defe	-4471
▁sons	-4472
▁innoc	-4473
▁Grand	-4474
▁larger	-4475
▁Us	-4476
▁affairs	-4477
▁Each	-4478
▁stream	-4479
▁suffer	-4480
▁appointed	-4481
osen	-4482
▁park	-4483
▁thro	-4484
▁Lat	-4485
▁lies	-4486
▁proved	-4487
▁religious	-4488
va	-4489
cip	-4490
▁Out	-4491
▁expressed	-4492
▁shape	-4493
▁manufact	-4494
▁powerful	-4495
▁sufficient	-4496
place	-4497
mathbf	-4498
▁brown	-4499
▁happen	-4500
▁becomes	-4501
▁hit	-4502
▁obliged	-4503
▁numerous	-4504
▁compar	-4505
▁prefer	-4506
eping	-4507
▁dece	-4508
oos	-4509
▁du	-4510
▁prove	-4511
▁interested	-4512
▁Bank	-4513
▁particip	-4514
90	-4515
▁5.	-4516
▁cow	-4517
{1}{	-4518
▁unf	-4519
uting	-4520
▁issue	-4521
▁shame	-4522
iber	-4523
▁webs	-4524
▁shoot	-4525
▁breakfast	-4526
▁tick	-4527
istration	-4528
lt	-4529
▁Dis	-4530
begin	-4531
isher	-4532
win	-4533
▁recent	-4534
rence	-4535
▁endeav	-4536
\\!	-4537
▁ash	-4538
▁ignor	-4539
▁suffered	-4540
urd	-4541
▁areas	-4542
▁Joseph	-4543
▁presently	-4544
▁26	-4545
vest	-4546
▁Jul	-4547
▁grown	-4548
ye	-4549
▁match	-4550
▁Air	-4551
▁explain	-4552
eer	-4553
▁List	-4554
▁Saint	-4555
▁female	-4556
▁splend	-4557
▁Never	-4558
▁sacrif	-4559
▁carriage	-4560
▁Arch	-4561
▁unit	-4562
idently	-4563
oph	-4564
▁$5	-4565
▁mai	-4566
rated	-4567
▁dign	-4568
▁pity	-4569
▁Monsieur	-4570
▁harm	-4571
▁travel	-4572
▁machine	-4573
ros	-4574
▁Smith	-4575
▁Virgin	-4576
▁completely	-4577
▁introduced	-4578
fol	-4579
▁fruit	-4580
▁pounds	-4581
▁leaders	-4582
▁discover	-4583
▁environment	-4584
utive	-4585
▁guess	-4586
▁newsp	-4587
▁pride	-4588
atively	-4589
',	-4590
▁Mat	-4591
▁highly	-4592
rose	-4593
▁Bet	-4594
standing	-4595
▁carefully	-4596
▁suggested	-4597
▁huge	-4598
▁frame	-4599
▁contem	-4600
▁smo	-4601
ardon	-4602
▁effects	-4603
▁fee	-4604
▁telling	-4605
▁watching	-4606
ORD	-4607
lor	-4608
▁advance	-4609
▁arrange	-4610
hand	-4611
▁Thr	-4612
▁Ke	-4613
▁Stud	-4614
▁goods	-4615
▁papers	-4616
imp	-4617
mas	-4618
▁dise	-4619
▁details	-4620
▁(20	-4621
▁edge	-4622
acious	-4623
ittee	-4624
▁coff	-4625
▁angry	-4626
▁video	-4627
theless	-4628
▁companion	-4629
▁avoid	-4630
ception	-4631
▁sought	-4632
▁Italian	-4633
▁Ver	-4634
▁blow	-4635
▁exhib	-4636
▁divided	-4637
▁cruel	-4638
century	-4639
▁listen	-4640
▁exchange	-4641
▁60	-4642
▁Jes	-4643
▁Italy	-4644
▁mountains	-4645
▁Only	-4646
▁activ	-4647
▁noise	-4648
quis	-4649
asy	-4650
ulate	-4651
▁taste	-4652
▁putting	-4653
▁structure	-4654
▁interesting	-4655
▁brain	-4656
▁mighty	-4657
ero	-4658
see	-4659
▁Men	-4660
athered	-4661
▁efforts	-4662
▁monthly	-4663
kes	-4664
▁aside	-4665
▁birds	-4666
▁upper	-4667
ourse	-4668
▁bold	-4669
▁windows	-4670
▁characters	-4671
▁otherwise	-4672
▁crossed	-4673
▁reported	-4674
illy	-4675
▁tea	-4676
▁China	-4677
▁engaged	-4678
▁Ire	-4679
▁belief	-4680
▁physical	-4681
▁besides	-4682
▁obtained	-4683
terday	-4684
▁active	-4685
▁flight	-4686
▁quietly	-4687
▁servants	-4688
omp	-4689
icted	-4690
▁luck	-4691
—"	-4692
▁Jac	-4693
▁brand	-4694
itect	-4695
▁noticed	-4696
illa	-4697
▁explan	-4698
▁anxious	-4699
▁Although	-4700
▁superior	-4701
▁altogether	-4702
kins	-4703
▁Once	-4704
▁Greek	-4705
▁types	-4706
▁native	-4707
7)	-4708
▁dare	-4709
▁consult	-4710
▁loan	-4711
▁learning	-4712
▁marked	-4713
▁nearest	-4714
▁successful	-4715
etic	-4716
▁ded	-4717
ef	-4718
▁rank	-4719
▁ceased	-4720
▁//	-4721
▁wasn	-4722
▁platform	-4723
▁student	-4724
lly	-4725
▁cere	-4726
▁feelings	-4727
▁Del	-4728
▁ships	-4729
▁probability	-4730
▁Royal	-4731
▁campaign	-4732
mark	-4733
▁hurt	-4734
▁grat	-4735
▁arrest	-4736
▁golden	-4737
orous	-4738
▁drag	-4739
▁afford	-4740
▁altern	-4741
▁refused	-4742
▁involved	-4743
▁individuals	-4744
99	-4745
▁purs	-4746
▁keeping	-4747
▁considerable	-4748
▁ST	-4749
▁fond	-4750
▁Cast	-4751
▁college	-4752
SE	-4753
▁liked	-4754
▁teeth	-4755
▁undert	-4756
▁mechan	-4757
▁fingers	-4758
▁ordinary	-4759
can	-4760
▁scient	-4761
▁Martin	-4762
▁touched	-4763
▁Republic	-4764
▁occurred	-4765
▁aid	-4766
cknow	-4767
▁ing	-4768
icial	-4769
▁Chapter	-4770
▁variety	-4771
▁ice	-4772
ivered	-4773
▁saved	-4774
▁suppl	-4775
▁obtain	-4776
▁moral	-4777
▁demon	-4778
▁yours	-4779
ushing	-4780
▁worthy	-4781
ya	-4782
▁concer	-4783
▁helped	-4784
▁supper	-4785
▁Council	-4786
▁enemies	-4787
▁statement	-4788
As	-4789
**:	-4790
mond	-4791
▁chamber	-4792
▁Inc	-4793
▁sorrow	-4794
ores	-4795
▁libr	-4796
▁brave	-4797
▁dwell	-4798
▁follows	-4799
▁willing	-4800
▁implement	-4801
▁AND	-4802
▁alive	-4803
▁bought	-4804
▁divide	-4805
▁Australia	-4806
new	-4807
lemn	-4808
▁lat	-4809
▁solve	-4810
mony	-4811
oogle	-4812
▁prem	-4813
uated	-4814
▁reasons	-4815
▁doct	-4816
▁summ	-4817
▁flo	-4818
▁coat	-4819
more	-4820
▁haven	-4821
▁pointed	-4822
▁thorough	-4823
annel	-4824
▁amaz	-4825
▁Rom	-4826
▁goal	-4827
▁hide	-4828
▁troops	-4829
▁earlier	-4830
▁earnest	-4831
▁hearing	-4832
▁accident	-4833
▁compared	-4834
▁frequently	-4835
▁acknow	-4836
▁driven	-4837
▁thrown	-4838
▁pan	-4839
▁Another	-4840
▁portion	-4841
▁sympath	-4842
▁occupied	-4843
icro	-4844
▁proposed	-4845
chief	-4846
▁depth	-4847
▁label	-4848
▁accepted	-4849
So	-4850
▁Sil	-4851
▁compre	-4852
▁currency	-4853
▁1:	-4854
▁Fil	-4855
▁Its	-4856
▁Mex	-4857
▁vac	-4858
BC	-4859
wr	-4860
▁palace	-4861
▁kingdom	-4862
law	-4863
▁Er	-4864
▁(18	-4865
▁Cur	-4866
while	-4867
▁solemn	-4868
▁setting	-4869
ste	-4870
▁drop	-4871
idents	-4872
▁bridge	-4873
▁triumph	-4874
▁Bay	-4875
▁gather	-4876
▁desired	-4877
▁Somet	-4878
▁persu	-4879
▁mutual	-4880
itar	-4881
▁Long	-4882
attered	-4883
▁aspect	-4884
▁colour	-4885
lease	-4886
▁interrupt	-4887
▁bless	-4888
▁includes	-4889
coln	-4890
▁Spanish	-4891
▁Rev	-4892
▁jump	-4893
enge	-4894
imal	-4895
orted	-4896
▁2:	-4897
▁rub	-4898
▁Come	-4899
▁Most	-4900
▁reck	-4901
▁seized	-4902
▁contact	-4903
An	-4904
▁rej	-4905
uries	-4906
▁dangerous	-4907
▁Vol	-4908
culate	-4909
▁tired	-4910
▁powers	-4911
▁taught	-4912
▁designed	-4913
▁interview	-4914
All	-4915
▁facts	-4916
▁removed	-4917
there	-4918
utation	-4919
▁parents	-4920
▁training	-4921
artment	-4922
istrict	-4923
▁cities	-4924
▁tongue	-4925
yer	-4926
▁Sar	-4927
▁lit	-4928
▁spl	-4929
▁crime	-4930
▁Perhaps	-4931
▁liberty	-4932
▁>	-4933
▁Cup	-4934
cause	-4935
▁nod	-4936
▁connect	-4937
▁distant	-4938
▁becoming	-4939
atre	-4940
inet	-4941
▁unh	-4942
usted	-4943
▁source	-4944
▁gathered	-4945
▁Conf	-4946
▁Associ	-4947
▁security	-4948
berg	-4949
▁remind	-4950
▁inhabit	-4951
▁Jo	-4952
▁fan	-4953
▁cakes	-4954
Obs	-4955
▁Book	-4956
▁contrary	-4957
▁fate	-4958
▁writer	-4959
▁stories	-4960
70	-4961
▁request	-4962
▁minister	-4963
rol	-4964
then	-4965
▁insurance	-4966
▁succeeded	-4967
▁ride	-4968
▁merch	-4969
▁regarded	-4970
▁smoke	-4971
▁severe	-4972
▁equally	-4973
otes	-4974
▁Had	-4975
erted	-4976
▁listened	-4977
ilst	-4978
▁pursu	-4979
▁na	-4980
▁critic	-4981
▁families	-4982
▁neighbour	-4983
▁legal	-4984
▁Lincoln	-4985
▁television	-4986
ban	-4987
▁trail	-4988
▁informed	-4989
▁III	-4990
▁wed	-4991
▁judgment	-4992
pri	-4993
▁mas	-4994
▁ren	-4995
orter	-4996
▁accur	-4997
▁fourth	-4998
▁acquaint	-4999
OW	-5000
▁code	-5001
▁hotel	-5002
▁bodies	-5003
▁remarked	-5004
▁3:	-5005
leep	-5006
utch	-5007
▁sem	-5008
▁Master	-5009
▁Next	-5010
▁chosen	-5011
▁spending	-5012
&?;	-5013
▁illust	-5014
▁lifted	-5015
▁dressed	-5016
▁Little	-5017
ugg	-5018
▁Whe	-5019
▁baby	-5020
Ex	-5021
▁estate	-5022
▁myster	-5023
ims	-5024
▁(2	-5025
itchen	-5026
▁Given	-5027
▁stars	-5028
▁online	-5029
useum	-5030
▁website	-5031
▁Wal	-5032
▁Love	-5033
▁busy	-5034
ESS	-5035
hus	-5036
▁gain	-5037
angers	-5038
▁section	-5039
appy	-5040
▁mission	-5041
▁moments	-5042
▁satisfied	-5043
▁transport	-5044
▁500	-5045
▁fields	-5046
▁suspic	-5047
▁Society	-5048
▁soldier	-5049
▁solution	-5050
rate	-5051
▁muff	-5052
▁actual	-5053
▁Bes	-5054
▁lic	-5055
▁uns	-5056
erves	-5057
unicip	-5058
▁midst	-5059
▁centre	-5060
▁freedom	-5061
▁systems	-5062
▁Bro	-5063
For	-5064
udd	-5065
inent	-5066
▁Vict	-5067
▁truly	-5068
▁Francis	-5069
▁maximum	-5070
▁instruct	-5071
▁pictures	-5072
▁inflation	-5073
▁aband	-5074
▁instinct	-5075
cel	-5076
▁surv	-5077
32	-5078
▁Jane	-5079
▁weap	-5080
▁swift	-5081
▁handsome	-5082
ida	-5083
▁Mel	-5084
press	-5085
▁scen	-5086
▁earnings	-5087
▁whispered	-5088
▁rooms	-5089
▁investig	-5090
▁Congress	-5091
▁Ly	-5092
▁solid	-5093
▁disapp	-5094
▁Green	-5095
▁smaller	-5096
▁Hol	-5097
▁tum	-5098
▁bron	-5099
▁completed	-5100
-2	-5101
cont	-5102
izes	-5103
▁vig	-5104
▁bore	-5105
▁odd	-5106
▁staff	-5107
▁victory	-5108
ext	-5109
▁Bi	-5110
▁Cy	-5111
▁cous	-5112
pected	-5113
▁election	-5114
Let	-5115
▁nose	-5116
▁tells	-5117
▁throw	-5118
▁target	-5119
▁performed	-5120
▁constant	-5121
iest	-5122
▁Inst	-5123
▁Marg	-5124
▁films	-5125
▁naturally	-5126
icks	-5127
▁Ter	-5128
▁devil	-5129
▁rend	-5130
▁delay	-5131
▁clearly	-5132
▁carrying	-5133
▁household	-5134
abb	-5135
▁Dan	-5136
▁deliver	-5137
▁fly	-5138
▁useful	-5139
▁Russian	-5140
▁calling	-5141
▁payment	-5142
▁practical	-5143
▁knees	-5144
▁applied	-5145
▁release	-5146
▁District	-5147
ena	-5148
▁rode	-5149
▁accompan	-5150
▁critical	-5151
▁Club	-5152
▁spirits	-5153
▁yesterday	-5154
▁proportion	-5155
inese	-5156
osure	-5157
▁brill	-5158
▁unable	-5159
▁univers	-5160
100	-5161
▁directed	-5162
▁Fred	-5163
▁frag	-5164
▁raise	-5165
▁secure	-5166
▁virtue	-5167
▁imagine	-5168
▁extraord	-5169
enny	-5170
▁affair	-5171
▁demanded	-5172
▁Over	-5173
▁rent	-5174
▁figures	-5175
!'	-5176
▁ben	-5177
▁driving	-5178
▁collection	-5179
▁188	-5180
▁intellect	-5181
add	-5182
▁2005	-5183
▁suit	-5184
och	-5185
▁Ang	-5186
bre	-5187
amer	-5188
▁closely	-5189
▁associated	-5190
▁cy	-5191
▁queen	-5192
9)	-5193
uce	-5194
▁Ev	-5195
▁Western	-5196
▁limited	-5197
▁Parliament	-5198
mar	-5199
bour	-5200
▁hyp	-5201
iverse	-5202
▁parties	-5203
▁separate	-5204
▁Land	-5205
▁Year	-5206
▁contain	-5207
▁possibly	-5208
▁gas	-5209
▁Africa	-5210
▁Heaven	-5211
▁emotion	-5212
▁pu	-5213
▁older	-5214
▁excited	-5215
▁resources	-5216
▁notes	-5217
▁ability	-5218
approx	-5219
▁Carol	-5220
▁doors	-5221
arted	-5222
▁bent	-5223
▁block	-5224
▁offers	-5225
▁compounded	-5226
▁AI	-5227
▁Did	-5228
▁mal	-5229
▁revol	-5230
▁rapidly	-5231
▁189	-5232
▁analy	-5233
▁mistress	-5234
▁activity	-5235
▁apparently	-5236
▁Any	-5237
▁unw	-5238
▁absence	-5239
35	-5240
▁Cle	-5241
▁cro	-5242
ounce	-5243
▁Hill	-5244
▁wore	-5245
▁issues	-5246
▁relief	-5247
▁showing	-5248
eless	-5249
▁slightly	-5250
RI	-5251
la	-5252
ita	-5253
▁UK	-5254
umes	-5255
istry	-5256
▁Still	-5257
▁murder	-5258
66	-5259
▁falling	-5260
▁remarkable	-5261
▁$8	-5262
rial	-5263
▁bid	-5264
▁dogs	-5265
▁myst	-5266
▁ratio	-5267
edy	-5268
▁ast	-5269
pelled	-5270
▁image	-5271
▁Ireland	-5272
▁friendship	-5273
▁impression	-5274
oking	-5275
▁LORD	-5276
entions	-5277
▁operations	-5278
ns	-5279
▁Life	-5280
▁Army	-5281
▁indign	-5282
▁leader	-5283
▁forb	-5284
porary	-5285
▁Which	-5286
▁dance	-5287
Come	-5288
cean	-5289
▁counten	-5290
▁resolved	-5291
cles	-5292
ailed	-5293
▁gray	-5294
▁Const	-5295
▁Spain	-5296
▁ahead	-5297
▁glory	-5298
▁fighting	-5299
bury	-5300
orse	-5301
▁patient	-5302
▁laughing	-5303
▁fet	-5304
▁fart	-5305
▁pros	-5306
▁Met	-5307
ishes	-5308
▁Have	-5309
▁borrow	-5310
▁fortun	-5311
▁provides	-5312
ses	-5313
▁exped	-5314
▁employed	-5315
anny	-5316
rier	-5317
▁Bell	-5318
▁dull	-5319
▁smiling	-5320
▁subsequ	-5321
▁struggle	-5322
▁Sum	-5323
▁worst	-5324
▁circle	-5325
▁Australian	-5326
lls	-5327
nel	-5328
▁surely	-5329
▁affected	-5330
▁principle	-5331
obs	-5332
▁Mem	-5333
▁Jean	-5334
▁Look	-5335
▁sells	-5336
▁interests	-5337
aved	-5338
▁Nat	-5339
▁hence	-5340
▁impat	-5341
▁seated	-5342
▁domestic	-5343
▁connected	-5344
org	-5345
uten	-5346
▁Dou	-5347
▁Rem	-5348
▁Again	-5349
▁hills	-5350
▁evidently	-5351
▁stands	-5352
}}	-5353
mod	-5354
▁Pen	-5355
▁pill	-5356
▁Having	-5357
▁strike	-5358
▁counter	-5359
▁elements	-5360
har	-5361
host	-5362
▁san	-5363
▁embr	-5364
▁waters	-5365
▁Central	-5366
▁friendly	-5367
ache	-5368
ream	-5369
▁Bon	-5370
▁asking	-5371
▁wicked	-5372
EM	-5373
isp	-5374
char	-5375
▁Fort	-5376
▁treatment	-5377
▁concerning	-5378
▁smooth	-5379
▁admitted	-5380
ties	-5381
▁Major	-5382
▁award	-5383
▁hidden	-5384
▁stated	-5385
▁explanation	-5386
▁represented	-5387
oir	-5388
When	-5389
▁Mod	-5390
inging	-5391
▁gloom	-5392
▁limit	-5393
▁managed	-5394
ki	-5395
—“	-5396
▁Fore	-5397
▁hopes	-5398
▁anyone	-5399
orious	-5400
▁convin	-5401
▁gained	-5402
iture	-5403
▁boot	-5404
▁hate	-5405
▁nations	-5406
▁considering	-5407
arts	-5408
▁anger	-5409
▁domin	-5410
▁extent	-5411
▁select	-5412
▁schools	-5413
▁Calculate	-5414
▁prior	-5415
▁kitchen	-5416
))	-5417
Good	-5418
▁hol	-5419
▁Also	-5420
▁copy	-5421
▁confl	-5422
▁artist	-5423
▁pulled	-5424
▁Chinese	-5425
▁expense	-5426
▁Like	-5427
▁Road	-5428
▁amid	-5429
▁lamp	-5430
omer	-5431
▁flesh	-5432
▁nobody	-5433
▁citizens	-5434
▁Foot	-5435
▁loaves	-5436
avy	-5437
▁obst	-5438
▁possessed	-5439
kind	-5440
▁Den	-5441
▁Squ	-5442
▁bot	-5443
▁pin	-5444
▁shel	-5445
▁rocks	-5446
▁woods	-5447
▁Dun	-5448
▁vision	-5449
▁Ell	-5450
▁Mond	-5451
▁Harry	-5452
▁satisfaction	-5453
Pro	-5454
long	-5455
▁schol	-5456
▁flower	-5457
▁Canadian	-5458
AP	-5459
▁Bre	-5460
▁Three	-5461
▁drove	-5462
▁holy	-5463
bridge	-5464
▁Charl	-5465
▁chest	-5466
▁regret	-5467
▁intention	-5468
▁independent	-5469
▁Eliz	-5470
▁keen	-5471
▁Doctor	-5472
45	-5473
cos	-5474
iot	-5475
uate	-5476
nament	-5477
▁begun	-5478
▁rules	-5479
▁despair	-5480
▁technology	-5481
38	-5482
▁songs	-5483
▁legisl	-5484
▁multiple	-5485
▁conclusion	-5486
Who	-5487
▁Bal	-5488
▁err	-5489
▁fer	-5490
▁epis	-5491
▁hearts	-5492
▁everybody	-5493
▁approx	-5494
▁treated	-5495
▁grief	-5496
▁slave	-5497
▁transfer	-5498
DP	-5499
met	-5500
▁Di	-5501
oser	-5502
uter	-5503
▁reduced	-5504
▁repro	-5505
▁benefit	-5506
▁une	-5507
▁bringing	-5508
▁essential	-5509
▁rom	-5510
ainted	-5511
▁indic	-5512
▁achieve	-5513
▁capable	-5514
▁Dor	-5515
▁Ven	-5516
▁feed	-5517
▁unique	-5518
rich	-5519
▁Joe	-5520
▁cir	-5521
▁gets	-5522
▁norm	-5523
▁Majesty	-5524
uit	-5525
abel	-5526
▁Both	-5527
▁Pers	-5528
▁disci	-5529
▁founded	-5530
▁Minister	-5531
▁demonstr	-5532
▁entrance	-5533
▁Wr	-5534
▁castle	-5535
▁actions	-5536
▁Catholic	-5537
▁document	-5538
usal	-5539
▁phr	-5540
▁Colonel	-5541
▁purchase	-5542
▁Fer	-5543
▁estim	-5544
▁basket	-5545
▁comment	-5546
▁retired	-5547
▁concerned	-5548
▁intelligence	-5549
OS	-5550
ona	-5551
▁adj	-5552
▁ble	-5553
▁Wind	-5554
▁Ob	-5555
istics	-5556
▁Bob	-5557
▁Far	-5558
▁deck	-5559
▁Philip	-5560
▁appreci	-5561
▁extended	-5562
▁Department	-5563
▁protection	-5564
▁tra	-5565
icity	-5566
oration	-5567
▁knight	-5568
▁extremely	-5569
▁extraordinary	-5570
:/	-5571
AME	-5572
ola	-5573
▁Def	-5574
father	-5575
▁prospect	-5576
fle	-5577
▁Ma	-5578
thur	-5579
▁Ros	-5580
▁Tre	-5581
▁respond	-5582
OC	-5583
uing	-5584
▁gods	-5585
▁Edward	-5586
)^{	-5587
aunt	-5588
▁liqu	-5589
▁guide	-5590
▁Second	-5591
▁teacher	-5592
▁application	-5593
ww	-5594
▁stuff	-5595
▁trial	-5596
▁bronze	-5597
▁paused	-5598
▁hospital	-5599
aks	-5600
▁assured	-5601
▁mistake	-5602
▁commission	-5603
ura	-5604
▁pron	-5605
▁overall	-5606
▁expenses	-5607
▁subjects	-5608
don	-5609
lessly	-5610
▁wheel	-5611
▁territ	-5612
▁architect	-5613
ga	-5614
▁ho	-5615
hetic	-5616
urday	-5617
▁medical	-5618
▁audience	-5619
▁approached	-5620
lim	-5621
▁Hu	-5622
step	-5623
inder	-5624
▁dozen	-5625
▁error	-5626
▁incor	-5627
▁Democr	-5628
▁enthus	-5629
▁hither	-5630
▁recognized	-5631
▁Gar	-5632
▁buried	-5633
▁Tar	-5634
▁trip	-5635
▁worn	-5636
▁yards	-5637
▁Though	-5638
▁confess	-5639
▁relation	-5640
▁sche	-5641
▁minds	-5642
▁welcome	-5643
▁majority	-5644
▁Lake	-5645
▁user	-5646
▁assistance	-5647
▁countenance	-5648
nds	-5649
▁narr	-5650
▁objects	-5651
▁retreat	-5652
▁savings	-5653
▁inhabitants	-5654
▁Ty	-5655
▁voc	-5656
▁tale	-5657
▁nearer	-5658
▁chem	-5659
unning	-5660
▁indiff	-5661
▁hurried	-5662
▁accounts	-5663
▁attended	-5664
za	-5665
iece	-5666
▁email	-5667
▁excit	-5668
▁stead	-5669
▁Emperor	-5670
▁absolutely	-5671
▁Ill	-5672
idity	-5673
▁Prot	-5674
▁wheat	-5675
▁studies	-5676
▁veh	-5677
▁diam	-5678
▁obey	-5679
▁uses	-5680
vation	-5681
▁ensure	-5682
▁prompt	-5683
▁signed	-5684
://	-5685
▁rang	-5686
▁global	-5687
▁sacred	-5688
▁gay	-5689
▁sentence	-5690
▁Tim	-5691
▁aunt	-5692
▁desper	-5693
uable	-5694
▁Anne	-5695
▁consequence	-5696
asant	-5697
▁hoped	-5698
▁center	-5699
▁wisdom	-5700
▁African	-5701
icit	-5702
ller	-5703
▁Mur	-5704
▁shr	-5705
▁singular	-5706
▁principles	-5707
3}	-5708
▁distinguished	-5709
sq	-5710
▁ends	-5711
▁Columb	-5712
ointment	-5713
▁connection	-5714
▁increasing	-5715
36	-5716
ERS	-5717
▁TV	-5718
iform	-5719
onder	-5720
▁murd	-5721
▁Inter	-5722
▁media	-5723
▁dollar	-5724
▁Indians	-5725
▁egg	-5726
Where	-5727
▁colon	-5728
▁fellows	-5729
alle	-5730
▁Tem	-5731
▁fold	-5732
▁Center	-5733
▁Commun	-5734
▁partly	-5735
▁retire	-5736
war	-5737
alog	-5738
fall	-5739
▁Sand	-5740
▁whilst	-5741
▁arrival	-5742
▁younger	-5743
▁destroyed	-5744
▁imagination	-5745
▁consideration	-5746
anta	-5747
▁sust	-5748
▁Press	-5749
▁composed	-5750
▁originally	-5751
▁responsible	-5752
▁$10	-5753
▁gle	-5754
▁loose	-5755
actions	-5756
▁integr	-5757
▁library	-5758
▁Saturday	-5759
▁requires	-5760
▁construction	-5761
vant	-5762
▁Chic	-5763
▁behold	-5764
▁committed	-5765
SP	-5766
uman	-5767
itate	-5768
▁reward	-5769
▁literature	-5770
▁187	-5771
▁foolish	-5772
enger	-5773
▁Camp	-5774
▁visible	-5775
▁$0.	-5776
icans	-5777
▁pref	-5778
icians	-5779
▁stones	-5780
azz	-5781
uts	-5782
▁Rail	-5783
▁horror	-5784
▁escaped	-5785
inate	-5786
▁waste	-5787
▁neighbor	-5788
ato	-5789
lands	-5790
▁Sing	-5791
▁runs	-5792
anches	-5793
hemat	-5794
▁2004	-5795
▁cash	-5796
▁flag	-5797
▁gift	-5798
seless	-5799
▁betray	-5800
▁fierce	-5801
▁thanks	-5802
▁anybody	-5803
?—	-5804
net	-5805
upon	-5806
▁Dire	-5807
▁dignity	-5808
▁wounded	-5809
▁Association	-5810
22	-5811
▁2,	-5812
▁calls	-5813
▁thousands	-5814
▁Hon	-5815
formation	-5816
▁starting	-5817
▁proceeded	-5818
▁constitution	-5819
icing	-5820
▁disappeared	-5821
▁Nap	-5822
abeth	-5823
▁Mass	-5824
▁Through	-5825
▁farther	-5826
term	-5827
▁2001	-5828
▁grey	-5829
▁necessity	-5830
▁meat	-5831
▁voices	-5832
▁burning	-5833
▁journal	-5834
▁suffering	-5835
▁Spr	-5836
▁unex	-5837
▁asleep	-5838
▁Dar	-5839
▁poll	-5840
▁curios	-5841
▁bearing	-5842
▁unfortun	-5843
▁Gal	-5844
▁Wood	-5845
▁nerv	-5846
▁reven	-5847
▁tempt	-5848
isation	-5849
▁Arthur	-5850
▁string	-5851
stitution	-5852
▁faithful	-5853
▁Van	-5854
▁sup	-5855
▁dawn	-5856
▁Party	-5857
▁goals	-5858
UT	-5859
five	-5860
▁scr	-5861
▁ease	-5862
inking	-5863
▁taxes	-5864
▁candid	-5865
▁billion	-5866
▁excitement	-5867
log	-5868
acks	-5869
▁mov	-5870
▁ult	-5871
▁causes	-5872
▁strict	-5873
▁Championship	-5874
astern	-5875
▁recoll	-5876
▁contains	-5877
▁perceived	-5878
▁organization	-5879
pi	-5880
▁branch	-5881
▁defend	-5882
▁director	-5883
ini	-5884
▁36	-5885
looking	-5886
▁accompanied	-5887
greg	-5888
▁manif	-5889
▁fought	-5890
▁fifteen	-5891
▁sovere	-5892
▁feature	-5893
▁Thou	-5894
▁autom	-5895
▁dying	-5896
▁Secret	-5897
▁cattle	-5898
▁sooner	-5899
-1	-5900
bted	-5901
▁tur	-5902
▁reign	-5903
▁operation	-5904
▁dru	-5905
azine	-5906
▁horiz	-5907
▁owner	-5908
▁attrib	-5909
▁cousin	-5910
▁delivered	-5911
pel	-5912
▁Bab	-5913
▁decre	-5914
▁stern	-5915
▁Monday	-5916
▁reality	-5917
▁“‘	-5918
▁electric	-5919
ds	-5920
sect	-5921
stairs	-5922
▁arose	-5923
▁signs	-5924
▁deeply	-5925
▁pattern	-5926
▁commercial	-5927
ube	-5928
▁29	-5929
▁labour	-5930
▁lovely	-5931
▁thinks	-5932
▁programs	-5933
▁competition	-5934
lyn	-5935
▁finger	-5936
Al	-5937
ada	-5938
who	-5939
icine	-5940
owned	-5941
▁discovery	-5942
{2	-5943
west	-5944
▁Sur	-5945
vious	-5946
▁Best	-5947
▁exercise	-5948
han	-5949
▁Av	-5950
▁pil	-5951
▁sole	-5952
▁multi	-5953
▁methods	-5954
▁problems	-5955
▁buildings	-5956
▁contained	-5957
▁lands	-5958
▁Victor	-5959
▁format	-5960
▁gently	-5961
▁worship	-5962
▁measures	-5963
▁selected	-5964
▁splendid	-5965
▁companions	-5966
▁Ol	-5967
mosp	-5968
▁Rad	-5969
▁Latin	-5970
▁element	-5971
▁quantity	-5972
gged	-5973
▁Duc	-5974
▁Mother	-5975
▁reduce	-5976
▁prisoner	-5977
Am	-5978
▁Os	-5979
orial	-5980
▁someone	-5981
▁materials	-5982
sets	-5983
reement	-5984
▁kindly	-5985
▁Britain	-5986
▁capacity	-5987
▁pressure	-5988
▁supported	-5989
cho	-5990
rog	-5991
▁ox	-5992
itan	-5993
▁unp	-5994
▁(&?;	-5995
▁Those	-5996
▁divine	-5997
▁expand	-5998
erk	-5999
▁cards	-6000
▁coffee	-6001
▁excess	-6002
▁amongst	-6003
DR	-6004
▁185	-6005
▁sale	-6006
▁culture	-6007
▁manager	-6008
▁returning	-6009
alph	-6010
▁Atl	-6011
▁Rel	-6012
▁Tex	-6013
icien	-6014
▁fest	-6015
▁ruin	-6016
▁immediate	-6017
▁XV	-6018
pired	-6019
▁Time	-6020
▁column	-6021
▁counsel	-6022
▁contempt	-6023
▁surrounded	-6024
▁Four	-6025
▁division	-6026
▁lux	-6027
▁throat	-6028
▁Princess	-6029
'.	-6030
boy	-6031
ums	-6032
tract	-6033
ealous	-6034
▁craft	-6035
▁Besides	-6036
▁Kingdom	-6037
▁northern	-6038
▁customers	-6039
Of	-6040
▁vague	-6041
▁manage	-6042
;—	-6043
▁Op	-6044
▁Det	-6045
after	-6046
▁noted	-6047
▁score	-6048
▁inquir	-6049
Sh	-6050
pass	-6051
▁Post	-6052
▁mercy	-6053
▁tools	-6054
▁mental	-6055
▁pressed	-6056
was	-6057
▁pipe	-6058
▁Among	-6059
▁lover	-6060
▁guests	-6061
▁disease	-6062
▁instantly	-6063
car	-6064
Your	-6065
▁preced	-6066
▁recently	-6067
▁instrument	-6068
iveness	-6069
▁violent	-6070
▁description	-6071
▁Id	-6072
▁Lee	-6073
▁bat	-6074
▁Card	-6075
▁crew	-6076
▁pardon	-6077
▁strateg	-6078
▁recorded	-6079
ails	-6080
aine	-6081
▁300	-6082
folio	-6083
▁2010	-6084
▁cert	-6085
▁weary	-6086
▁compound	-6087
▁Sea	-6088
▁vari	-6089
▁admit	-6090
▁Academ	-6091
▁allows	-6092
▁reader	-6093
▁arranged	-6094
▁delicate	-6095
ilty	-6096
▁lake	-6097
▁dreadful	-6098
▁mob	-6099
▁atmosp	-6100
▁gradually	-6101
▁interrupted	-6102
")	-6103
ige	-6104
osal	-6105
ules	-6106
▁Fund	-6107
▁frightened	-6108
vin	-6109
anda	-6110
▁Edu	-6111
craft	-6112
▁armed	-6113
▁Christmas	-6114
▁addressed	-6115
▁functions	-6116
nam	-6117
▁fled	-6118
▁subm	-6119
illing	-6120
▁teach	-6121
▁births	-6122
▁desert	-6123
▁careful	-6124
▁Play	-6125
▁Super	-6126
▁focus	-6127
▁stret	-6128
▁abroad	-6129
▁brothers	-6130
▁gra	-6131
ipping	-6132
▁sounds	-6133
▁recommend	-6134
gent	-6135
▁Get	-6136
▁cig	-6137
▁2003	-6138
▁minimum	-6139
▁laughter	-6140
▁curiosity	-6141
ado	-6142
osh	-6143
tis	-6144
▁6.	-6145
▁mile	-6146
▁pages	-6147
▁crimin	-6148
▁inquired	-6149
44	-6150
▁Tra	-6151
based	-6152
▁Bost	-6153
▁thrust	-6154
▁Division	-6155
▁benefits	-6156
▁construct	-6157
▁Sun	-6158
▁jealous	-6159
▁PR	-6160
keep	-6161
▁mixed	-6162
▁council	-6163
▁innocent	-6164
▁negative	-6165
▁acquaintance	-6166
agg	-6167
name	-6168
water	-6169
▁conven	-6170
▁plenty	-6171
▁sympathy	-6172
▁Rock	-6173
▁mour	-6174
▁Nature	-6175
▁Russia	-6176
▁cheeks	-6177
▁effective	-6178
Ar	-6179
wers	-6180
asped	-6181
▁slept	-6182
▁network	-6183
▁singing	-6184
▁offering	-6185
▁comfortable	-6186
▁cas	-6187
▁Mill	-6188
▁steel	-6189
▁listening	-6190
ua	-6191
▁Ca	-6192
this	-6193
achel	-6194
▁phone	-6195
▁combined	-6196
▁conflict	-6197
case	-6198
oiselle	-6199
▁seeking	-6200
▁attitude	-6201
▁experiment	-6202
CE	-6203
▁Kar	-6204
▁Care	-6205
▁Fair	-6206
▁recon	-6207
ustomed	-6208
▁kissed	-6209
▁argument	-6210
▁contrast	-6211
▁``	-6212
▁Bas	-6213
▁Fur	-6214
▁views	-6215
▁vote	-6216
▁duties	-6217
▁challeng	-6218
▁adventure	-6219
rim	-6220
▁Sk	-6221
sqrt	-6222
▁eth	-6223
▁shalt	-6224
unction	-6225
utenant	-6226
▁fairly	-6227
__	-6228
arse	-6229
part	-6230
ript	-6231
▁Rose	-6232
▁unus	-6233
▁condem	-6234
▁Margaret	-6235
▁branches	-6236
▁uncertain	-6237
▁businesses	-6238
Mr	-6239
▁adopted	-6240
▁conscience	-6241
isk	-6242
▁Boy	-6243
▁Haw	-6244
▁cart	-6245
▁sheep	-6246
▁prepar	-6247
▁experienced	-6248
ih	-6249
umin	-6250
▁Leg	-6251
▁adjust	-6252
▁corpor	-6253
▁valuable	-6254
▁confusion	-6255
UD	-6256
▁ax	-6257
▁120	-6258
▁jew	-6259
▁flow	-6260
▁sequ	-6261
▁flying	-6262
▁commanded	-6263
On	-6264
▁Award	-6265
▁union	-6266
▁temple	-6267
▁immense	-6268
▁Scotland	-6269
▁southern	-6270
rick	-6271
ulgar	-6272
▁hurry	-6273
▁plate	-6274
▁levels	-6275
▁provin	-6276
▁violence	-6277
▁resolution	-6278
▁IV	-6279
▁&?;	-6280
▁1000	-6281
▁Number	-6282
▁screen	-6283
▁Chicago	-6284
▁exception	-6285
——	-6286
▁skill	-6287
▁classes	-6288
lar	-6289
mes	-6290
▁Son	-6291
▁Flor	-6292
▁folk	-6293
▁Irish	-6294
▁tight	-6295
▁genius	-6296
▁projects	-6297
ota	-6298
▁medal	-6299
▁anxiety	-6300
▁municip	-6301
▁breaking	-6302
▁regarding	-6303
down	-6304
urse	-6305
▁Johnson	-6306
▁Japanese	-6307
▁murmured	-6308
rep	-6309
▁Ret	-6310
acles	-6311
akers	-6312
hesis	-6313
▁gest	-6314
▁paint	-6315
▁Friday	-6316
▁picked	-6317
▁charming	-6318
▁customer	-6319
▁currently	-6320
erer	-6321
oked	-6322
▁doctr	-6323
▁withdraw	-6324
ca	-6325
▁Ken	-6326
▁voy	-6327
▁impress	-6328
▁Cat	-6329
oused	-6330
▁sigh	-6331
▁enorm	-6332
▁savage	-6333
▁acquired	-6334
▁convinced	-6335
▁calculated	-6336
▁scientific	-6337
▁Baron	-6338
ublican	-6339
▁historical	-6340
NUM	-6341
sych	-6342
▁chain	-6343
▁privile	-6344
▁appropri	-6345
▁infinite	-6346
▁brilliant	-6347
they	-6348
▁Rod	-6349
▁Town	-6350
▁frank	-6351
▁volunt	-6352
67	-6353
▁stup	-6354
▁scale	-6355
▁conver	-6356
▁poison	-6357
▁shares	-6358
▁sprang	-6359
▁Service	-6360
▁mud	-6361
ighed	-6362
▁Group	-6363
▁Music	-6364
▁turns	-6365
▁throne	-6366
▁Nothing	-6367
▁minor	-6368
▁Elizabeth	-6369
▁tank	-6370
▁Dutch	-6371
▁clever	-6372
▁degrees	-6373
▁Virginia	-6374
▁precious	-6375
▁Alexander	-6376
▁newspaper	-6377
▁relie	-6378
▁edition	-6379
ij	-6380
▁Lar	-6381
etary	-6382
rison	-6383
▁Asia	-6384
▁rushed	-6385
entially	-6386
▁visited	-6387
▁activities	-6388
IM	-6389
▁($	-6390
▁hab	-6391
oting	-6392
▁Down	-6393
▁fever	-6394
▁smart	-6395
▁Health	-6396
▁evident	-6397
▁Football	-6398
IG	-6399
vals	-6400
▁spo	-6401
force	-6402
▁Educ	-6403
▁mood	-6404
▁sentiment	-6405
▁generation	-6406
▁Tor	-6407
▁rot	-6408
▁grie	-6409
▁blank	-6410
▁formerly	-6411
▁kindness	-6412
34	-6413
aya	-6414
oral	-6415
▁via	-6416
▁exha	-6417
▁tear	-6418
elling	-6419
▁Texas	-6420
▁stamp	-6421
▁Indeed	-6422
▁academ	-6423
▁ma	-6424
gram	-6425
▁Big	-6426
▁Cro	-6427
▁elder	-6428
▁franc	-6429
▁Empire	-6430
▁movements	-6431
▁traditional	-6432
reck	-6433
▁Lib	-6434
▁rear	-6435
▁guilty	-6436
▁wholly	-6437
▁location	-6438
▁permitted	-6439
OV	-6440
Here	-6441
▁Hot	-6442
▁dyn	-6443
▁hal	-6444
earch	-6445
▁Produ	-6446
▁metal	-6447
▁sports	-6448
▁profound	-6449
▁32	-6450
▁2012	-6451
▁Social	-6452
▁Governor	-6453
AG	-6454
▁Ep	-6455
isis	-6456
osom	-6457
▁stairs	-6458
iciently	-6459
▁institutions	-6460
▁Norm	-6461
▁examples	-6462
▁Po	-6463
ario	-6464
quar	-6465
▁spark	-6466
▁uncom	-6467
▁reference	-6468
▁everywhere	-6469
Re	-6470
-19	-6471
▁Ba	-6472
▁chap	-6473
▁Jesus	-6474
▁tower	-6475
▁markets	-6476
▁stepped	-6477
acon	-6478
▁Supp	-6479
▁guest	-6480
▁distress	-6481
";	-6482
)$	-6483
▁kings	-6484
▁Andrew	-6485
aughters	-6486
▁primary	-6487
▁reports	-6488
▁mysterious	-6489
▁Ange	-6490
▁Zeal	-6491
▁glanced	-6492
▁precise	-6493
▁forehead	-6494
oto	-6495
▁$6	-6496
▁Es	-6497
▁```	-6498
▁wet	-6499
▁soil	-6500
▁Young	-6501
▁fatal	-6502
▁magnific	-6503
▁Hy	-6504
▁Loc	-6505
▁reform	-6506
▁bon	-6507
▁bul	-6508
▁dish	-6509
▁inher	-6510
▁march	-6511
▁shock	-6512
▁prayer	-6513
▁3,	-6514
ldom	-6515
▁renew	-6516
▁miserable	-6517
95	-6518
CH	-6519
▁45	-6520
cest	-6521
eral	-6522
▁Upon	-6523
▁items	-6524
▁sport	-6525
▁wings	-6526
▁issued	-6527
▁painted	-6528
▁writers	-6529
▁somewhere	-6530
Be	-6531
irmed	-6532
▁league	-6533
▁referred	-6534
▁file	-6535
▁prosper	-6536
TH	-6537
cure	-6538
held	-6539
▁McC	-6540
olate	-6541
▁Alice	-6542
▁Bus	-6543
▁rum	-6544
usive	-6545
▁blame	-6546
▁equip	-6547
▁advert	-6548
▁margin	-6549
▁revolution	-6550
fect	-6551
hers	-6552
▁consent	-6553
▁commonly	-6554
▁detailed	-6555
▁symb	-6556
▁Person	-6557
▁containing	-6558
▁Gall	-6559
▁Star	-6560
▁flood	-6561
resents	-6562
▁feared	-6563
▁images	-6564
▁policies	-6565
▁ya	-6566
aver	-6567
▁fix	-6568
inity	-6569
▁Bern	-6570
ateful	-6571
encies	-6572
▁owned	-6573
▁revealed	-6574
uan	-6575
avig	-6576
▁absor	-6577
▁bonds	-6578
▁collected	-6579
▁Commission	-6580
Go	-6581
bel	-6582
nding	-6583
▁owners	-6584
▁Dev	-6585
erving	-6586
▁Chief	-6587
▁inches	-6588
▁Zealand	-6589
▁climate	-6590
▁partners	-6591
88	-6592
AB	-6593
OP	-6594
^{	-6595
▁finish	-6596
▁enjoyed	-6597
▁venture	-6598
▁acknowled	-6599
▁comprehens	-6600
rd	-6601
lam	-6602
uns	-6603
▁80	-6604
▁Corn	-6605
▁lest	-6606
apping	-6607
▁losing	-6608
▁wishes	-6609
izations	-6610
▁providing	-6611
▁typically	-6612
öl	-6613
▁Bat	-6614
▁Mah	-6615
▁Pier	-6616
▁spare	-6617
▁granted	-6618
▁weakness	-6619
Did	-6620
▁Est	-6621
▁Gen	-6622
▁dreams	-6623
▁wondered	-6624
▁creatures	-6625
amin	-6626
angle	-6627
▁fare	-6628
▁cabin	-6629
▁pushed	-6630
▁sym	-6631
aints	-6632
\\!000	-6633
▁finds	-6634
▁reject	-6635
▁Because	-6636
▁attached	-6637
▁180	-6638
▁rig	-6639
pless	-6640
▁Aunt	-6641
▁Wall	-6642
▁wave	-6643
▁Enter	-6644
iciency	-6645
▁interf	-6646
▁perman	-6647
▁rolled	-6648
▁devoted	-6649
▁Sus	-6650
▁2008	-6651
▁rage	-6652
▁greet	-6653
▁eating	-6654
▁ashamed	-6655
▁increases	-6656
▁Holy	-6657
▁stim	-6658
▁invited	-6659
▁department	-6660
ba	-6661
cm	-6662
oqu	-6663
iana	-6664
▁Kent	-6665
▁Boston	-6666
▁Public	-6667
▁refuse	-6668
▁railway	-6669
▁incident	-6670
^3	-6671
▁abst	-6672
▁About	-6673
▁loves	-6674
▁workers	-6675
▁reputation	-6676
ifts	-6677
▁Lab	-6678
▁Please	-6679
sm	-6680
▁Cre	-6681
▁Jon	-6682
iated	-6683
▁Hard	-6684
▁models	-6685
▁context	-6686
▁communication	-6687
">	-6688
FN	-6689
▁4:	-6690
ixty	-6691
▁GDP	-6692
▁holds	-6693
▁deliber	-6694
▁uniform	-6695
▁existing	-6696
▁Wed	-6697
▁apply	-6698
▁basis	-6699
▁softly	-6700
▁represents	-6701
▁Cost	-6702
▁milk	-6703
▁uncons	-6704
ped	-6705
▁meal	-6706
▁plays	-6707
▁Living	-6708
▁output	-6709
zy	-6710
▁politics	-6711
▁stretched	-6712
▁occasionally	-6713
▁ta	-6714
emed	-6715
▁Take	-6716
▁wound	-6717
▁appeal	-6718
▁studied	-6719
▁atmosphere	-6720
apes	-6721
▁categ	-6722
▁toler	-6723
fulness	-6724
▁wooden	-6725
▁concluded	-6726
.),	-6727
ulse	-6728
▁bath	-6729
anche	-6730
antry	-6731
▁towns	-6732
▁excuse	-6733
▁mostly	-6734
▁unexpected	-6735
▁hers	-6736
▁pause	-6737
▁warri	-6738
▁Northern	-6739
da	-6740
wing	-6741
armed	-6742
▁scheme	-6743
▁resumed	-6744
▁literary	-6745
▁prisoners	-6746
▁administration	-6747
quet	-6748
▁facult	-6749
▁lawyer	-6750
▁poetry	-6751
▁seldom	-6752
▁enterpr	-6753
▁Professor	-6754
▁recovered	-6755
wa	-6756
asm	-6757
iah	-6758
reek	-6759
▁2013	-6760
▁Home	-6761
▁treasure	-6762
▁troubled	-6763
abled	-6764
▁Death	-6765
▁Earth	-6766
▁charged	-6767
▁accustomed	-6768
By	-6769
▁35	-6770
ella	-6771
▁2009	-6772
▁Treat	-6773
▁accum	-6774
▁awful	-6775
▁ridic	-6776
▁handle	-6777
▁muffins	-6778
▁thunder	-6779
▁whenever	-6780
▁delighted	-6781
▁departure	-6782
▁investments	-6783
▁approximately	-6784
BER	-6785
▁Bow	-6786
verty	-6787
▁1999	-6788
▁observe	-6789
▁shouted	-6790
▁discussion	-6791
At	-6792
IP	-6793
lers	-6794
yard	-6795
▁1980	-6796
▁Adam	-6797
▁loaf	-6798
inction	-6799
inations	-6800
▁Without	-6801
▁purposes	-6802
▁suspicion	-6803
▁por	-6804
apers	-6805
▁rust	-6806
▁Water	-6807
▁kinds	-6808
▁guitar	-6809
▁hunting	-6810
▁manners	-6811
▁nervous	-6812
▁poverty	-6813
▁regions	-6814
▁eventually	-6815
64	-6816
▁acts	-6817
▁hole	-6818
▁digital	-6819
▁strongly	-6820
▁admiration	-6821
▁Him	-6822
▁Mos	-6823
▁Pass	-6824
emoiselle	-6825
▁striking	-6826
Are	-6827
jud	-6828
rin	-6829
isms	-6830
▁bay	-6831
arian	-6832
raham	-6833
▁2007	-6834
▁Jews	-6835
▁cultiv	-6836
▁chapter	-6837
▁federal	-6838
▁everyone	-6839
OD	-6840
▁Da	-6841
chers	-6842
▁Jour	-6843
▁lone	-6844
▁Billy	-6845
▁(&?;),	-6846
▁paying	-6847
▁philosophy	-6848
▁previously	-6849
icy	-6850
hess	-6851
▁assum	-6852
▁grant	-6853
▁perpet	-6854
▁praise	-6855
▁failure	-6856
▁stronger	-6857
▁Sometimes	-6858
▁thoroughly	-6859
▁chose	-6860
ensions	-6861
▁ascend	-6862
▁islands	-6863
▁sacrifice	-6864
.;	-6865
iate	-6866
▁stared	-6867
▁departed	-6868
▁inclined	-6869
▁stations	-6870
▁portfolio	-6871
28	-6872
▁(199	-6873
ternet	-6874
▁indul	-6875
▁unhappy	-6876
▁definite	-6877
lets	-6878
▁Pop	-6879
▁2002	-6880
▁Penn	-6881
▁tort	-6882
▁francs	-6883
▁insult	-6884
▁render	-6885
▁whisper	-6886
▁Southern	-6887
▁software	-6888
▁opposition	-6889
▁distribution	-6890
wick	-6891
▁clo	-6892
▁Barb	-6893
▁cord	-6894
▁swim	-6895
▁erect	-6896
▁teams	-6897
vention	-6898
▁begins	-6899
▁claims	-6900
▁destruction	-6901
uma	-6902
▁Ath	-6903
▁fulf	-6904
▁opinions	-6905
▁replaced	-6906
▁route	-6907
▁intense	-6908
▁mounted	-6909
▁plainly	-6910
▁discount	-6911
▁percentage	-6912
▁Regulations	-6913
▁Mo	-6914
▁fo	-6915
idel	-6916
▁dial	-6917
▁swear	-6918
▁deaths	-6919
▁monarch	-6920
▁attempted	-6921
::	-6922
▁articles	-6923
▁mathemat	-6924
▁daughters	-6925
▁constantly	-6926
▁combination	-6927
▁1990	-6928
▁seed	-6929
▁wing	-6930
▁bowed	-6931
▁tribe	-6932
▁hollow	-6933
▁helpful	-6934
▁properly	-6935
Zo	-6936
▁7.	-6937
Very	-6938
▁Swed	-6939
▁knife	-6940
▁Addition	-6941
▁variable	-6942
atus	-6943
▁web	-6944
▁guns	-6945
ashing	-6946
cribed	-6947
▁clouds	-6948
▁habits	-6949
▁heavily	-6950
LL	-6951
▁sed	-6952
▁winning	-6953
▁150	-6954
▁184	-6955
itors	-6956
urbed	-6957
▁trembling	-6958
sin	-6959
▁crack	-6960
▁loyal	-6961
hire	-6962
▁fra	-6963
elled	-6964
▁Trump	-6965
▁thread	-6966
ervation	-6967
▁rendered	-6968
▁2020	-6969
▁Jacob	-6970
▁fleet	-6971
▁begged	-6972
aws	-6973
Zoöl	-6974
▁mix	-6975
▁horn	-6976
▁Helen	-6977
▁veget	-6978
▁Albert	-6979
phas	-6980
icken	-6981
rical	-6982
▁swept	-6983
▁lights	-6984
▁disturb	-6985
▁sources	-6986
▁Stock	-6987
▁belonged	-6988
▁upd	-6989
aping	-6990
istan	-6991
▁Tour	-6992
▁bade	-6993
▁Early	-6994
▁crying	-6995
▁substance	-6996
bor	-6997
div	-6998
▁lock	-6999
▁Night	-7000
▁patience	-7001
▁amuse	-7002
▁crisis	-7003
▁lighted	-7004
▁mystery	-7005
▁enormous	-7006
▁consequences	-7007
acc	-7008
dro	-7009
urely	-7010
▁Mean	-7011
▁sets	-7012
▁silk	-7013
atched	-7014
▁stiff	-7015
▁western	-7016
▁changing	-7017
▁investors	-7018
RL	-7019
spe	-7020
▁Lo	-7021
▁1998	-7022
▁sees	-7023
▁Cross	-7024
▁moder	-7025
▁wretched	-7026
▁agreement	-7027
37	-7028
fty	-7029
▁leads	-7030
▁steady	-7031
▁authorities	-7032
IA	-7033
aux	-7034
bro	-7035
▁News	-7036
▁bones	-7037
▁feast	-7038
▁bottle	-7039
▁elected	-7040
▁execution	-7041
!!	-7042
▁DE	-7043
eries	-7044
▁Last	-7045
▁ideal	-7046
▁recover	-7047
▁utterly	-7048
Per	-7049
rive	-7050
▁2011	-7051
▁ages	-7052
▁oath	-7053
uesday	-7054
▁favorite	-7055
AY	-7056
▁Sud	-7057
▁Find	-7058
▁rival	-7059
▁decide	-7060
▁slaves	-7061
abilities	-7062
▁drinking	-7063
elf	-7064
▁Ox	-7065
when	-7066
▁adult	-7067
▁infer	-7068
▁sixty	-7069
endment	-7070
65	-7071
adel	-7072
▁row	-7073
▁Carl	-7074
▁Tell	-7075
▁ming	-7076
uv	-7077
▁procl	-7078
▁Winter	-7079
▁riding	-7080
▁assumed	-7081
▁selection	-7082
▁consciousness	-7083
bu	-7084
ava	-7085
odes	-7086
ucle	-7087
▁grim	-7088
ensity	-7089
mother	-7090
▁flung	-7091
▁acting	-7092
▁anywhere	-7093
▁consists	-7094
▁receiving	-7095
▁sovereign	-7096
ala	-7097
agger	-7098
▁bree	-7099
▁puzz	-7100
▁souls	-7101
▁stair	-7102
▁slipped	-7103
▁spiritual	-7104
Con	-7105
ORT	-7106
▁ham	-7107
itter	-7108
▁yard	-7109
▁Always	-7110
▁editor	-7111
▁uttered	-7112
▁ga	-7113
▁bak	-7114
ategy	-7115
▁Wild	-7116
uration	-7117
▁handed	-7118
▁partner	-7119
▁Institute	-7120
vol	-7121
yan	-7122
▁Net	-7123
▁tent	-7124
▁wire	-7125
engers	-7126
▁ancest	-7127
▁concent	-7128
▁derived	-7129
▁hanging	-7130
iano	-7131
outs	-7132
▁Att	-7133
acific	-7134
anging	-7135
▁Class	-7136
▁drift	-7137
▁merry	-7138
▁Knight	-7139
▁somehow	-7140
▁Americans	-7141
▁Rh	-7142
plex	-7143
▁Moses	-7144
▁homes	-7145
▁entering	-7146
27	-7147
FL	-7148
ador	-7149
▁abrupt	-7150
▁sevent	-7151
▁despite	-7152
▁wedding	-7153
▁interpret	-7154
leg	-7155
▁inner	-7156
▁radio	-7157
▁Valley	-7158
▁burned	-7159
▁emphas	-7160
▁Further	-7161
▁Records	-7162
▁difficulties	-7163
oma	-7164
rous	-7165
ricult	-7166
▁bosom	-7167
▁Middle	-7168
▁absurd	-7169
▁curtain	-7170
▁warning	-7171
▁Interest	-7172
▁troubles	-7173
▁cf	-7174
▁tun	-7175
▁assume	-7176
▁computer	-7177
▁governor	-7178
Have	-7179
sell	-7180
▁coo	-7181
▁buck	-7182
ancholy	-7183
▁recall	-7184
▁stayed	-7185
▁millions	-7186
▁apartment	-7187
from	-7188
▁Office	-7189
▁unlike	-7190
▁raising	-7191
000.	-7192
▁Pan	-7193
▁Rog	-7194
▁lion	-7195
▁shru	-7196
▁ghost	-7197
▁adding	-7198
▁commit	-7199
▁lately	-7200
▁defence	-7201
▁exposed	-7202
▁musical	-7203
39	-7204
▁("	-7205
▁90	-7206
▁gard	-7207
▁prud	-7208
▁root	-7209
▁vary	-7210
▁nurse	-7211
▁furniture	-7212
].	-7213
elly	-7214
▁Mir	-7215
▁abund	-7216
▁accord	-7217
▁misery	-7218
▁shared	-7219
▁discipl	-7220
▁records	-7221
▁centuries	-7222
▁compelled	-7223
▁properties	-7224
▁Imp	-7225
▁rib	-7226
▁hell	-7227
▁roll	-7228
▁Elect	-7229
▁gazed	-7230
▁Tuesday	-7231
▁extract	-7232
▁ignorant	-7233
▁Alf	-7234
▁Would	-7235
▁knock	-7236
▁Senate	-7237
▁invent	-7238
ertainly	-7239
▁compass	-7240
▁episode	-7241
▁likewise	-7242
▁dat	-7243
▁Shak	-7244
▁missing	-7245
▁agricult	-7246
eding	-7247
▁tied	-7248
▁Jones	-7249
▁latest	-7250
▁opposed	-7251
▁behavior	-7252
▁external	-7253
▁arts	-7254
▁cheek	-7255
▁falls	-7256
▁dining	-7257
▁dismiss	-7258
▁sufficiently	-7259
▁Kn	-7260
▁cub	-7261
▁Buck	-7262
▁shed	-7263
▁Uncle	-7264
▁alarm	-7265
▁decor	-7266
▁drunk	-7267
▁remote	-7268
▁thence	-7269
▁creating	-7270
▁mild	-7271
▁roots	-7272
▁Profit	-7273
▁county	-7274
▁claimed	-7275
▁ceremony	-7276
▁requirements	-7277
▁map	-7278
▁phen	-7279
▁signal	-7280
▁emperor	-7281
▁acquainted	-7282
▁nevertheless	-7283
anth	-7284
works	-7285
▁hadn	-7286
▁resc	-7287
asions	-7288
▁debut	-7289
▁medicine	-7290
▁quarters	-7291
▁separated	-7292
$:	-7293
amma	-7294
iche	-7295
rary	-7296
▁Fam	-7297
ender	-7298
▁Oper	-7299
▁Liber	-7300
▁Museum	-7301
▁loving	-7302
▁Federal	-7303
▁Committee	-7304
RS	-7305
arer	-7306
▁bra	-7307
andal	-7308
▁intr	-7309
▁innov	-7310
▁scorn	-7311
▁termin	-7312
▁involves	-7313
</	-7314
pent	-7315
going	-7316
▁agent	-7317
▁beach	-7318
▁factor	-7319
▁Academy	-7320
▁hastily	-7321
▁confident	-7322
▁employment	-7323
▁melancholy	-7324
▁opportunities	-7325
47	-7326
▁AT	-7327
▁Ash	-7328
▁sus	-7329
rived	-7330
▁mode	-7331
▁unre	-7332
▁shade	-7333
▁waves	-7334
▁shining	-7335
▁useless	-7336
▁creation	-7337
▁decisions	-7338
▁unfortunate	-7339
bow	-7340
zan	-7341
align	-7342
▁annoy	-7343
▁defin	-7344
▁penet	-7345
▁Histor	-7346
▁bakery	-7347
▁experiences	-7348
85	-7349
án	-7350
▁AS	-7351
otte	-7352
▁Women	-7353
▁ocean	-7354
▁steep	-7355
▁Portug	-7356
▁butter	-7357
▁propri	-7358
Art	-7359
low	-7360
▁250	-7361
thren	-7362
▁inex	-7363
▁seats	-7364
▁swall	-7365
▁Finally	-7366
▁allowing	-7367
ifications	-7368
▁resistance	-7369
▁Sav	-7370
burgh	-7371
▁Child	-7372
▁cloth	-7373
▁artists	-7374
▁crucial	-7375
▁horrible	-7376
▁Secretary	-7377
21	-7378
bra	-7379
▁Tod	-7380
icable	-7381
▁caval	-7382
▁dared	-7383
▁disgr	-7384
▁helps	-7385
▁contest	-7386
▁priests	-7387
▁inspired	-7388
▁princess	-7389
▁sleeping	-7390
▁descended	-7391
29	-7392
▁Lim	-7393
▁Set	-7394
▁coal	-7395
▁Techn	-7396
▁portra	-7397
▁seriously	-7398
ran	-7399
vis	-7400
▁Ye	-7401
▁Lie	-7402
▁flew	-7403
onents	-7404
▁stable	-7405
▁blessed	-7406
▁summary	-7407
pes	-7408
▁|-	-7409
▁Dam	-7410
▁Pope	-7411
▁brow	-7412
ployment	-7413
▁mankind	-7414
▁possibility	-7415
0.0	-7416
▁$20	-7417
orable	-7418
▁landl	-7419
▁outer	-7420
▁thine	-7421
▁copper	-7422
▁settlement	-7423
{3	-7424
phe	-7425
▁31	-7426
four	-7427
▁Braz	-7428
▁charges	-7429
▁conducted	-7430
RA	-7431
▁5:	-7432
▁ven	-7433
▁bars	-7434
▁Maria	-7435
▁stout	-7436
▁Mexico	-7437
iger	-7438
▁awa	-7439
▁ric	-7440
▁nurs	-7441
▁whence	-7442
▁punishment	-7443
aus	-7444
cap	-7445
▁lonely	-7446
▁Eastern	-7447
ERN	-7448
▁TH	-7449
illes	-7450
▁nest	-7451
▁salt	-7452
▁flour	-7453
▁nights	-7454
▁addresses	-7455
riff	-7456
▁plot	-7457
▁sore	-7458
▁shoes	-7459
▁users	-7460
▁Econom	-7461
▁incred	-7462
▁nodded	-7463
▁amounts	-7464
▁periods	-7465
▁contempl	-7466
▁purchased	-7467
▁ze	-7468
wide	-7469
▁alle	-7470
▁sank	-7471
▁acted	-7472
▁damage	-7473
▁forgive	-7474
▁elsewhere	-7475
▁Sov	-7476
▁gaze	-7477
▁rude	-7478
▁steam	-7479
▁eagerly	-7480
▁criminal	-7481
▁generous	-7482
mann	-7483
▁vel	-7484
▁Back	-7485
▁Leon	-7486
ixture	-7487
▁angel	-7488
▁Follow	-7489
▁landsc	-7490
▁entities	-7491
▁ID	-7492
▁Jeff	-7493
▁scre	-7494
▁expert	-7495
▁injury	-7496
▁Science	-7497
▁unusual	-7498
▁Education	-7499
▁Revolution	-7500
BI	-7501
omy	-7502
Look	-7503
Total	-7504
owder	-7505
▁cott	-7506
▁clergy	-7507
▁institution	-7508
▁corresponding	-7509
Un	-7510
▁1)	-7511
▁om	-7512
▁Wat	-7513
▁bew	-7514
▁aloud	-7515
ruption	-7516
▁languages	-7517
non	-7518
tes	-7519
▁Tri	-7520
▁tas	-7521
▁empire	-7522
▁describe	-7523
▁Republican	-7524
rene	-7525
arrass	-7526
unched	-7527
▁Sever	-7528
▁overt	-7529
▁print	-7530
▁voyage	-7531
▁serving	-7532
▁Constant	-7533
▁concerns	-7534
▁approaching	-7535
▁introduction	-7536
\\%$	-7537
▁Los	-7538
▁ling	-7539
▁waist	-7540
istered	-7541
▁eleven	-7542
▁anticip	-7543
▁weapons	-7544
▁generate	-7545
▁accomplished	-7546
cr	-7547
okes	-7548
phone	-7549
▁alike	-7550
▁expedition	-7551
UN	-7552
Will	-7553
▁Plan	-7554
▁comr	-7555
▁rein	-7556
coming	-7557
resses	-7558
▁Board	-7559
▁Georg	-7560
▁frequent	-7561
▁abandoned	-7562
▁pool	-7563
▁trick	-7564
▁firmly	-7565
▁notion	-7566
▁Olympics	-7567
▁Meanwhile	-7568
▁territory	-7569
▁convention	-7570
ags	-7571
gage	-7572
▁PAN	-7573
▁Hell	-7574
▁grav	-7575
▁sorts	-7576
▁Florida	-7577
▁sisters	-7578
▁astonishment	-7579
Gr	-7580
ayed	-7581
▁Luc	-7582
▁Wel	-7583
agers	-7584
arant	-7585
▁exch	-7586
▁pier	-7587
▁pist	-7588
▁rush	-7589
▁Flore	-7590
▁extend	-7591
▁channel	-7592
▁maintained	-7593
31	-7594
rets	-7595
▁Ram	-7596
▁Turk	-7597
▁cake	-7598
▁lect	-7599
▁advis	-7600
▁traff	-7601
▁whist	-7602
▁largely	-7603
▁shortly	-7604
▁continues	-7605
▁equipment	-7606
gend	-7607
ockey	-7608
▁navig	-7609
▁missed	-7610
▁specul	-7611
▁pursued	-7612
▁scattered	-7613
▁Sn	-7614
foot	-7615
▁dar	-7616
avery	-7617
▁haste	-7618
▁urged	-7619
▁entity	-7620
ader	-7621
eman	-7622
will	-7623
nesday	-7624
▁Stand	-7625
▁fears	-7626
▁burden	-7627
▁consol	-7628
▁manifest	-7629
▁mistaken	-7630
▁1/	-7631
wich	-7632
▁fert	-7633
▁System	-7634
▁Temple	-7635
▁qualities	-7636
awa	-7637
▁Mas	-7638
▁dil	-7639
▁gri	-7640
stein	-7641
▁Anton	-7642
▁fifth	-7643
▁formation	-7644
Tr	-7645
▁Blue	-7646
▁Build	-7647
▁Thurs	-7648
▁dancing	-7649
▁payments	-7650
▁phenomen	-7651
▁foundation	-7652
▁detect	-7653
▁refuge	-7654
▁merchant	-7655
bot	-7656
eur	-7657
lock	-7658
ronic	-7659
▁leis	-7660
▁Brand	-7661
▁smell	-7662
▁defined	-7663
▁dischar	-7664
▁eastern	-7665
▁reasonable	-7666
▁differences	-7667
ano	-7668
inth	-7669
▁anch	-7670
▁cens	-7671
▁brings	-7672
▁remove	-7673
piration	-7674
▁surrounding	-7675
geon	-7676
▁Fried	-7677
▁roads	-7678
▁sheet	-7679
▁combat	-7680
▁insect	-7681
▁parted	-7682
▁purple	-7683
▁summon	-7684
▁leaning	-7685
▁annually	-7686
▁identity	-7687
▁producing	-7688
▁intellectual	-7689
andom	-7690
iques	-7691
onent	-7692
▁arrested	-7693
▁smallest	-7694
▁universal	-7695
Ad	-7696
gers	-7697
eling	-7698
▁dram	-7699
keeper	-7700
▁slain	-7701
▁Moreover	-7702
▁suitable	-7703
▁background	-7704
▁manufacture	-7705
IF	-7706
▁क	-7707
yes	-7708
▁pup	-7709
agues	-7710
▁champ	-7711
▁giant	-7712
▁convey	-7713
▁celebrated	-7714
:1	-7715
▁Holl	-7716
▁bark	-7717
option	-7718
▁gates	-7719
▁motor	-7720
▁divers	-7721
▁humble	-7722
▁leaned	-7723
▁diamond	-7724
criptions	-7725
()	-7726
ucky	-7727
▁colle	-7728
▁psych	-7729
▁Brazil	-7730
▁Soviet	-7731
▁normal	-7732
▁Jackson	-7733
▁bedroom	-7734
▁embarrass	-7735
▁enh	-7736
oleon	-7737
▁Turn	-7738
▁Judge	-7739
▁Light	-7740
▁saith	-7741
NA	-7742
▁border	-7743
▁transm	-7744
▁preserved	-7745
▁lin	-7746
otions	-7747
▁stocks	-7748
▁feather	-7749
▁Francisco	-7750
==	-7751
▁brid	-7752
▁cars	-7753
usalem	-7754
taining	-7755
▁stupid	-7756
▁survey	-7757
▁confirmed	-7758
▁suspected	-7759
his	-7760
uced	-7761
▁Tele	-7762
▁Wales	-7763
▁beard	-7764
▁Bishop	-7765
▁shield	-7766
▁comparison	-7767
4}	-7768
din	-7769
ras	-7770
aniel	-7771
▁sched	-7772
▁repeat	-7773
▁saddle	-7774
▁whereas	-7775
▁desperate	-7776
▁Mademoiselle	-7777
_1	-7778
igan	-7779
class	-7780
▁freely	-7781
▁tribes	-7782
▁alternative	-7783
rels	-7784
roll	-7785
▁Invest	-7786
▁Pacific	-7787
▁magnificent	-7788
▁Hor	-7789
▁ere	-7790
▁sob	-7791
eline	-7792
▁beasts	-7793
▁province	-7794
▁entertainment	-7795
AND	-7796
ila	-7797
inc	-7798
▁"'	-7799
▁actor	-7800
▁surre	-7801
▁insisted	-7802
▁responsibility	-7803
▁CD	-7804
hend	-7805
▁Earl	-7806
▁fasc	-7807
▁clock	-7808
▁entit	-7809
▁pitch	-7810
▁closer	-7811
▁studio	-7812
▁Wednesday	-7813
▁politician	-7814
mir	-7815
sar	-7816
{\\	-7817
▁albums	-7818
▁Instead	-7819
▁magistr	-7820
▁wearing	-7821
▁challenges	-7822
▁observation	-7823
%.	-7824
48	-7825
Can	-7826
igs	-7827
apel	-7828
orth	-7829
udes	-7830
zing	-7831
anges	-7832
ylvan	-7833
▁blaz	-7834
▁rope	-7835
ington	-7836
▁drank	-7837
▁flame	-7838
▁theatre	-7839
▁discourse	-7840
▁practices	-7841
▁htt	-7842
▁obed	-7843
▁charm	-7844
▁bishop	-7845
▁painful	-7846
▁improved	-7847
▁IS	-7848
ante	-7849
▁1970	-7850
▁anti	-7851
▁borne	-7852
▁wrath	-7853
▁doctrine	-7854
De	-7855
One	-7856
▁Az	-7857
bell	-7858
▁Aut	-7859
▁pace	-7860
▁magic	-7861
▁forever	-7862
▁shaking	-7863
▁Thursday	-7864
▁imagined	-7865
▁ON	-7866
▁disg	-7867
estion	-7868
▁patri	-7869
▁deeper	-7870
▁extensive	-7871
26	-7872
CA	-7873
EG	-7874
▁4,	-7875
▁iv	-7876
▁vice	-7877
▁marks	-7878
▁movie	-7879
▁naked	-7880
▁Walter	-7881
▁assets	-7882
▁singer	-7883
▁utmost	-7884
▁printed	-7885
▁confused	-7886
▁helpless	-7887
▁midnight	-7888
▁Jerusalem	-7889
▁hesitated	-7890
▁resulting	-7891
gn	-7892
”—	-7893
alls	-7894
▁YOU	-7895
▁tot	-7896
▁este	-7897
▁pink	-7898
▁Bible	-7899
onsense	-7900
▁readers	-7901
▁vessels	-7902
▁Carolina	-7903
▁perceive	-7904
▁agreeable	-7905
▁preferred	-7906
▁reflected	-7907
600	-7908
ONE	-7909
iary	-7910
▁desk	-7911
▁noon	-7912
▁cryst	-7913
▁fired	-7914
▁widow	-7915
▁healthy	-7916
▁somebody	-7917
▁neighborhood	-7918
▁ii	-7919
▁Arm	-7920
▁von	-7921
▁irrit	-7922
▁nomin	-7923
▁Brother	-7924
▁deposit	-7925
▁attempts	-7926
▁hundreds	-7927
▁probable	-7928
▁relative	-7929
▁appropriate	-7930
gly	-7931
▁VI	-7932
uity	-7933
▁Cow	-7934
▁cher	-7935
liness	-7936
uations	-7937
▁passes	-7938
▁teaching	-7939
▁reflection	-7940
▁Gre	-7941
▁ped	-7942
▁hatred	-7943
▁equival	-7944
▁happens	-7945
▁internal	-7946
▁transform	-7947
urg	-7948
▁wal	-7949
▁Mess	-7950
▁Grace	-7951
▁limits	-7952
▁status	-7953
▁contrad	-7954
▁sincere	-7955
▁cheerful	-7956
▁magazine	-7957
▁furnished	-7958
▁occasions	-7959
▁officials	-7960
Int	-7961
▁Mu	-7962
Amer	-7963
omed	-7964
plom	-7965
▁ate	-7966
▁Later	-7967
▁boats	-7968
itating	-7969
▁formal	-7970
▁remarks	-7971
▁restrict	-7972
▁multitude	-7973
ieu	-7974
▁Film	-7975
google	-7976
▁Polly	-7977
▁queer	-7978
▁academic	-7979
▁glorious	-7980
▁reaching	-7981
▁ignorance	-7982
;"	-7983
hi	-7984
pany	-7985
▁Gil	-7986
tical	-7987
▁Conn	-7988
▁Expl	-7989
▁Main	-7990
▁batter	-7991
▁conceal	-7992
▁Research	-7993
era	-7994
▁Equ	-7995
▁fame	-7996
▁fant	-7997
▁zero	-7998
ructure	-7999
▁driver	-8000
▁planned	-8001
▁defeated	-8002
▁conference	-8003
];	-8004
fa	-8005
eff	-8006
▁8.	-8007
▁echo	-8008
▁scru	-8009
▁boots	-8010
▁disag	-8011
▁beings	-8012
▁easier	-8013
▁disposed	-8014
▁grateful	-8015
▁necessarily	-8016
ref	-8017
▁(198	-8018
▁eleg	-8019
urches	-8020
▁input	-8021
▁Stephen	-8022
irts	-8023
▁Fel	-8024
▁Hal	-8025
▁Disc	-8026
▁Work	-8027
uously	-8028
▁balls	-8029
▁paralle	-8030
▁attacked	-8031
▁planning	-8032
▁gratitude	-8033
▁remainder	-8034
▁circumstance	-8035
CT	-8036
lla	-8037
▁kid	-8038
ailing	-8039
▁Power	-8040
▁cheap	-8041
▁dimin	-8042
▁haunt	-8043
▁Castle	-8044
▁Olympic	-8045
▁descent	-8046
▁sending	-8047
▁strategy	-8048
▁subtract	-8049
▁belonging	-8050
lle	-8051
▁$$	-8052
▁hypot	-8053
▁phrase	-8054
▁Develop	-8055
▁fiction	-8056
▁restaur	-8057
▁doubtless	-8058
%,	-8059
(1.	-8060
orge	-8061
▁asc	-8062
point	-8063
▁2014	-8064
▁Found	-8065
▁gesture	-8066
ibilities	-8067
▁employees	-8068
▁wondering	-8069
▁continually	-8070
▁instructions	-8071
▁fir	-8072
▁wra	-8073
icket	-8074
▁idle	-8075
▁ours	-8076
▁Market	-8077
▁prejud	-8078
▁rested	-8079
▁serves	-8080
▁license	-8081
▁calculation	-8082
▁instruments	-8083
igr	-8084
closed	-8085
▁Hence	-8086
▁risks	-8087
▁widely	-8088
▁knocked	-8089
▁leather	-8090
▁overcome	-8091
▁Ari	-8092
▁hid	-8093
▁desir	-8094
amation	-8095
▁Greece	-8096
▁terrif	-8097
▁victim	-8098
▁distinction	-8099
otic	-8100
▁sho	-8101
ifies	-8102
otton	-8103
▁negot	-8104
ocation	-8105
▁interior	-8106
▁realized	-8107
▁threatened	-8108
▁examination	-8109
▁independence	-8110
▁Eve	-8111
▁zeal	-8112
▁shirt	-8113
▁hungry	-8114
▁vanished	-8115
AIL	-8116
esc	-8117
ira	-8118
▁48	-8119
▁5,	-8120
----	-8121
pled	-8122
▁Form	-8123
▁Vill	-8124
▁elev	-8125
master	-8126
▁regul	-8127
▁expans	-8128
▁Napoleon	-8129
▁delightful	-8130
With	-8131
▁lap	-8132
▁colors	-8133
▁reckon	-8134
▁shadows	-8135
▁thereof	-8136
▁astonished	-8137
▁accordingly	-8138
Ind	-8139
See	-8140
oof	-8141
rice	-8142
shine	-8143
▁bord	-8144
▁item	-8145
▁shake	-8146
▁senses	-8147
▁smoking	-8148
▁Scottish	-8149
▁professor	-8150
Le	-8151
mo	-8152
olas	-8153
▁End	-8154
▁Var	-8155
▁Kore	-8156
▁auth	-8157
▁genu	-8158
▁scenes	-8159
▁horizon	-8160
▁vehicle	-8161
▁Financial	-8162
▁characteristic	-8163
two	-8164
ouch	-8165
▁Sax	-8166
▁apt	-8167
▁tin	-8168
denly	-8169
▁$100	-8170
▁fuel	-8171
anting	-8172
▁grasp	-8173
ologies	-8174
▁permission	-8175
pher	-8176
▁torn	-8177
aneous	-8178
ouring	-8179
▁worry	-8180
▁incorpor	-8181
78	-8182
cks	-8183
▁Ray	-8184
▁Tal	-8185
▁boo	-8186
ansas	-8187
ultan	-8188
▁Nich	-8189
▁asset	-8190
▁prize	-8191
▁Jersey	-8192
▁assure	-8193
▁consec	-8194
▁tracks	-8195
▁cutting	-8196
▁finance	-8197
▁princes	-8198
▁committee	-8199
})	-8200
ANT	-8201
bet	-8202
▁Ra	-8203
▁Free	-8204
▁Stan	-8205
usions	-8206
▁micro	-8207
▁courts	-8208
▁guarant	-8209
▁ambition	-8210
▁visitors	-8211
▁comprehensive	-8212
Or	-8213
▁Way	-8214
uster	-8215
▁Call	-8216
▁toss	-8217
▁races	-8218
▁straw	-8219
▁Berlin	-8220
▁candle	-8221
▁endure	-8222
▁stroke	-8223
▁existed	-8224
▁hed	-8225
unter	-8226
ousing	-8227
▁clerk	-8228
▁abstract	-8229
▁patients	-8230
po	-8231
cons	-8232
door	-8233
iasm	-8234
load	-8235
▁doth	-8236
ieties	-8237
▁adapt	-8238
▁cries	-8239
▁trace	-8240
▁intend	-8241
▁mainly	-8242
▁protest	-8243
▁throwing	-8244
▁industrial	-8245
▁retirement	-8246
▁AP	-8247
▁SC	-8248
adium	-8249
gency	-8250
▁deny	-8251
▁Times	-8252
▁admire	-8253
▁modest	-8254
▁Journal	-8255
▁chiefly	-8256
▁Business	-8257
▁Presently	-8258
osa	-8259
▁Fa	-8260
care	-8261
▁fab	-8262
▁Sports	-8263
▁mixture	-8264
▁rolling	-8265
▁humanity	-8266
dig	-8267
vet	-8268
▁Write	-8269
▁align	-8270
▁graph	-8271
▁beheld	-8272
▁transp	-8273
lessness	-8274
▁beating	-8275
▁slavery	-8276
▁Constitution	-8277
▁establishment	-8278
orus	-8279
cmake	-8280
ctors	-8281
▁Beat	-8282
▁Desp	-8283
▁Sign	-8284
▁chim	-8285
▁pond	-8286
▁boast	-8287
▁joint	-8288
▁Freder	-8289
▁mortal	-8290
▁prepare	-8291
▁satisfy	-8292
▁examined	-8293
▁initially	-8294
▁positions	-8295
uty	-8296
anes	-8297
iams	-8298
last	-8299
▁affl	-8300
▁arrive	-8301
▁defeat	-8302
▁senior	-8303
▁readily	-8304
▁shouldn	-8305
▁thither	-8306
▁executive	-8307
▁engagement	-8308
arn	-8309
▁UN	-8310
▁vic	-8311
hearted	-8312
▁Railway	-8313
▁obvious	-8314
▁afterward	-8315
▁subsequent	-8316
HAR	-8317
urt	-8318
▁Hay	-8319
state	-8320
▁terr	-8321
▁Pruss	-8322
▁keeps	-8323
▁shone	-8324
▁Spring	-8325
▁staring	-8326
▁expensive	-8327
▁performing	-8328
ser	-8329
▁Af	-8330
month	-8331
▁2016	-8332
▁eggs	-8333
▁eval	-8334
▁knee	-8335
▁leaf	-8336
fortune	-8337
ictions	-8338
ylvania	-8339
▁locked	-8340
▁poured	-8341
▁tables	-8342
▁crowded	-8343
▁temperature	-8344
23	-8345
▁Say	-8346
icking	-8347
making	-8348
▁Field	-8349
▁bench	-8350
▁intim	-8351
▁restored	-8352
▁disposition	-8353
.\	-8354
vi	-8355
ILL	-8356
bye	-8357
ifted	-8358
▁Fest	-8359
▁acid	-8360
▁lift	-8361
▁Assem	-8362
▁Islands	-8363
▁grounds	-8364
▁monetary	-8365
UL	-8366
ho	-8367
uz	-8368
ELL	-8369
aft	-8370
mun	-8371
▁(-	-8372
▁Bud	-8373
▁Tay	-8374
▁Anth	-8375
▁Note	-8376
▁inev	-8377
▁stol	-8378
▁alter	-8379
▁faced	-8380
▁permanent	-8381
5}	-8382
umni	-8383
▁ton	-8384
▁sang	-8385
▁tiny	-8386
▁cliff	-8387
▁eloqu	-8388
▁split	-8389
achment	-8390
▁speaks	-8391
▁majesty	-8392
▁residence	-8393
▁enthusiasm	-8394
▁33	-8395
ands	-8396
▁Bra	-8397
▁Jun	-8398
vance	-8399
ificate	-8400
▁Wilson	-8401
▁Angeles	-8402
▁lightly	-8403
▁approved	-8404
▁strangers	-8405
▁Nevertheless	-8406
IX	-8407
iast	-8408
ilton	-8409
▁Fire	-8410
▁Song	-8411
▁doub	-8412
▁gang	-8413
▁plun	-8414
▁folks	-8415
▁valid	-8416
▁Alexand	-8417
▁assault	-8418
▁declare	-8419
▁helping	-8420
▁pursuit	-8421
▁quarrel	-8422
▁organizations	-8423
▁Fox	-8424
▁Fre	-8425
▁Pot	-8426
▁Top	-8427
▁vex	-8428
arest	-8429
▁prey	-8430
▁engage	-8431
▁Whether	-8432
▁conviction	-8433
▁)	-8434
mind	-8435
▁Bert	-8436
adelph	-8437
hin	-8438
izz	-8439
whel	-8440
▁Gib	-8441
inois	-8442
▁bind	-8443
▁Grant	-8444
▁param	-8445
▁parish	-8446
▁beloved	-8447
▁entreat	-8448
▁featured	-8449
▁accompany	-8450
▁$15	-8451
▁Bad	-8452
heast	-8453
▁Show	-8454
▁duke	-8455
▁nucle	-8456
▁Provide	-8457
▁install	-8458
▁reserve	-8459
▁sharply	-8460
▁sounded	-8461
▁trading	-8462
▁favourite	-8463
▁equivalent	-8464
-0	-8465
agan	-8466
emon	-8467
rage	-8468
▁Hig	-8469
▁Thy	-8470
omach	-8471
▁Poor	-8472
▁mart	-8473
▁skills	-8474
kerchief	-8475
▁genuine	-8476
▁accommod	-8477
▁slightest	-8478
TV	-8479
▁$(	-8480
▁oh	-8481
▁Tax	-8482
▁ath	-8483
agnan	-8484
ashes	-8485
iscal	-8486
▁Girl	-8487
▁neat	-8488
▁accused	-8489
▁attacks	-8490
▁touching	-8491
▁strengthen	-8492
iph	-8493
–20	-8494
arte	-8495
iour	-8496
pton	-8497
stra	-8498
▁Kate	-8499
▁bone	-8500
▁gifts	-8501
▁grows	-8502
▁newly	-8503
▁Corpor	-8504
▁revenge	-8505
▁traffic	-8506
▁chemical	-8507
▁dressing	-8508
▁disturbed	-8509
▁recognize	-8510
▁standards	-8511
▁suggestion	-8512
aned	-8513
olis	-8514
orney	-8515
▁angle	-8516
▁sugar	-8517
▁Region	-8518
attering	-8519
▁Columbia	-8520
▁Additionally	-8521
▁unem	-8522
▁prime	-8523
▁permit	-8524
▁ticket	-8525
quarters	-8526
▁artific	-8527
▁structures	-8528
uction	-8529
▁Marsh	-8530
▁Justice	-8531
▁challenge	-8532
withstanding	-8533
CM	-8534
ali	-8535
inn	-8536
▁$7	-8537
andy	-8538
ques	-8539
▁emp	-8540
atures	-8541
▁dynam	-8542
▁treas	-8543
Artagnan	-8544
▁crossing	-8545
▁scholars	-8546
▁pronounced	-8547
49	-8548
ez	-8549
▁()	-8550
anim	-8551
burn	-8552
thel	-8553
▁10,	-8554
▁Ele	-8555
▁conj	-8556
▁poly	-8557
▁Micro	-8558
▁assess	-8559
▁prayers	-8560
▁Information	-8561
▁AD	-8562
▁Low	-8563
▁Ohio	-8564
▁jobs	-8565
▁tool	-8566
▁Marie	-8567
▁altar	-8568
▁judges	-8569
▁united	-8570
▁pointing	-8571
coat	-8572
▁Dom	-8573
▁inch	-8574
▁advoc	-8575
▁boxes	-8576
▁bride	-8577
▁flash	-8578
▁dragged	-8579
▁offices	-8580
▁visitor	-8581
▁proposal	-8582
▁documents	-8583
▁directions	-8584
▁association	-8585
▁applications	-8586
▁(3	-8587
anna	-8588
▁Bru	-8589
▁CON	-8590
▁Goth	-8591
▁Head	-8592
▁Civil	-8593
▁Simon	-8594
▁depends	-8595
▁examine	-8596
▁explore	-8597
▁assembled	-8598
▁determination	-8599
iders	-8600
▁Thor	-8601
▁spin	-8602
▁ugly	-8603
▁appet	-8604
▁enable	-8605
▁authors	-8606
▁collabor	-8607
▁regiment	-8608
▁intervals	-8609
▁recognition	-8610
("	-8611
▁wee	-8612
lines	-8613
olved	-8614
▁Hugh	-8615
▁poem	-8616
▁hated	-8617
▁honey	-8618
▁jumped	-8619
adelphia	-8620
▁entitled	-8621
▁addressing	-8622
▁respectively	-8623
OO	-8624
vy	-8625
irk	-8626
▁km	-8627
alty	-8628
utor	-8629
Never	-8630
▁Face	-8631
▁cave	-8632
▁plus	-8633
▁folly	-8634
ciences	-8635
▁Common	-8636
▁Jewish	-8637
▁Origin	-8638
▁coward	-8639
▁safely	-8640
▁sighed	-8641
▁awarded	-8642
▁citizen	-8643
▁involve	-8644
▁deserted	-8645
▁overwhel	-8646
▁presents	-8647
▁villages	-8648
▁physician	-8649
▁arrangement	-8650
–18	-8651
oped	-8652
▁ard	-8653
▁deed	-8654
▁slip	-8655
▁Oxford	-8656
▁landscape	-8657
▁provisions	-8658
5%	-8659
dis	-8660
▁70	-8661
agle	-8662
▁Gab	-8663
▁nut	-8664
▁sket	-8665
▁awake	-8666
▁barbar	-8667
▁device	-8668
▁fathers	-8669
▁Suddenly	-8670
▁fraction	-8671
▁concealed	-8672
▁Ha	-8673
anqu	-8674
▁179	-8675
▁buff	-8676
▁entry	-8677
▁encoun	-8678
▁saving	-8679
▁Country	-8680
▁disgrace	-8681
▁hitherto	-8682
▁supplies	-8683
▁enterprise	-8684
_2	-8685
▁AM	-8686
inks	-8687
aning	-8688
▁caut	-8689
▁load	-8690
headed	-8691
▁Ralph	-8692
▁cared	-8693
▁silly	-8694
▁wives	-8695
▁charity	-8696
▁eternal	-8697
▁announce	-8698
▁devotion	-8699
▁launched	-8700
▁muttered	-8701
▁steadily	-8702
bey	-8703
ithm	-8704
rons	-8705
▁Cas	-8706
▁Inf	-8707
▁cam	-8708
ATION	-8709
▁Mult	-8710
istocr	-8711
▁Allah	-8712
▁denied	-8713
▁composition	-8714
SI	-8715
▁RE	-8716
}{2}	-8717
leton	-8718
▁Hope	-8719
▁Dougl	-8720
▁covers	-8721
▁farmer	-8722
atherine	-8723
▁answers	-8724
▁shelter	-8725
▁operating	-8726
▁secretary	-8727
▁controvers	-8728
▁Nic	-8729
▁sne	-8730
▁tap	-8731
mouth	-8732
utter	-8733
▁Hung	-8734
▁dirty	-8735
▁genus	-8736
▁beaten	-8737
▁vulgar	-8738
▁cunning	-8739
▁illness	-8740
▁knights	-8741
▁primarily	-8742
▁strategies	-8743
EST	-8744
May	-8745
bal	-8746
oore	-8747
▁400	-8748
inson	-8749
shire	-8750
▁Ball	-8751
teenth	-8752
aration	-8753
▁diplom	-8754
▁symbol	-8755
▁secured	-8756
▁Consider	-8757
▁estimated	-8758
▁grandfather	-8759
▁Philadelphia	-8760
▁Prem	-8761
▁Test	-8762
attles	-8763
▁Obama	-8764
▁cells	-8765
▁maybe	-8766
▁restr	-8767
▁button	-8768
▁equity	-8769
▁laying	-8770
▁specim	-8771
▁masters	-8772
▁seasons	-8773
▁churches	-8774
▁startled	-8775
▁consisted	-8776
▁simplicity	-8777
▁indignation	-8778
55	-8779
BS	-8780
LIC	-8781
irit	-8782
▁Sup	-8783
▁flu	-8784
▁ske	-8785
acter	-8786
agged	-8787
▁incon	-8788
▁democr	-8789
▁proced	-8790
▁capture	-8791
▁developing	-8792
▁Lam	-8793
▁Use	-8794
eenth	-8795
▁2015	-8796
▁Penns	-8797
▁gross	-8798
-3	-8799
sk	-8800
ollo	-8801
only	-8802
some	-8803
▁sins	-8804
▁tones	-8805
igration	-8806
▁thereby	-8807
▁sensible	-8808
▁substant	-8809
▁broadcast	-8810
otted	-8811
▁Bull	-8812
actory	-8813
▁Broad	-8814
▁cease	-8815
▁feels	-8816
uscript	-8817
▁Awards	-8818
▁neighbourhood	-8819
76	-8820
BA	-8821
seen	-8822
▁jack	-8823
▁puts	-8824
▁disgu	-8825
▁seeds	-8826
▁Silver	-8827
▁interval	-8828
▁situated	-8829
▁Cambridge	-8830
▁marketing	-8831
Qu	-8832
lay	-8833
top	-8834
eron	-8835
▁Ned	-8836
▁Ten	-8837
▁gig	-8838
▁drama	-8839
▁forming	-8840
▁childhood	-8841
▁displayed	-8842
▁contributed	-8843
▁indifferent	-8844
▁Py	-8845
▁VII	-8846
▁syn	-8847
▁asks	-8848
▁push	-8849
▁optim	-8850
▁cancer	-8851
▁stomach	-8852
▁brethren	-8853
▁misfortune	-8854
▁Ka	-8855
▁Ori	-8856
▁avo	-8857
▁slee	-8858
▁bears	-8859
▁Norman	-8860
▁actors	-8861
▁designs	-8862
▁painting	-8863
upp	-8864
asper	-8865
oined	-8866
▁drum	-8867
▁mock	-8868
▁pear	-8869
isible	-8870
▁Special	-8871
▁alongside	-8872
▁Exp	-8873
▁seas	-8874
ements	-8875
▁Force	-8876
▁diver	-8877
▁inequ	-8878
▁ranks	-8879
▁mingled	-8880
▁Assembly	-8881
▁goodness	-8882
▁attracted	-8883
▁relatively	-8884
}$.	-8885
eous	-8886
▁Dec	-8887
▁Inn	-8888
▁Pak	-8889
oping	-8890
▁tide	-8891
▁wake	-8892
blance	-8893
▁Theod	-8894
▁peril	-8895
▁absent	-8896
▁cottage	-8897
▁reproach	-8898
▁universe	-8899
uer	-8900
▁->	-8901
▁Greg	-8902
▁bund	-8903
▁wreck	-8904
▁Milton	-8905
▁Romans	-8906
▁fitted	-8907
▁random	-8908
▁refers	-8909
▁reluct	-8910
▁repair	-8911
▁seconds	-8912
▁significantly	-8913
bin	-8914
olt	-8915
▁Ay	-8916
▁Kh	-8917
▁Pay	-8918
worthy	-8919
▁merit	-8920
▁launch	-8921
American	-8922
▁inquiry	-8923
▁Williams	-8924
▁shooting	-8925
enna	-8926
▁lun	-8927
athan	-8928
ester	-8929
kward	-8930
▁Very	-8931
▁Santa	-8932
▁ingen	-8933
natural	-8934
▁regularly	-8935
▁photograph	-8936
gian	-8937
rows	-8938
▁Ans	-8939
▁XXX	-8940
▁2017	-8941
▁beds	-8942
▁lust	-8943
▁pays	-8944
▁Islam	-8945
▁incom	-8946
▁relax	-8947
▁slope	-8948
▁Bridge	-8949
▁agency	-8950
▁resign	-8951
▁faculty	-8952
▁Illinois	-8953
▁appointment	-8954
▁unconscious	-8955
▁establishments	-8956
Se	-8957
400	-8958
ART	-8959
rot	-8960
run	-8961
▁Fle	-8962
▁Human	-8963
▁Polit	-8964
▁Design	-8965
▁luxury	-8966
▁sector	-8967
▁Douglas	-8968
▁natives	-8969
▁maximize	-8970
▁exhausted	-8971
▁constructed	-8972
iy	-8973
aka	-8974
▁AR	-8975
▁Die	-8976
▁ecc	-8977
▁Cape	-8978
▁Line	-8979
▁Pitt	-8980
▁Price	-8981
▁badly	-8982
▁fires	-8983
▁harsh	-8984
▁vital	-8985
▁comedy	-8986
▁marble	-8987
▁stores	-8988
▁Austria	-8989
▁killing	-8990
▁protected	-8991
▁university	-8992
▁Pennsylvania	-8993
▁Web	-8994
▁Germ	-8995
▁Give	-8996
▁fury	-8997
▁vivid	-8998
▁gazing	-8999
▁polite	-9000
▁enabled	-9001
▁administr	-9002
▁commander	-9003
▁supporting	-9004
▁exceedingly	-9005
Ph	-9006
role	-9007
▁owe	-9008
▁guid	-9009
▁basic	-9010
▁clubs	-9011
▁dates	-9012
▁medium	-9013
▁retain	-9014
▁strain	-9015
▁concepts	-9016
▁advantages	-9017
▁representative	-9018
▁bass	-9019
▁drug	-9020
▁fain	-9021
pended	-9022
▁shift	-9023
▁Series	-9024
▁gloomy	-9025
▁patron	-9026
▁testim	-9027
▁accurate	-9028
▁assembly	-9029
▁dividend	-9030
▁Friedrich	-9031
▁apprehens	-9032
▁prominent	-9033
▁\[	-9034
bler	-9035
▁lou	-9036
▁Sher	-9037
▁nois	-9038
▁stuck	-9039
▁landed	-9040
▁maiden	-9041
▁justify	-9042
▁recalled	-9043
God	-9044
▁38	-9045
▁Der	-9046
orage	-9047
▁burnt	-9048
▁lofty	-9049
▁Family	-9050
▁Summer	-9051
▁buying	-9052
▁depths	-9053
▁profits	-9054
▁realize	-9055
▁prevented	-9056
▁fees	-9057
▁util	-9058
▁wash	-9059
▁eaten	-9060
▁truck	-9061
▁starts	-9062
▁awkward	-9063
▁wherein	-9064
▁aristocr	-9065
▁processes	-9066
46	-9067
alo	-9068
ela	-9069
▁dw	-9070
aron	-9071
osis	-9072
table	-9073
▁myth	-9074
▁scul	-9075
▁grain	-9076
▁Police	-9077
▁rivers	-9078
▁selfish	-9079
▁sustain	-9080
▁captured	-9081
▁answering	-9082
▁condemned	-9083
▁communities	-9084
des	-9085
▁BC	-9086
acco	-9087
iler	-9088
venty	-9089
▁1960	-9090
▁Cond	-9091
leness	-9092
▁Several	-9093
▁resting	-9094
▁assigned	-9095
▁Following	-9096
▁gathering	-9097
▁basketball	-9098
tha	-9099
▁42	-9100
▁$1.	-9101
▁Hur	-9102
▁URL	-9103
▁sty	-9104
▁Arts	-9105
▁Mike	-9106
akened	-9107
▁marve	-9108
▁weigh	-9109
▁lowest	-9110
▁wanting	-9111
▁monsieur	-9112
▁generations	-9113
▁representing	-9114
77	-9115
ja	-9116
rum	-9117
▁2)	-9118
▁Ast	-9119
▁Nay	-9120
redit	-9121
▁Burn	-9122
▁Ruth	-9123
▁choos	-9124
▁curve	-9125
▁delic	-9126
▁occurs	-9127
▁stress	-9128
▁closing	-9129
▁landing	-9130
▁regulations	-9131
rm	-9132
–0	-9133
▁SP	-9134
▁Cab	-9135
▁Case	-9136
▁Open	-9137
▁irre	-9138
illery	-9139
▁Organ	-9140
▁Radio	-9141
▁shell	-9142
▁winds	-9143
▁Taylor	-9144
▁persist	-9145
▁Services	-9146
▁contents	-9147
▁provinces	-9148
▁subsequently	-9149
▁haz	-9150
▁Circ	-9151
▁synt	-9152
angled	-9153
▁Apple	-9154
▁Sarah	-9155
▁faster	-9156
▁tickets	-9157
▁confined	-9158
▁moreover	-9159
▁conception	-9160
▁Has	-9161
▁Max	-9162
▁Six	-9163
▁Tit	-9164
▁Anna	-9165
▁Navy	-9166
inated	-9167
▁rifle	-9168
▁defect	-9169
▁facing	-9170
▁cleared	-9171
▁compare	-9172
▁discont	-9173
▁gallery	-9174
▁inherit	-9175
▁achieved	-9176
▁farewell	-9177
▁expansion	-9178
▁stability	-9179
▁leadership	-9180
▁respectable	-9181
50,	-9182
cus	-9183
def	-9184
iel	-9185
——”	-9186
▁ju	-9187
itty	-9188
onia	-9189
apped	-9190
▁Using	-9191
▁masses	-9192
▁precip	-9193
▁decline	-9194
▁integer	-9195
▁blessing	-9196
▁portrait	-9197
▁Christians	-9198
gain	-9199
kend	-9200
▁Ach	-9201
▁Pur	-9202
▁tom	-9203
▁bills	-9204
▁assert	-9205
▁behalf	-9206
▁perplex	-9207
▁succession	-9208
.[	-9209
▁ol	-9210
▁vib	-9211
▁bust	-9212
▁cure	-9213
▁curs	-9214
▁quad	-9215
▁lunch	-9216
▁piano	-9217
▁sympt	-9218
essions	-9219
▁lesson	-9220
▁powder	-9221
▁multipl	-9222
▁cultural	-9223
▁dedicated	-9224
▁temporary	-9225
▁adventures	-9226
▁discipline	-9227
▁ultimately	-9228
aste	-9229
▁jur	-9230
Thank	-9231
▁Chau	-9232
▁Soon	-9233
▁pled	-9234
erness	-9235
▁Jimmy	-9236
▁Avenue	-9237
▁Review	-9238
▁client	-9239
▁thirst	-9240
▁neglect	-9241
▁trained	-9242
▁engineer	-9243
▁quarterly	-9244
▁disappointed	-9245
96	-9246
pm	-9247
▁Ur	-9248
...|	-9249
▁Bed	-9250
▁gal	-9251
▁Make	-9252
▁yonder	-9253
▁aircraft	-9254
▁struggling	-9255
▁handkerchief	-9256
▁specifically	-9257
oa	-9258
Bec	-9259
oust	-9260
▁Roc	-9261
comes	-9262
▁heir	-9263
quisite	-9264
▁Alfred	-9265
▁resear	-9266
▁holiday	-9267
▁relieved	-9268
▁reception	-9269
-5	-9270
cca	-9271
isa	-9272
esar	-9273
opes	-9274
pert	-9275
▁rhy	-9276
count	-9277
▁Publ	-9278
▁chin	-9279
▁negro	-9280
▁sculpt	-9281
▁certificate	-9282
gor	-9283
kel	-9284
▁CH	-9285
ulus	-9286
▁merc	-9287
▁wars	-9288
▁Games	-9289
▁wages	-9290
▁bewild	-9291
▁exists	-9292
▁extrem	-9293
▁sailed	-9294
▁partial	-9295
▁compounds	-9296
▁wandering	-9297
▁Du	-9298
▁gam	-9299
▁rejo	-9300
▁stab	-9301
▁Angel	-9302
▁Shall	-9303
▁weapon	-9304
▁measured	-9305
▁sensation	-9306
▁manuscript	-9307
oves	-9308
▁10%	-9309
▁Pap	-9310
DRESS	-9311
sters	-9312
▁hind	-9313
▁semi	-9314
▁soot	-9315
itudes	-9316
▁Short	-9317
▁spake	-9318
▁squad	-9319
regular	-9320
▁prosec	-9321
▁sexual	-9322
▁imprison	-9323
▁indicate	-9324
▁suggests	-9325
▁technical	-9326
▁efficiency	-9327
▁governments	-9328
▁investigation	-9329
had	-9330
rad	-9331
▁ec	-9332
dess	-9333
▁Bir	-9334
▁Maur	-9335
herent	-9336
▁trusted	-9337
▁betrayed	-9338
▁sunshine	-9339
▁conceived	-9340
:**	-9341
htt	-9342
whe	-9343
REET	-9344
▁Log	-9345
▁shy	-9346
▁wilt	-9347
Because	-9348
▁writes	-9349
▁Despite	-9350
▁impulse	-9351
▁Atlantic	-9352
▁parallel	-9353
▁preserve	-9354
▁reminded	-9355
TA	-9356
▁Vi	-9357
rast	-9358
uish	-9359
annan	-9360
arson	-9361
ensed	-9362
inter	-9363
▁Walk	-9364
▁Coast	-9365
▁sanct	-9366
▁constr	-9367
▁decent	-9368
▁elimin	-9369
▁vanity	-9370
▁counted	-9371
▁heavens	-9372
▁covering	-9373
▁identify	-9374
▁candidate	-9375
▁equations	-9376
▁travelling	-9377
▁consequently	-9378
SS	-9379
heim	-9380
hips	-9381
▁Lew	-9382
▁insol	-9383
▁rarely	-9384
▁altered	-9385
▁leisure	-9386
▁eighteen	-9387
▁passions	-9388
'(	-9389
AV	-9390
Tis	-9391
pic	-9392
▁6:	-9393
▁9.	-9394
eers	-9395
onic	-9396
▁10.	-9397
▁Eth	-9398
▁Sin	-9399
▁Budd	-9400
active	-9401
▁Kings	-9402
▁remem	-9403
▁Battle	-9404
▁guards	-9405
▁upward	-9406
▁demands	-9407
▁declined	-9408
▁passengers	-9409
pot	-9410
▁FR	-9411
othy	-9412
▁tie	-9413
actor	-9414
▁onto	-9415
inence	-9416
▁matches	-9417
▁emotions	-9418
hist	-9419
onym	-9420
vard	-9421
▁rud	-9422
▁limbs	-9423
▁lasted	-9424
▁scandal	-9425
▁supreme	-9426
▁swiftly	-9427
▁supplied	-9428
▁narrative	-9429
▁newspapers	-9430
▁environmental	-9431
42	-9432
SON	-9433
▁nom	-9434
irect	-9435
▁Hind	-9436
▁Think	-9437
▁Holmes	-9438
▁denote	-9439
▁insist	-9440
▁script	-9441
▁techniques	-9442
▁acknowledged	-9443
AF	-9444
Sir	-9445
▁Mot	-9446
gence	-9447
▁Does	-9448
▁Full	-9449
▁heed	-9450
▁stum	-9451
▁tact	-9452
▁deeds	-9453
▁carbon	-9454
▁Revenue	-9455
▁abruptly	-9456
▁guidance	-9457
▁fundament	-9458
▁indicated	-9459
▁organized	-9460
▁None	-9461
ulating	-9462
▁Daniel	-9463
▁hiding	-9464
▁defense	-9465
▁stirred	-9466
HT	-9467
wan	-9468
ogue	-9469
▁vir	-9470
▁aged	-9471
▁mast	-9472
▁Color	-9473
▁Could	-9474
▁heels	-9475
▁Golden	-9476
▁intelligent	-9477
▁championship	-9478
LY	-9479
ko	-9480
iac	-9481
▁Ut	-9482
▁Ins	-9483
▁Nob	-9484
▁Vic	-9485
▁tid	-9486
▁pains	-9487
▁Rachel	-9488
▁listed	-9489
▁oldest	-9490
▁submit	-9491
▁factory	-9492
▁fishing	-9493
▁stopping	-9494
▁warriors	-9495
▁effectively	-9496
bes	-9497
lie	-9498
ype	-9499
▁Les	-9500
oster	-9501
▁2018	-9502
▁Eric	-9503
▁Imper	-9504
▁Notes	-9505
▁unple	-9506
alities	-9507
▁lament	-9508
▁gravely	-9509
▁producer	-9510
▁fortunate	-9511
▁distinguish	-9512
rec	-9513
aren	-9514
rious	-9515
▁jest	-9516
▁mail	-9517
bourne	-9518
▁draft	-9519
▁fatig	-9520
▁topic	-9521
▁trump	-9522
rection	-9523
▁mirror	-9524
▁Turkish	-9525
▁abandon	-9526
▁liberal	-9527
▁Treaties	-9528
▁Democratic	-9529
▁distinctly	-9530
▁occupation	-9531
▁architecture	-9532
},	-9533
10,	-9534
▁</	-9535
▁Ze	-9536
▁Mut	-9537
▁wax	-9538
berry	-9539
ilipp	-9540
▁Base	-9541
▁butt	-9542
▁Samuel	-9543
▁talent	-9544
▁Supreme	-9545
▁package	-9546
▁yielded	-9547
▁dwelling	-9548
▁grin	-9549
▁moist	-9550
▁risen	-9551
▁stake	-9552
ologist	-9553
▁intent	-9554
▁causing	-9555
▁victims	-9556
▁produces	-9557
▁persuaded	-9558
}\\	-9559
▁8,	-9560
word	-9561
▁Amb	-9562
▁Bou	-9563
▁Sem	-9564
▁gre	-9565
ethod	-9566
Perhaps	-9567
▁Engine	-9568
▁armies	-9569
▁funding	-9570
▁Victoria	-9571
▁reserved	-9572
▁solitary	-9573
▁ridiculous	-9574
▁improvement	-9575
▁indifference	-9576
ogs	-9577
▁PH	-9578
▁Syd	-9579
aired	-9580
ennis	-9581
itage	-9582
▁Cart	-9583
▁Read	-9584
▁aren	-9585
▁corp	-9586
▁cloak	-9587
▁exert	-9588
▁plains	-9589
▁Mexican	-9590
▁conquer	-9591
▁weeping	-9592
▁clothing	-9593
▁executed	-9594
▁upstairs	-9595
▁preparing	-9596
▁confession	-9597
▁educational	-9598
;”	-9599
(\\	-9600
cal	-9601
wed	-9602
inch	-9603
uded	-9604
▁goin	-9605
aparte	-9606
▁eleph	-9607
issions	-9608
▁tranqu	-9609
▁Between	-9610
▁highlight	-9611
▁precisely	-9612
LD	-9613
iro	-9614
gate	-9615
piece	-9616
▁sway	-9617
▁Being	-9618
▁humor	-9619
▁revel	-9620
▁theme	-9621
▁losses	-9622
▁motive	-9623
▁visits	-9624
▁clients	-9625
▁embrace	-9626
▁highway	-9627
▁hastened	-9628
▁reasoning	-9629
▁solutions	-9630
aire	-9631
aser	-9632
eyed	-9633
pool	-9634
rett	-9635
rily	-9636
}{3}	-9637
▁arise	-9638
▁loans	-9639
▁sites	-9640
▁spell	-9641
▁courtes	-9642
▁perspect	-9643
▁resource	-9644
▁footballer	-9645
▁@	-9646
ipt	-9647
zed	-9648
▁“'	-9649
tery	-9650
arded	-9651
riers	-9652
▁lend	-9653
anguage	-9654
▁lively	-9655
▁pretend	-9656
▁gracious	-9657
▁intimate	-9658
▁silently	-9659
Cl	-9660
▁SE	-9661
phew	-9662
uset	-9663
▁sam	-9664
▁Bond	-9665
▁Brad	-9666
▁adap	-9667
▁dict	-9668
▁heap	-9669
▁mant	-9670
▁Place	-9671
▁fanci	-9672
▁hired	-9673
▁hydro	-9674
ADDRESS	-9675
▁amused	-9676
▁liquid	-9677
▁earliest	-9678
▁resident	-9679
▁ventured	-9680
▁substitute	-9681
td	-9682
aria	-9683
arks	-9684
▁Fal	-9685
▁Key	-9686
inger	-9687
▁brass	-9688
▁camer	-9689
▁Sultan	-9690
▁briefly	-9691
▁slender	-9692
▁romantic	-9693
▁tendency	-9694
▁ascertain	-9695
▁exquisite	-9696
▁appearances	-9697
98	-9698
wen	-9699
idly	-9700
▁Kat	-9701
▁gown	-9702
▁funny	-9703
▁ruined	-9704
▁aspects	-9705
▁pressing	-9706
▁discussed	-9707
▁Management	-9708
CC	-9709
▁!	-9710
ARD	-9711
▁Sa	-9712
vous	-9713
osity	-9714
▁Amaz	-9715
▁Five	-9716
▁vine	-9717
▁likes	-9718
▁owing	-9719
▁Florence	-9720
▁recollect	-9721
▁invitation	-9722
’,	-9723
hor	-9724
cers	-9725
hour	-9726
▁Dry	-9727
▁laz	-9728
ERSON	-9729
▁Cult	-9730
▁circul	-9731
▁Holland	-9732
▁upright	-9733
▁criticism	-9734
▁definition	-9735
▁tournament	-9736
▁Development	-9737
zo	-9738
cup	-9739
▁Cop	-9740
▁Unt	-9741
omial	-9742
ridge	-9743
▁Simpl	-9744
▁femin	-9745
▁roses	-9746
▁salary	-9747
▁traged	-9748
▁railroad	-9749
▁reaction	-9750
▁converted	-9751
▁efficient	-9752
iner	-9753
razy	-9754
▁Sel	-9755
▁unm	-9756
SPORT	-9757
▁1996	-9758
▁craw	-9759
▁trop	-9760
friend	-9761
▁blows	-9762
▁fetch	-9763
▁Author	-9764
▁feeble	-9765
▁nephew	-9766
▁warned	-9767
▁Director	-9768
▁distract	-9769
▁trembled	-9770
▁breathing	-9771
▁evolution	-9772
▁lightning	-9773
▁arrangements	-9774
▁transportation	-9775
sl	-9776
elia	-9777
grad	-9778
lete	-9779
pers	-9780
umer	-9781
wall	-9782
▁20%	-9783
faced	-9784
▁Lind	-9785
▁brig	-9786
▁damp	-9787
▁wept	-9788
hedral	-9789
acement	-9790
▁leaped	-9791
▁pencil	-9792
▁relate	-9793
▁injured	-9794
▁deceived	-9795
▁consumption	-9796
▁inspiration	-9797
▁translation	-9798
▁75	-9799
uther	-9800
example	-9801
▁chairs	-9802
▁debate	-9803
▁hunger	-9804
▁thrill	-9805
▁Theatre	-9806
▁cavalry	-9807
▁concert	-9808
▁Festival	-9809
▁residents	-9810
▁influenced	-9811
▁recommended	-9812
▁contemporary	-9813
▁unemployment	-9814
cia	-9815
▁era	-9816
▁tob	-9817
▁Gard	-9818
▁foul	-9819
▁warn	-9820
▁adorn	-9821
▁chart	-9822
ASSPORT	-9823
cluding	-9824
▁ambass	-9825
▁assass	-9826
▁stolen	-9827
engeance	-9828
▁deserve	-9829
▁dispute	-9830
▁letting	-9831
AK	-9832
sen	-9833
▁34	-9834
▁IT	-9835
▁$12	-9836
▁hem	-9837
▁mac	-9838
ghter	-9839
▁diet	-9840
▁isol	-9841
▁Ident	-9842
▁argued	-9843
▁hoping	-9844
▁repent	-9845
▁instances	-9846
▁expressions	-9847
68	-9848
HER	-9849
ennes	-9850
ighty	-9851
never	-9852
▁Hunt	-9853
minded	-9854
▁crept	-9855
▁deadly	-9856
▁persec	-9857
▁subtle	-9858
▁wannan	-9859
▁weekly	-9860
▁colours	-9861
▁describes	-9862
▁continuous	-9863
die	-9864
igen	-9865
oper	-9866
▁Syn	-9867
▁pig	-9868
▁flav	-9869
▁mead	-9870
▁pine	-9871
▁Thank	-9872
▁museum	-9873
▁novels	-9874
ervative	-9875
▁alleged	-9876
▁Nicholas	-9877
1]	-9878
bi	-9879
rat	-9880
▁Ok	-9881
arms	-9882
acked	-9883
immer	-9884
igence	-9885
▁incap	-9886
▁Pierre	-9887
▁Spirit	-9888
▁astron	-9889
▁dealing	-9890
▁obscure	-9891
▁peasant	-9892
▁educated	-9893
▁compliment	-9894
EF	-9895
aska	-9896
▁Sab	-9897
▁Mars	-9898
▁Real	-9899
▁bloom	-9900
▁illeg	-9901
▁verse	-9902
▁Turkey	-9903
▁copies	-9904
▁resent	-9905
▁Neither	-9906
▁dreamed	-9907
▁restore	-9908
▁seventy	-9909
▁moderate	-9910
▁investing	-9911
▁sensitive	-9912
▁prosperity	-9913
▁observations	-9914
gie	-9915
vas	-9916
From	-9917
uled	-9918
▁183	-9919
▁Tro	-9920
▁unl	-9921
▁Bour	-9922
▁Hart	-9923
▁joke	-9924
▁veil	-9925
▁poets	-9926
▁stoop	-9927
▁ceremon	-9928
▁compens	-9929
▁fearful	-9930
▁tremend	-9931
▁variables	-9932
▁attractive	-9933
▁significance	-9934
inem	-9935
iors	-9936
maid	-9937
▁Ron	-9938
acent	-9939
geant	-9940
liver	-9941
share	-9942
▁Iran	-9943
ighter	-9944
retion	-9945
▁swung	-9946
▁obeyed	-9947
▁pursue	-9948
▁climbed	-9949
▁convert	-9950
▁disagree	-9951
▁disorder	-9952
▁ornament	-9953
▁impressed	-9954
▁Englishman	-9955
▁disappointment	-9956
OE	-9957
ht	-9958
has	-9959
nic	-9960
rawn	-9961
▁dus	-9962
▁rav	-9963
itzer	-9964
▁2019	-9965
▁Lucy	-9966
▁fans	-9967
▁papa	-9968
antern	-9969
oubted	-9970
usetts	-9971
▁Ethel	-9972
▁Stone	-9973
▁Third	-9974
▁brows	-9975
▁numer	-9976
▁Square	-9977
▁Sydney	-9978
▁breeze	-9979
▁errors	-9980
▁prohib	-9981
▁Massach	-9982
▁Mountain	-9983
▁conclude	-9984
▁respects	-9985
▁Conference	-9986
▁perfection	-9987
57	-9988
raph	-9989
yers	-9990
▁Ice	-9991
ushes	-9992
▁Gray	-9993
▁Team	-9994
▁ashes	-9995
▁pairs	-9996
▁sweep	-9997
▁trunk	-9998
▁attain	-9999
▁fiscal	-10000
▁comprom	-10001
▁fancied	-10002
▁outward	-10003
▁scholar	-10004
▁stretch	-10005
▁absorbed	-10006
▁privilege	-10007
▁inequality	-10008
▁passionate	-10009
▁tenderness	-10010
▁distributed	-10011
▁Massachusetts	-10012
idd	-10013
▁37	-10014
asty	-10015
oard	-10016
break	-10017
▁Ford	-10018
▁Ivan	-10019
▁hook	-10020
▁earns	-10021
▁quoth	-10022
content	-10023
▁aggreg	-10024
▁posted	-10025
▁rebell	-10026
▁wheels	-10027
▁gardens	-10028
▁marched	-10029
▁Remember	-10030
▁festival	-10031
▁pleasures	-10032
En	-10033
agu	-10034
cker	-10035
risk	-10036
▁FOR	-10037
▁raw	-10038
UDENT	-10039
▁Clin	-10040
▁mate	-10041
▁pile	-10042
▁wret	-10043
ingham	-10044
▁Creek	-10045
▁linen	-10046
▁autumn	-10047
▁unjust	-10048
▁lessons	-10049
▁appetite	-10050
▁daylight	-10051
▁withdrew	-10052
▁arguments	-10053
▁instruction	-10054
08	-10055
sa	-10056
▁$30	-10057
▁Aff	-10058
apsed	-10059
atisf	-10060
graph	-10061
▁flex	-10062
▁hint	-10063
▁rays	-10064
▁cotton	-10065
▁prophe	-10066
▁suited	-10067
aneously	-10068
▁belongs	-10069
▁painter	-10070
▁doubtful	-10071
▁facility	-10072
▁murdered	-10073
▁recovery	-10074
Bot	-10075
away	-10076
rust	-10077
▁Amy	-10078
▁aer	-10079
▁brut	-10080
▁vest	-10081
▁Clare	-10082
▁assign	-10083
▁retail	-10084
▁shells	-10085
▁Project	-10086
▁actress	-10087
▁flashed	-10088
▁nonsense	-10089
▁passport	-10090
▁motionless	-10091
omon	-10092
tree	-10093
▁600	-10094
▁Alb	-10095
▁Jos	-10096
▁Bart	-10097
▁Glob	-10098
▁hasn	-10099
▁trif	-10100
▁Chris	-10101
▁sixth	-10102
▁Friend	-10103
▁titles	-10104
▁footstep	-10105
▁wherever	-10106
▁respective	-10107
▁maintaining	-10108
▁ba	-10109
woman	-10110
▁Made	-10111
▁thir	-10112
▁bands	-10113
▁fairy	-10114
▁posts	-10115
▁differ	-10116
atically	-10117
▁Library	-10118
▁biggest	-10119
▁chances	-10120
▁doorway	-10121
▁inferior	-10122
▁Catherine	-10123
▁publication	-10124
EW	-10125
800	-10126
aga	-10127
▁7,	-10128
fare	-10129
llen	-10130
▁Beh	-10131
▁Bos	-10132
▁MAR	-10133
▁Rat	-10134
IVING	-10135
icide	-10136
▁roar	-10137
riving	-10138
▁wrest	-10139
▁Georgia	-10140
▁approval	-10141
▁contented	-10142
▁irregular	-10143
▁facilities	-10144
nie	-10145
oli	-10146
vag	-10147
▁Ce	-10148
▁EM	-10149
ENSE	-10150
fire	-10151
▁Mme	-10152
▁tyr	-10153
▁VIII	-10154
viously	-10155
▁Google	-10156
▁daring	-10157
▁elabor	-10158
▁ending	-10159
▁scored	-10160
▁advised	-10161
▁pockets	-10162
▁reprodu	-10163
▁Egyptian	-10164
▁summoned	-10165
▁followers	-10166
oni	-10167
▁brush	-10168
related	-10169
▁Return	-10170
▁agents	-10171
▁legend	-10172
▁desires	-10173
▁replace	-10174
▁virtues	-10175
Amendment	-10176
▁relevant	-10177
▁ministers	-10178
▁strangely	-10179
▁Lieutenant	-10180
▁acknowledge	-10181
▁transferred	-10182
▁$9	-10183
umps	-10184
unct	-10185
▁dow	-10186
ADHAR	-10187
ribly	-10188
▁abol	-10189
▁adds	-10190
▁owed	-10191
▁palm	-10192
ifully	-10193
iquity	-10194
necess	-10195
▁brick	-10196
▁ruled	-10197
tenance	-10198
▁Within	-10199
▁analog	-10200
▁humour	-10201
▁Protest	-10202
▁promote	-10203
▁coverage	-10204
▁obedience	-10205
▁identified	-10206
▁successfully	-10207
rod	-10208
▁BR	-10209
▁Ni	-10210
▁category	-10211
▁depending	-10212
▁staircase	-10213
▁consisting	-10214
41	-10215
▁(5	-10216
▁Aud	-10217
▁NOT	-10218
▁Row	-10219
aters	-10220
leans	-10221
▁$200	-10222
▁Band	-10223
▁beer	-10224
▁cock	-10225
▁flee	-10226
▁Laura	-10227
▁recru	-10228
▁domain	-10229
▁mischief	-10230
▁telephone	-10231
0)	-10232
43	-10233
cur	-10234
why	-10235
aman	-10236
▁yer	-10237
▁cuts	-10238
▁lots	-10239
▁Admin	-10240
▁mourn	-10241
▁stole	-10242
▁acquis	-10243
▁Barbara	-10244
▁harmony	-10245
▁estimate	-10246
▁rejected	-10247
▁encourage	-10248
-20	-10249
grat	-10250
▁Dod	-10251
rating	-10252
▁coarse	-10253
iliation	-10254
▁flushed	-10255
▁staying	-10256
▁wrapped	-10257
▁floating	-10258
▁propriet	-10259
▁retained	-10260
▁strictly	-10261
▁districts	-10262
▁fragments	-10263
vo	-10264
gro	-10265
▁que	-10266
impse	-10267
▁1997	-10268
▁Week	-10269
▁quit	-10270
▁decimal	-10271
▁guessed	-10272
▁infrast	-10273
▁Hamilton	-10274
▁Imperial	-10275
▁contribute	-10276
▁Ak	-10277
list	-10278
ureau	-10279
▁Game	-10280
▁blast	-10281
▁guilt	-10282
▁irres	-10283
▁sober	-10284
STUDENT	-10285
▁Tarzan	-10286
▁collar	-10287
▁vocals	-10288
▁washed	-10289
▁amazing	-10290
▁caution	-10291
▁emerged	-10292
▁funeral	-10293
▁insects	-10294
▁torment	-10295
▁meantime	-10296
▁Something	-10297
▁statements	-10298
▁expectation	-10299
▁preparation	-10300
▁civilization	-10301
ulp	-10302
ouri	-10303
urred	-10304
▁namely	-10305
▁openly	-10306
▁thresh	-10307
▁darling	-10308
▁glimpse	-10309
▁Facebook	-10310
▁Internet	-10311
▁borrowed	-10312
▁resulted	-10313
▁wandered	-10314
▁wilderness	-10315
▁representation	-10316
OG	-10317
END	-10318
ova	-10319
▁Wy	-10320
▁Rus	-10321
▁kil	-10322
inery	-10323
iolet	-10324
▁pound	-10325
▁Thanks	-10326
▁finest	-10327
▁immort	-10328
▁disgust	-10329
▁romance	-10330
▁tobacco	-10331
▁enjoyment	-10332
▁messenger	-10333
dam	-10334
hum	-10335
▁EN	-10336
Take	-10337
Tell	-10338
iser	-10339
quer	-10340
real	-10341
▁Rue	-10342
▁Joan	-10343
NUMBER	-10344
akespe	-10345
course	-10346
ighted	-10347
olitan	-10348
▁debts	-10349
▁spear	-10350
LICENSE	-10351
▁verses	-10352
▁Anthony	-10353
▁alarmed	-10354
▁whither	-10355
▁deserved	-10356
▁Bonaparte	-10357
▁consumers	-10358
▁Foundation	-10359
ji	-10360
RAT	-10361
hol	-10362
▁Ru	-10363
iped	-10364
▁Mic	-10365
▁cos	-10366
three	-10367
▁ener	-10368
▁wagon	-10369
▁alumni	-10370
▁carpet	-10371
▁incons	-10372
▁Windows	-10373
▁furious	-10374
▁extravag	-10375
▁surround	-10376
▁artificial	-10377
▁parliament	-10378
▁personally	-10379
▁questioned	-10380
▁expectations	-10381
New	-10382
▁HE	-10383
Just	-10384
asse	-10385
irds	-10386
▁dine	-10387
▁Peace	-10388
▁Roger	-10389
▁Steve	-10390
▁abuse	-10391
▁ruins	-10392
▁Oliver	-10393
▁doubts	-10394
iography	-10395
▁volumes	-10396
▁fourteen	-10397
▁garments	-10398
▁expecting	-10399
▁secondary	-10400
▁accomplish	-10401
fold	-10402
▁Cov	-10403
▁Vin	-10404
▁hut	-10405
epend	-10406
▁Jord	-10407
▁True	-10408
▁blew	-10409
▁peop	-10410
people	-10411
▁Trust	-10412
▁wanda	-10413
▁bullet	-10414
interest	-10415
ositions	-10416
▁Persian	-10417
▁notable	-10418
▁forecast	-10419
▁surprising	-10420
▁potentially	-10421
{5	-10422
zes	-10423
▁7:	-10424
,000,	-10425
ERNAME	-10426
▁Round	-10427
▁agony	-10428
Nothing	-10429
▁explos	-10430
▁Abraham	-10431
▁prolong	-10432
▁baseball	-10433
▁memories	-10434
▁recording	-10435
▁vengeance	-10436
▁convenient	-10437
/5	-10438
PS	-10439
ima	-10440
oen	-10441
▁Ot	-10442
▁tu	-10443
▁MRS	-10444
▁Moh	-10445
▁ink	-10446
▁Emma	-10447
▁clay	-10448
urable	-10449
▁token	-10450
▁eldest	-10451
▁folded	-10452
▁lovers	-10453
▁candles	-10454
▁believes	-10455
▁jealousy	-10456
▁admirable	-10457
▁confessed	-10458
▁responses	-10459
Eng	-10460
fig	-10461
iere	-10462
▁Ren	-10463
▁lip	-10464
adise	-10465
etime	-10466
▁Mort	-10467
▁tomb	-10468
▁Domin	-10469
▁Prime	-10470
chestra	-10471
▁Poland	-10472
▁marvel	-10473
▁exagger	-10474
▁Michigan	-10475
▁symptoms	-10476
▁provision	-10477
▁restaurant	-10478
▁experiments	-10479
▁philosopher	-10480
97	-10481
six	-10482
▁eh	-10483
olph	-10484
▁191	-10485
▁fount	-10486
▁whirl	-10487
▁banking	-10488
▁conspir	-10489
▁exposure	-10490
▁fastened	-10491
▁classical	-10492
▁earnestly	-10493
▁promotion	-10494
▁threshold	-10495
OOK	-10496
api	-10497
▁6,	-10498
rane	-10499
▁oak	-10500
eller	-10501
forth	-10502
llers	-10503
▁ward	-10504
called	-10505
▁2006,	-10506
▁Hotel	-10507
▁Right	-10508
▁Today	-10509
▁dried	-10510
borough	-10511
▁infant	-10512
▁swords	-10513
▁confirm	-10514
▁puzzled	-10515
▁bitterly	-10516
▁reducing	-10517
▁struggled	-10518
▁characteristics	-10519
bec	-10520
cut	-10521
una	-10522
even	-10523
grim	-10524
soft	-10525
▁Pick	-10526
▁core	-10527
▁dumb	-10528
▁gran	-10529
▁trap	-10530
▁wins	-10531
▁array	-10532
▁drops	-10533
itional	-10534
▁nerves	-10535
▁prayed	-10536
▁rescue	-10537
▁discern	-10538
▁champion	-10539
▁searching	-10540
▁transaction	-10541
HAT	-10542
thy	-10543
▁39	-10544
▁pp	-10545
iege	-10546
orph	-10547
glass	-10548
▁Hans	-10549
▁Live	-10550
profit	-10551
▁blend	-10552
▁logic	-10553
▁plane	-10554
▁realm	-10555
▁tales	-10556
▁bloody	-10557
▁sunset	-10558
▁fortunes	-10559
▁emergency	-10560
▁philosoph	-10561
▁accumulated	-10562
▁infrastructure	-10563
Sc	-10564
▁CE	-10565
azar	-10566
ials	-10567
rete	-10568
weet	-10569
▁Oak	-10570
▁fri	-10571
chair	-10572
▁Rest	-10573
▁deer	-10574
ounted	-10575
▁apple	-10576
▁cents	-10577
▁opera	-10578
▁sadly	-10579
▁Indust	-10580
▁Charlie	-10581
▁forests	-10582
▁glasses	-10583
▁propose	-10584
▁shepher	-10585
▁Military	-10586
▁Shakespe	-10587
▁delivery	-10588
▁commenced	-10589
▁requested	-10590
▁testimony	-10591
iat	-10592
▁(4	-10593
▁Ho	-10594
oric	-10595
▁BBC	-10596
▁Tob	-10597
child	-10598
ptions	-10599
raints	-10600
▁ninet	-10601
▁Forest	-10602
▁commod	-10603
▁tempor	-10604
▁visual	-10605
▁Express	-10606
▁secrets	-10607
▁engaging	-10608
▁operated	-10609
▁peaceful	-10610
▁dismissed	-10611
▁exchanged	-10612
▁responded	-10613
▁encouraged	-10614
▁notwithstanding	-10615
87	-10616
Mar	-10617
loc	-10618
▁&=	-10619
▁Li	-10620
▁Pa	-10621
▁cm	-10622
such	-10623
▁Arn	-10624
▁Put	-10625
▁rug	-10626
eches	-10627
organ	-10628
▁Dist	-10629
▁Wolf	-10630
▁aven	-10631
PERSON	-10632
ishops	-10633
▁Armen	-10634
▁Creat	-10635
▁Prize	-10636
▁explo	-10637
▁holes	-10638
▁steal	-10639
▁Norway	-10640
▁thyself	-10641
▁tomorrow	-10642
▁Charlotte	-10643
ti	-10644
hent	-10645
life	-10646
ogen	-10647
type	-10648
about	-10649
bound	-10650
eters	-10651
ospel	-10652
▁bulk	-10653
▁ench	-10654
intend	-10655
▁abode	-10656
▁discl	-10657
▁prote	-10658
▁fruits	-10659
▁summit	-10660
itations	-10661
▁diverse	-10662
▁visiting	-10663
▁neighbors	-10664
▁faithfully	-10665
oval	-10666
sels	-10667
▁Ott	-10668
▁vot	-10669
gines	-10670
▁(197	-10671
▁Sant	-10672
▁Ward	-10673
ambers	-10674
earing	-10675
ermine	-10676
uating	-10677
▁Gener	-10678
▁Guard	-10679
▁afore	-10680
▁fraud	-10681
▁chapel	-10682
▁statue	-10683
▁wounds	-10684
▁hideous	-10685
▁premium	-10686
▁reviews	-10687
▁comrades	-10688
▁sunlight	-10689
▁generated	-10690
▁primitive	-10691
▁attributed	-10692
▁consistent	-10693
▁recognised	-10694
PH	-10695
tan	-10696
bery	-10697
▁fed	-10698
ancer	-10699
▁Burg	-10700
▁sofa	-10701
▁Henri	-10702
▁essay	-10703
▁flows	-10704
▁reass	-10705
▁Kansas	-10706
▁Minnes	-10707
▁dishon	-10708
▁carries	-10709
▁congrat	-10710
▁devices	-10711
▁multiply	-10712
▁amusement	-10713
▁violently	-10714
▁transactions	-10715
)(	-10716
PR	-10717
▁DR	-10718
ithe	-10719
ucked	-10720
▁Poly	-10721
▁sire	-10722
▁coord	-10723
▁gains	-10724
▁Should	-10725
▁deemed	-10726
▁medals	-10727
▁monitor	-10728
▁streams	-10729
▁consumer	-10730
▁overlook	-10731
▁varieties	-10732
▁compassion	-10733
▁proceedings	-10734
▁programming	-10735
mate	-10736
▁Age	-10737
▁Han	-10738
▁alc	-10739
▁Mach	-10740
▁Prop	-10741
▁Till	-10742
▁Gabri	-10743
▁appar	-10744
▁dense	-10745
▁pious	-10746
▁purse	-10747
▁disple	-10748
▁farmers	-10749
▁offence	-10750
▁session	-10751
▁villain	-10752
▁warrant	-10753
▁passages	-10754
▁conquered	-10755
▁objection	-10756
ALL	-10757
Miss	-10758
–200	-10759
▁cyl	-10760
▁fog	-10761
▁mit	-10762
▁Alan	-10763
▁Bang	-10764
▁Cass	-10765
▁ange	-10766
▁alleg	-10767
▁uneas	-10768
version	-10769
▁crimes	-10770
▁theore	-10771
PERSONAL	-10772
▁graceful	-10773
▁landlord	-10774
▁meetings	-10775
▁unnecess	-10776
▁municipality	-10777
▁Tam	-10778
▁Vis	-10779
▁weep	-10780
▁wont	-10781
orting	-10782
writer	-10783
▁2009,	-10784
▁initi	-10785
▁rises	-10786
▁strip	-10787
▁Contin	-10788
▁bushes	-10789
▁loaded	-10790
▁critics	-10791
▁massive	-10792
▁speaker	-10793
▁wealthy	-10794
▁Province	-10795
▁awakened	-10796
▁careless	-10797
▁persuade	-10798
▁studying	-10799
▁vehicles	-10800
▁Christianity	-10801
DA	-10802
{4	-10803
▁9,	-10804
iley	-10805
ylon	-10806
▁kne	-10807
▁1995	-10808
▁belt	-10809
▁neut	-10810
▁seal	-10811
brance	-10812
▁2011,	-10813
▁Labor	-10814
▁index	-10815
urities	-10816
▁Polish	-10817
▁Valent	-10818
▁brains	-10819
▁esteem	-10820
▁madame	-10821
▁trifle	-10822
▁classic	-10823
▁framework	-10824
▁lieutenant	-10825
89	-10826
IST	-10827
gery	-10828
pson	-10829
▁480	-10830
▁Isa	-10831
▁Rou	-10832
▁Hand	-10833
▁Moon	-10834
▁garr	-10835
▁Davis	-10836
▁Fanny	-10837
▁Greeks	-10838
▁amidst	-10839
▁apolog	-10840
▁Program	-10841
▁Official	-10842
Bl	-10843
ni	-10844
bus	-10845
esp	-10846
owl	-10847
rium	-10848
▁aug	-10849
▁esp	-10850
▁exh	-10851
opher	-10852
▁$500	-10853
▁Balt	-10854
▁Lane	-10855
▁surf	-10856
houses	-10857
▁curse	-10858
▁dined	-10859
ilation	-10860
▁admired	-10861
▁commands	-10862
▁comments	-10863
▁teachers	-10864
▁treacher	-10865
▁hypothesis	-10866
▁industries	-10867
Cf	-10868
00.	-10869
His	-10870
TON	-10871
www	-10872
****	-10873
ghan	-10874
made	-10875
rors	-10876
▁Din	-10877
▁Sac	-10878
▁Keep	-10879
▁jury	-10880
soever	-10881
▁proofs	-10882
▁punish	-10883
▁sailor	-10884
▁vector	-10885
▁volcan	-10886
ographer	-10887
▁Capital	-10888
▁Philipp	-10889
▁appearing	-10890
▁disappear	-10891
▁inevitable	-10892
▁AL	-10893
▁CL	-10894
agne	-10895
ourt	-10896
▁Gra	-10897
▁fox	-10898
ungle	-10899
▁Beau	-10900
▁Fran	-10901
▁tore	-10902
▁crazy	-10903
▁votes	-10904
naments	-10905
▁tumult	-10906
▁monster	-10907
▁therein	-10908
▁Security	-10909
▁dropping	-10910
▁proposition	-10911
▁representatives	-10912
92	-10913
▁Jr	-10914
free	-10915
ints	-10916
uese	-10917
▁Gro	-10918
eight	-10919
▁Stat	-10920
▁mans	-10921
▁tamb	-10922
▁click	-10923
▁climb	-10924
\\!000$	-10925
ciously	-10926
▁Isabel	-10927
▁naught	-10928
▁perish	-10929
▁discour	-10930
▁parting	-10931
▁renewed	-10932
▁testing	-10933
ederation	-10934
▁managing	-10935
▁pleasing	-10936
▁impatient	-10937
▁introduce	-10938
▁musicians	-10939
▁legislation	-10940
je	-10941
abs	-10942
▁CR	-10943
hall	-10944
▁800	-10945
▁Fig	-10946
onies	-10947
▁Andy	-10948
▁bomb	-10949
▁kuma	-10950
owered	-10951
▁2010,	-10952
▁veter	-10953
▁walks	-10954
▁Centre	-10955
▁inward	-10956
▁mobile	-10957
▁winner	-10958
▁checked	-10959
▁corners	-10960
▁lecture	-10961
▁prophet	-10962
▁Everything	-10963
ón	-10964
OUR	-10965
ito	-10966
▁Od	-10967
boat	-10968
▁Dig	-10969
▁Roy	-10970
power	-10971
▁Hann	-10972
▁Mans	-10973
▁goss	-10974
▁Lower	-10975
▁Media	-10976
▁Small	-10977
▁lucky	-10978
General	-10979
▁Jordan	-10980
▁advers	-10981
▁bigger	-10982
▁Foreign	-10983
▁Station	-10984
▁adapted	-10985
▁engines	-10986
▁inquire	-10987
▁sixteen	-10988
▁regional	-10989
▁Frederick	-10990
▁elevation	-10991
▁unpleasant	-10992
▁personality	-10993
rer	-10994
▁11,	-10995
▁oun	-10996
obile	-10997
▁Crit	-10998
wealth	-10999
▁2007,	-11000
▁Admir	-11001
▁faded	-11002
▁phase	-11003
▁calmly	-11004
▁guided	-11005
▁judged	-11006
▁trains	-11007
▁promises	-11008
▁extension	-11009
▁hesitation	-11010
▁intentions	-11011
▁inheritance	-11012
lan	-11013
sex	-11014
spr	-11015
▁15%	-11016
▁Cub	-11017
▁blog	-11018
▁clin	-11019
▁dies	-11020
▁Beach	-11021
▁Check	-11022
▁hosts	-11023
ocolate	-11024
▁pistol	-11025
▁switch	-11026
▁induced	-11027
▁typical	-11028
▁Cardinal	-11029
▁disaster	-11030
▁Represent	-11031
▁moonlight	-11032
▁submitted	-11033
▁appreciate	-11034
▁occasional	-11035
1}	-11036
^4	-11037
ipes	-11038
▁ber	-11039
▁Gent	-11040
▁Lear	-11041
▁comic	-11042
atching	-11043
▁warmth	-11044
▁bottles	-11045
▁ceiling	-11046
▁congreg	-11047
▁encount	-11048
▁writings	-11049
▁travelled	-11050
CL	-11051
ws	-11052
ayer	-11053
wind	-11054
▁12.	-11055
▁Dur	-11056
▁Guy	-11057
▁Vers	-11058
▁bush	-11059
▁peas	-11060
orters	-11061
▁$\\$$	-11062
▁uneasy	-11063
▁Duchess	-11064
▁Germans	-11065
▁planted	-11066
▁wrought	-11067
▁Missouri	-11068
▁conceive	-11069
▁secretly	-11070
▁believing	-11071
▁indicates	-11072
▁successor	-11073
▁tremendous	-11074
▁encountered	-11075
▁interpretation	-11076
ECT	-11077
llor	-11078
roit	-11079
▁Ped	-11080
▁ram	-11081
▁1994	-11082
▁5000	-11083
▁argue	-11084
▁polyn	-11085
▁Garden	-11086
▁blocks	-11087
▁Marquis	-11088
▁columns	-11089
▁gravity	-11090
▁decrease	-11091
▁surrender	-11092
▁impatience	-11093
▁polynomial	-11094
▁translated	-11095
▁relationships	-11096
▁JO	-11097
▁vb	-11098
▁{"	-11099
lier	-11100
▁Ban	-11101
▁Sig	-11102
▁mah	-11103
▁1992	-11104
▁1993	-11105
▁Shar	-11106
▁akin	-11107
▁keys	-11108
▁musk	-11109
▁sunk	-11110
▁Beaut	-11111
▁Holly	-11112
▁inval	-11113
▁rings	-11114
itimate	-11115
ivering	-11116
▁Chance	-11117
▁Palace	-11118
▁Script	-11119
▁cannon	-11120
▁formid	-11121
▁halted	-11122
▁repose	-11123
▁gallant	-11124
▁swimming	-11125
▁Community	-11126
▁advancing	-11127
▁Portuguese	-11128
▁fundamental	-11129
▁recollection	-11130
IO	-11131
▁%	-11132
ati	-11133
olk	-11134
}}{	-11135
imer	-11136
oven	-11137
abbit	-11138
▁Scar	-11139
▁hire	-11140
▁sear	-11141
alling	-11142
▁Crown	-11143
▁awoke	-11144
▁Thence	-11145
▁subsid	-11146
oubtedly	-11147
▁Maurice	-11148
▁Perform	-11149
▁longing	-11150
▁motives	-11151
▁Hospital	-11152
▁artistic	-11153
▁expanded	-11154
▁heartily	-11155
▁rational	-11156
▁continuing	-11157
-4	-11158
▁Uk	-11159
acts	-11160
quad	-11161
udge	-11162
▁Cru	-11163
▁Near	-11164
▁Lewis	-11165
▁Moore	-11166
▁facil	-11167
▁gorge	-11168
▁madam	-11169
▁niece	-11170
▁usage	-11171
ocrates	-11172
▁attent	-11173
▁stages	-11174
▁focused	-11175
▁hostile	-11176
▁roughly	-11177
▁Independ	-11178
▁versions	-11179
▁agitation	-11180
▁uncomfort	-11181
▁mechanical	-11182
fin	-11183
▁Gord	-11184
▁Luci	-11185
▁mole	-11186
▁shrew	-11187
holders	-11188
▁labels	-11189
▁learnt	-11190
▁battles	-11191
▁breadth	-11192
▁phrases	-11193
▁sailors	-11194
▁assurance	-11195
▁observing	-11196
▁Providence	-11197
▁procession	-11198
▁maintenance	-11199
▁Championships	-11200
▁MY	-11201
nest	-11202
▁awe	-11203
hemes	-11204
▁tack	-11205
ranean	-11206
▁saint	-11207
▁vener	-11208
▁anchor	-11209
▁varied	-11210
▁imposed	-11211
▁profile	-11212
anchester	-11213
▁Children	-11214
▁suspended	-11215
▁thoughtful	-11216
▁resemblance	-11217
Some	-11218
agen	-11219
▁USA	-11220
cribe	-11221
rooms	-11222
since	-11223
smith	-11224
▁Shah	-11225
▁toil	-11226
▁Phill	-11227
▁waved	-11228
▁shores	-11229
▁colored	-11230
▁filling	-11231
▁investor	-11232
▁patterns	-11233
▁righteous	-11234
cow	-11235
mad	-11236
ieth	-11237
▁0.5	-11238
▁org	-11239
books	-11240
inked	-11241
▁Edin	-11242
▁trim	-11243
▁Robin	-11244
▁Story	-11245
▁dwelt	-11246
▁Caesar	-11247
▁sphere	-11248
▁courses	-11249
▁lodging	-11250
▁deposits	-11251
▁delicious	-11252
▁involving	-11253
▁publisher	-11254
▁headquarters	-11255
▁implementation	-11256
Get	-11257
ello	-11258
▁SOC	-11259
▁WAS	-11260
▁Chad	-11261
▁Hold	-11262
▁2012,	-11263
▁boost	-11264
▁cubic	-11265
▁juris	-11266
▁voted	-11267
▁Custom	-11268
▁Steven	-11269
▁corrid	-11270
▁reveal	-11271
▁throng	-11272
▁timber	-11273
▁Cameron	-11274
▁Solomon	-11275
▁marvell	-11276
▁praised	-11277
▁tragedy	-11278
stituting	-11279
▁invented	-11280
▁pretended	-11281
▁positively	-11282
uh	-11283
IAN	-11284
ika	-11285
▁Ve	-11286
erers	-11287
lfare	-11288
oding	-11289
rying	-11290
▁puff	-11291
▁aimed	-11292
▁displ	-11293
▁aboard	-11294
▁sheets	-11295
▁Product	-11296
▁nuclear	-11297
▁thanked	-11298
▁welfare	-11299
▁attorney	-11300
▁feathers	-11301
▁interpre	-11302
▁amazement	-11303
▁continent	-11304
▁corporate	-11305
nut	-11306
▁vi	-11307
▁$50	-11308
▁Cra	-11309
rance	-11310
▁Cook	-11311
▁Soph	-11312
▁chat	-11313
▁kids	-11314
▁unsu	-11315
▁Susan	-11316
▁baron	-11317
▁divis	-11318
▁shaft	-11319
▁chains	-11320
▁hockey	-11321
▁purely	-11322
▁Bernard	-11323
▁Indiana	-11324
▁Patrick	-11325
▁customs	-11326
▁talents	-11327
▁weekend	-11328
▁birthday	-11329
▁restless	-11330
▁behaviour	-11331
62	-11332
GE	-11333
"),	-11334
▁"/	-11335
brid	-11336
▁$25	-11337
▁Jam	-11338
▁Raj	-11339
▁dun	-11340
aying	-11341
ersed	-11342
▁Know	-11343
▁Spani	-11344
▁fence	-11345
▁prodig	-11346
▁topics	-11347
▁wasted	-11348
▁costume	-11349
▁founder	-11350
▁wishing	-11351
▁correctly	-11352
▁neglected	-11353
▁incredible	-11354
00,	-11355
sty	-11356
fish	-11357
icer	-11358
▁HER	-11359
▁Non	-11360
▁pub	-11361
▁Bath	-11362
▁Fitz	-11363
▁kick	-11364
▁succ	-11365
▁whit	-11366
agraph	-11367
▁meets	-11368
▁monot	-11369
▁ingred	-11370
▁simult	-11371
...|...|	-11372
ographic	-11373
▁dearest	-11374
▁goddess	-11375
▁loyalty	-11376
▁rushing	-11377
▁outcomes	-11378
▁offensive	-11379
▁reverence	-11380
▁formidable	-11381
▁compounding	-11382
▁threatening	-11383
▁considerably	-11384
oft	-11385
sea	-11386
▁Alm	-11387
itial	-11388
olves	-11389
stock	-11390
ulars	-11391
▁Ross	-11392
▁glow	-11393
▁pump	-11394
bishop	-11395
ilight	-11396
urious	-11397
▁2008,	-11398
▁Andre	-11399
▁bloss	-11400
▁chuck	-11401
▁files	-11402
▁upset	-11403
▁whale	-11404
▁Darwin	-11405
▁Modern	-11406
▁shaken	-11407
▁solely	-11408
▁trades	-11409
▁Connect	-11410
▁enforce	-11411
▁scarlet	-11412
▁Economic	-11413
▁animated	-11414
▁footsteps	-11415
▁magistrate	-11416
▁neighbours	-11417
69	-11418
TM	-11419
bb	-11420
▁_	-11421
arc	-11422
umm	-11423
odox	-11424
rise	-11425
▁Kim	-11426
▁cul	-11427
▁pad	-11428
estab	-11429
found	-11430
▁Dark	-11431
▁Ryan	-11432
▁pave	-11433
igible	-11434
▁Arist	-11435
▁Monte	-11436
▁firms	-11437
▁gover	-11438
▁scent	-11439
plement	-11440
usively	-11441
▁define	-11442
▁Network	-11443
▁coaches	-11444
▁dialect	-11445
▁optimal	-11446
▁Columbus	-11447
▁complain	-11448
▁machines	-11449
▁Manchester	-11450
▁components	-11451
▁controlled	-11452
▁manufacturing	-11453
roe	-11454
▁TR	-11455
▁###	-11456
▁liv	-11457
agram	-11458
alpha	-11459
endar	-11460
▁1991	-11461
▁Dale	-11462
▁Gran	-11463
▁Page	-11464
▁reef	-11465
▁Brian	-11466
▁Welsh	-11467
▁seize	-11468
▁veins	-11469
▁flames	-11470
▁default	-11471
▁inspect	-11472
▁Edinburgh	-11473
▁witnesses	-11474
▁officially	-11475
▁Shakespeare	-11476
jo	-11477
utt	-11478
▁Tu	-11479
circ	-11480
ctic	-11481
zona	-11482
▁sul	-11483
▁clam	-11484
▁dazz	-11485
▁Adams	-11486
▁Julian	-11487
▁Members	-11488
▁dangers	-11489
▁placing	-11490
▁Pakistan	-11491
▁assuming	-11492
▁solitude	-11493
▁pertaining	-11494
▁sentiments	-11495
▁essentially	-11496
▁preparations	-11497
Tw	-11498
orf	-11499
oso	-11500
itals	-11501
▁Pont	-11502
▁lawn	-11503
▁sink	-11504
terior	-11505
▁Athen	-11506
▁Jerry	-11507
▁adopt	-11508
▁cream	-11509
▁skull	-11510
▁talks	-11511
▁uncon	-11512
▁Answer	-11513
▁Miller	-11514
▁Sweden	-11515
▁athlet	-11516
▁Chaucer	-11517
▁sinking	-11518
▁Countess	-11519
▁dramatic	-11520
▁container	-11521
▁encounter	-11522
▁favorable	-11523
▁Convention	-11524
▁correspondence	-11525
date	-11526
inge	-11527
▁proc	-11528
▁sits	-11529
▁Rober	-11530
▁arbit	-11531
▁Method	-11532
▁Venice	-11533
▁murmur	-11534
▁spaces	-11535
▁commerce	-11536
▁courtesy	-11537
▁shouting	-11538
inkle	-11539
▁Prom	-11540
▁disd	-11541
▁foss	-11542
▁idol	-11543
▁Larry	-11544
igrants	-11545
▁Apollo	-11546
▁cooper	-11547
▁dashed	-11548
▁fisher	-11549
▁haught	-11550
▁treaty	-11551
▁Univers	-11552
▁handling	-11553
▁receives	-11554
▁imperfect	-11555
▁invention	-11556
▁comprehend	-11557
▁Republicans	-11558
ui	-11559
INE	-11560
Nay	-11561
▁Gi	-11562
oute	-11563
urst	-11564
▁Ira	-11565
▁Pil	-11566
▁tub	-11567
ammed	-11568
▁envy	-11569
▁plac	-11570
▁ster	-11571
▁enlar	-11572
▁pilot	-11573
▁rural	-11574
▁gladly	-11575
▁chimney	-11576
▁elegant	-11577
▁erected	-11578
▁theories	-11579
▁entertained	-11580
▁;	-11581
azi	-11582
mont	-11583
unci	-11584
isons	-11585
osaur	-11586
▁Benj	-11587
▁Exec	-11588
▁Horn	-11589
▁tune	-11590
▁spots	-11591
ressing	-11592
▁plunged	-11593
▁creative	-11594
▁Mountains	-11595
▁aggregate	-11596
▁invisible	-11597
▁spectacle	-11598
▁constraints	-11599
CD	-11600
di	-11601
ée	-11602
iki	-11603
sal	-11604
▁Si	-11605
acre	-11606
▁12,	-11607
▁Adv	-11608
▁Ale	-11609
▁Ark	-11610
borne	-11611
gments	-11612
icular	-11613
▁Vienna	-11614
▁colony	-11615
▁certainty	-11616
▁incapable	-11617
▁partnership	-11618
▁practically	-11619
▁substantial	-11620
Man	-11621
gal	-11622
▁55	-11623
erts	-11624
hile	-11625
▁XIV	-11626
▁cha	-11627
▁iii	-11628
▁Appl	-11629
▁Ever	-11630
▁loos	-11631
▁pour	-11632
▁rebu	-11633
▁subl	-11634
▁Nancy	-11635
▁cares	-11636
▁cigar	-11637
▁mamma	-11638
athetic	-11639
▁Former	-11640
▁casual	-11641
Interest	-11642
▁borders	-11643
▁furnish	-11644
▁sharing	-11645
itzerland	-11646
▁Kentucky	-11647
▁emphasis	-11648
▁modified	-11649
▁promptly	-11650
▁Christopher	-11651
▁Corporation	-11652
▁grandmother	-11653
ITH	-11654
rup	-11655
▁MP	-11656
▁vs	-11657
abet	-11658
ione	-11659
▁10:	-11660
▁Bah	-11661
Every	-11662
produ	-11663
unken	-11664
▁Whit	-11665
Profit	-11666
ancies	-11667
weight	-11668
▁Barry	-11669
▁ashore	-11670
▁sample	-11671
▁analyze	-11672
▁madness	-11673
▁resolve	-11674
▁mortgage	-11675
▁solemnly	-11676
▁elections	-11677
▁innocence	-11678
▁merchants	-11679
▁proceeding	-11680
▁separation	-11681
mm	-11682
aki	-11683
gon	-11684
▁Oz	-11685
(1.0	-11686
icts	-11687
▁Bot	-11688
▁les	-11689
cific	-11690
mates	-11691
udder	-11692
▁trag	-11693
riages	-11694
▁chase	-11695
▁jewel	-11696
▁roles	-11697
ouncing	-11698
▁anyway	-11699
▁lowered	-11700
▁muscles	-11701
▁catching	-11702
▁coloured	-11703
▁lordship	-11704
ographical	-11705
▁anxiously	-11706
▁reduction	-11707
▁competitive	-11708
uy	-11709
20,	-11710
▁nob	-11711
▁vap	-11712
▁1950	-11713
▁Bibl	-11714
▁rect	-11715
▁males	-11716
▁moves	-11717
▁urban	-11718
▁Athens	-11719
▁Nether	-11720
▁confer	-11721
▁roused	-11722
▁bargain	-11723
▁totally	-11724
▁Colorado	-11725
▁conquest	-11726
▁Transport	-11727
▁preceding	-11728
▁engineering	-11729
▁agricultural	-11730
XX	-11731
▁]	-11732
aze	-11733
lest	-11734
▁11.	-11735
▁15,	-11736
cluded	-11737
▁Clark	-11738
▁Ocean	-11739
▁swore	-11740
rations	-11741
▁Direct	-11742
▁eighty	-11743
▁linked	-11744
▁nearby	-11745
▁Channel	-11746
▁pulling	-11747
▁ancestors	-11748
▁artillery	-11749
▁historian	-11750
▁inquiries	-11751
▁exhibition	-11752
▁suspicious	-11753
▁destination	-11754
EP	-11755
▁8:	-11756
gone	-11757
▁Job	-11758
▁Joh	-11759
oving	-11760
▁cups	-11761
verage	-11762
▁Daily	-11763
minster	-11764
▁racing	-11765
▁anguish	-11766
▁battery	-11767
▁endless	-11768
▁Philosop	-11769
▁attained	-11770
▁relating	-11771
▁platforms	-11772
▁considerations	-11773
dr	-11774
Her	-11775
ERAL	-11776
▁Heb	-11777
▁tip	-11778
being	-11779
▁Much	-11780
▁Trib	-11781
▁caps	-11782
▁tons	-11783
orship	-11784
▁Exper	-11785
▁arrow	-11786
▁monop	-11787
▁vault	-11788
▁dishes	-11789
▁fabric	-11790
▁linear	-11791
▁housing	-11792
▁penalty	-11793
▁seventh	-11794
▁superst	-11795
▁Anderson	-11796
▁breathed	-11797
▁fantastic	-11798
▁sentences	-11799
▁calculations	-11800
-7	-11801
INC	-11802
pen	-11803
thr	-11804
▁41	-11805
▁44	-11806
your	-11807
▁Opp	-11808
▁Sid	-11809
uters	-11810
▁Area	-11811
▁morn	-11812
▁rows	-11813
▁whip	-11814
▁Point	-11815
▁cable	-11816
▁tasks	-11817
▁bundle	-11818
▁longed	-11819
▁presum	-11820
▁Arizona	-11821
▁Commons	-11822
▁leagues	-11823
▁storage	-11824
▁tambaya	-11825
▁colonies	-11826
▁diseases	-11827
▁generals	-11828
▁examining	-11829
▁Accordingly	-11830
▁perspective	-11831
18.	-11832
OND	-11833
▁43	-11834
hard	-11835
▁Kal	-11836
▁duc	-11837
▁jer	-11838
acies	-11839
grade	-11840
▁Were	-11841
▁tips	-11842
▁Betty	-11843
▁Brook	-11844
▁Films	-11845
▁Plato	-11846
▁alloc	-11847
▁deleg	-11848
▁locks	-11849
▁shine	-11850
▁trous	-11851
▁Matthe	-11852
▁carved	-11853
▁morrow	-11854
▁quoted	-11855
▁velvet	-11856
▁corrupt	-11857
▁lifting	-11858
▁assisted	-11859
▁sequence	-11860
▁vigorous	-11861
▁excessive	-11862
▁fortnight	-11863
▁promising	-11864
▁Constantin	-11865
▁honourable	-11866
▁unnecessary	-11867
-8	-11868
THE	-11869
jan	-11870
▁EX	-11871
▁Gy	-11872
neys	-11873
oons	-11874
amped	-11875
entry	-11876
nings	-11877
▁rede	-11878
annels	-11879
inkled	-11880
▁Korea	-11881
▁alien	-11882
▁crash	-11883
▁embro	-11884
▁mayor	-11885
▁thief	-11886
▁worsh	-11887
▁Harris	-11888
▁Morgan	-11889
▁advise	-11890
▁waving	-11891
▁acquire	-11892
▁doctors	-11893
▁bestowed	-11894
▁destined	-11895
▁historic	-11896
▁undertake	-11897
▁Technology	-11898
▁transition	-11899
fs	-11900
▁\\(	-11901
▁nay	-11902
world	-11903
▁Bush	-11904
▁Half	-11905
▁Lang	-11906
▁clut	-11907
▁herd	-11908
▁Front	-11909
▁opens	-11910
▁plates	-11911
▁shower	-11912
▁cabinet	-11913
▁circles	-11914
▁colonel	-11915
▁faintly	-11916
▁seeming	-11917
▁accuracy	-11918
▁speeches	-11919
▁intermedi	-11920
▁definitely	-11921
▁influences	-11922
▁Switzerland	-11923
▁remembrance	-11924
▁deliberately	-11925
Mod	-11926
kee	-11927
tic	-11928
▁BE	-11929
inus	-11930
▁Bag	-11931
▁XXV	-11932
▁lur	-11933
▁Lion	-11934
▁Phys	-11935
▁obsc	-11936
thodox	-11937
{1}{2}	-11938
▁Books	-11939
▁vigor	-11940
▁danced	-11941
▁gloves	-11942
▁ladder	-11943
ceptible	-11944
▁lantern	-11945
▁springs	-11946
▁backward	-11947
▁meanwhile	-11948
▁protested	-11949
▁Television	-11950
▁conversion	-11951
UE	-11952
hr	-11953
sts	-11954
▁Cf	-11955
▁xx	-11956
▁Ali	-11957
▁Lad	-11958
▁coc	-11959
▁oft	-11960
atell	-11961
clude	-11962
otism	-11963
▁Rebe	-11964
▁bits	-11965
▁cogn	-11966
▁dirt	-11967
▁hosp	-11968
antine	-11969
▁Works	-11970
▁bells	-11971
▁dealt	-11972
fashion	-11973
▁ranked	-11974
▁shrewd	-11975
▁hopeless	-11976
▁yourselves	-11977
▁contributions	-11978
1/	-11979
Com	-11980
▁EU	-11981
▁SI	-11982
▁py	-11983
Dear	-11984
emen	-11985
emic	-11986
rell	-11987
▁Mun	-11988
▁hay	-11989
build	-11990
▁Dave	-11991
▁View	-11992
▁duck	-11993
▁ferv	-11994
▁Faith	-11995
▁apost	-11996
▁fewer	-11997
▁scrut	-11998
bitious	-11999
justice	-12000
▁Donald	-12001
▁apples	-12002
▁amusing	-12003
▁schemes	-12004
▁Whatever	-12005
▁afforded	-12006
▁choosing	-12007
▁managers	-12008
▁paragraph	-12009
▁attendance	-12010
63	-12011
93	-12012
cat	-12013
dep	-12014
emet	-12015
▁Dad	-12016
▁Sad	-12017
anton	-12018
▁Dear	-12019
▁Pear	-12020
▁bend	-12021
▁Trade	-12022
▁algor	-12023
▁Moscow	-12024
▁dragon	-12025
▁negoti	-12026
▁orange	-12027
▁sermon	-12028
ologists	-12029
▁Command	-12030
▁Herbert	-12031
▁circuit	-12032
▁females	-12033
▁lawyers	-12034
▁regards	-12035
▁tempted	-12036
▁torture	-12037
▁Austrian	-12038
▁retorted	-12039
▁finishing	-12040
▁strongest	-12041
▁discussing	-12042
Mad	-12043
▁LL	-12044
_{\\	-12045
mund	-12046
orce	-12047
zech	-12048
▁Fif	-12049
chain	-12050
ecess	-12051
▁KING	-12052
▁crop	-12053
▁mand	-12054
▁Champ	-12055
▁frown	-12056
▁marsh	-12057
▁paths	-12058
▁Leonard	-12059
▁Nations	-12060
▁conject	-12061
▁flowing	-12062
▁twisted	-12063
▁resigned	-12064
▁deposited	-12065
▁greatness	-12066
▁interfere	-12067
▁disagreeable	-12068
▁mathematical	-12069
tin	-12070
boys	-12071
▁bub	-12072
▁tab	-12073
erver	-12074
ocity	-12075
▁Buff	-12076
▁Hend	-12077
▁Kong	-12078
▁boss	-12079
ulsion	-12080
▁Clara	-12081
▁Phoen	-12082
▁Video	-12083
▁accus	-12084
▁grade	-12085
▁usern	-12086
itative	-12087
▁Howard	-12088
▁harder	-12089
▁occupy	-12090
▁plague	-12091
▁Account	-12092
▁Current	-12093
▁Highway	-12094
▁Studies	-12095
▁failing	-12096
▁winners	-12097
▁infantry	-12098
▁internet	-12099
▁messages	-12100
▁offended	-12101
▁Certainly	-12102
rov	-12103
▁IX	-12104
▁nu	-12105
kers	-12106
lder	-12107
wart	-12108
▁(1)	-12109
▁Rig	-12110
icker	-12111
imson	-12112
plete	-12113
▁Blood	-12114
▁corps	-12115
▁meals	-12116
▁mines	-12117
▁quart	-12118
▁shops	-12119
▁sworn	-12120
▁awhile	-12121
▁enhance	-12122
▁shorter	-12123
▁temples	-12124
Certainly	-12125
▁exciting	-12126
▁feminine	-12127
▁salvation	-12128
▁sustained	-12129
▁agriculture	-12130
▁improvements	-12131
▁uncomfortable	-12132
FF	-12133
iii	-12134
dale	-12135
hole	-12136
oria	-12137
▁Run	-12138
▁spy	-12139
theta	-12140
▁aims	-12141
▁cler	-12142
▁rash	-12143
▁ruff	-12144
▁breaks	-12145
▁heroes	-12146
▁jewels	-12147
▁Orleans	-12148
▁bidding	-12149
▁implies	-12150
▁peoples	-12151
▁Richmond	-12152
▁dependent	-12153
▁ownership	-12154
▁approaches	-12155
town	-12156
uits	-12157
▁Bol	-12158
▁Try	-12159
inian	-12160
stead	-12161
▁Clem	-12162
▁acres	-12163
▁drugs	-12164
▁hedge	-12165
▁bother	-12166
▁frozen	-12167
▁sketch	-12168
▁wander	-12169
▁Babylon	-12170
▁Medical	-12171
▁avoided	-12172
▁Exchange	-12173
▁embraced	-12174
▁equality	-12175
▁discharge	-12176
▁phenomena	-12177
▁acquisition	-12178
▁communicate	-12179
UC	-12180
iva	-12181
mie	-12182
thm	-12183
▁47	-12184
alia	-12185
white	-12186
▁deaf	-12187
▁enqu	-12188
▁leap	-12189
▁raid	-12190
arette	-12191
▁calam	-12192
▁subdu	-12193
achelor	-12194
▁Credit	-12195
▁Peters	-12196
▁config	-12197
▁chicken	-12198
▁joining	-12199
▁miracle	-12200
▁operate	-12201
▁rounded	-12202
▁rejoined	-12203
▁curiously	-12204
▁literally	-12205
▁specified	-12206
▁unwilling	-12207
▁journalist	-12208
▁provincial	-12209
▁satisfactory	-12210
nex	-12211
▁XL	-12212
enne	-12213
good	-12214
hill	-12215
post	-12216
▁Coo	-12217
▁Dog	-12218
▁SEC	-12219
▁rac	-12220
oughs	-12221
▁clar	-12222
▁ment	-12223
Number	-12224
encing	-12225
▁Allen	-12226
▁intol	-12227
▁repay	-12228
▁volat	-12229
natured	-12230
▁Others	-12231
▁Report	-12232
▁induce	-12233
▁packed	-12234
ittering	-12235
▁doubted	-12236
▁exhaust	-12237
▁guarded	-12238
▁perpetual	-12239
▁respected	-12240
▁apartments	-12241
▁corruption	-12242
▁declaration	-12243
▁MS	-12244
▁WH	-12245
ifer	-12246
▁1.0	-12247
▁Agr	-12248
▁Rub	-12249
▁bou	-12250
▁woe	-12251
izard	-12252
▁2021	-12253
piring	-12254
▁brute	-12255
▁couch	-12256
lesiast	-12257
▁Higher	-12258
▁amazed	-12259
▁Premier	-12260
▁amiable	-12261
▁crushed	-12262
▁outline	-12263
▁resolute	-12264
▁uncommon	-12265
▁youngest	-12266
▁frightful	-12267
▁passenger	-12268
▁cheerfully	-12269
▁advertising	-12270
-10	-12271
zer	-12272
▁NY	-12273
apse	-12274
ohol	-12275
yrus	-12276
▁Abd	-12277
▁Cad	-12278
gings	-12279
maker	-12280
ulent	-12281
▁1979	-12282
▁Grey	-12283
▁Roll	-12284
▁Stew	-12285
▁jail	-12286
▁sung	-12287
▁turb	-12288
velope	-12289
▁Sound	-12290
▁chill	-12291
▁elbow	-12292
▁porch	-12293
▁spons	-12294
▁Beyond	-12295
▁Surely	-12296
▁charms	-12297
▁cheese	-12298
▁faults	-12299
▁Natural	-12300
▁cooking	-12301
▁glowing	-12302
▁Benjamin	-12303
▁promoted	-12304
▁Implement	-12305
▁abundance	-12306
▁machinery	-12307
▁prevailed	-12308
▁worldwide	-12309
▁accurately	-12310
▁indicating	-12311
94	-12312
{\	-12313
bank	-12314
▁Ker	-12315
▁Ont	-12316
▁Tig	-12317
▁Tru	-12318
▁foe	-12319
elest	-12320
▁Brig	-12321
▁Chap	-12322
ouched	-12323
stream	-12324
▁Liter	-12325
▁Mayor	-12326
▁Swiss	-12327
▁poems	-12328
emetery	-12329
▁embark	-12330
▁forbid	-12331
▁meters	-12332
▁shrill	-12333
umerable	-12334
▁Antonio	-12335
▁clasped	-12336
▁destiny	-12337
▁harvest	-12338
▁sickness	-12339
▁chocolate	-12340
▁frequency	-12341
▁justified	-12342
▁complexion	-12343
OUN	-12344
▁MA	-12345
past	-12346
▁160	-12347
▁177	-12348
▁bapt	-12349
▁reci	-12350
▁sect	-12351
oining	-12352
▁2015,	-12353
▁canoe	-12354
▁Murray	-12355
▁affili	-12356
▁Finance	-12357
▁Rebecca	-12358
▁blowing	-12359
▁curtains	-12360
▁Melbourne	-12361
▁cultivated	-12362
▁expressing	-12363
▁participants	-12364
via	-12365
rics	-12366
}{4}	-12367
▁Bor	-12368
RATES	-12369
range	-12370
▁1930	-12371
▁Nick	-12372
▁atom	-12373
▁pens	-12374
▁temp	-12375
▁Diego	-12376
▁Until	-12377
▁rever	-12378
▁Graham	-12379
▁Scotch	-12380
▁Ukrain	-12381
▁gossip	-12382
▁hearth	-12383
▁poster	-12384
▁resort	-12385
▁riches	-12386
▁conform	-12387
▁elderly	-12388
▁invests	-12389
▁tribute	-12390
▁shipping	-12391
▁incorrect	-12392
▁situations	-12393
▁Simplifying	-12394
▁politicians	-12395
▁XI	-12396
▁16,	-12397
▁20,	-12398
▁Bry	-12399
▁Env	-12400
▁MAN	-12401
▁umb	-12402
somet	-12403
uctor	-12404
▁Comb	-12405
▁aught	-12406
section	-12407
▁Maggie	-12408
▁accent	-12409
▁sullen	-12410
▁cruelty	-12411
▁Maryland	-12412
▁SOCRATES	-12413
▁adjacent	-12414
▁applying	-12415
▁diamonds	-12416
▁ensuring	-12417
▁misunder	-12418
▁Microsoft	-12419
▁ambitious	-12420
▁programme	-12421
▁traditions	-12422
16.	-12423
▁9:	-12424
▁PC	-12425
atri	-12426
omot	-12427
▁Nik	-12428
chard	-12429
gered	-12430
▁Food	-12431
▁Glen	-12432
▁Viet	-12433
▁quot	-12434
▁remedy	-12435
▁theirs	-12436
essional	-12437
▁authent	-12438
▁predict	-12439
▁deprived	-12440
▁publicly	-12441
▁Democrats	-12442
▁implications	-12443
▁comparatively	-12444
*}	-12445
fly	-12446
phy	-12447
pre	-12448
▁EP	-12449
idae	-12450
roid	-12451
▁Eug	-12452
▁jar	-12453
▁lob	-12454
▁Bear	-12455
▁alas	-12456
▁fors	-12457
▁Molly	-12458
▁drums	-12459
▁hasty	-12460
▁siege	-12461
▁timid	-12462
▁witch	-12463
forward	-12464
▁Amazon	-12465
▁angels	-12466
▁campus	-12467
▁jungle	-12468
▁monstr	-12469
▁conspic	-12470
▁episodes	-12471
▁sections	-12472
▁forbidden	-12473
▁innovation	-12474
▁Constantinople	-12475
uzz	-12476
ymn	-12477
▁52	-12478
cond	-12479
▁COM	-12480
▁Pad	-12481
▁fel	-12482
These	-12483
heart	-12484
▁Dean	-12485
▁Karl	-12486
▁mask	-12487
▁2014,	-12488
▁Prior	-12489
▁Tower	-12490
▁breed	-12491
▁stove	-12492
▁tooth	-12493
▁Stewart	-12494
▁mothers	-12495
▁profess	-12496
▁varying	-12497
▁Personal	-12498
▁petition	-12499
▁supports	-12500
▁twilight	-12501
▁divisions	-12502
▁predecess	-12503
▁purchasing	-12504
▁complicated	-12505
▁connections	-12506
▁5%	-12507
ilib	-12508
onna	-12509
path	-12510
sole	-12511
▁pir	-12512
ateau	-12513
elson	-12514
ipper	-12515
▁Josh	-12516
▁wolf	-12517
shaped	-12518
spring	-12519
▁Medal	-12520
▁blown	-12521
▁jurisd	-12522
▁loudly	-12523
▁Gallery	-12524
▁decades	-12525
▁surpass	-12526
▁torrent	-12527
▁Socrates	-12528
▁eloquence	-12529
▁repeating	-12530
▁performances	-12531
Sp	-12532
(1)	-12533
Our	-12534
▁ic	-12535
oths	-12536
▁13,	-12537
▁Joy	-12538
▁Lor	-12539
▁Nan	-12540
▁Nov	-12541
▁bef	-12542
▁soph	-12543
▁crypt	-12544
▁ridge	-12545
▁rigid	-12546
▁tests	-12547
because	-12548
pending	-12549
rington	-12550
▁Tennes	-12551
▁barely	-12552
▁escort	-12553
▁impart	-12554
▁pillow	-12555
▁wretch	-12556
▁clothed	-12557
▁Analysis	-12558
▁monument	-12559
▁qualified	-12560
IE	-12561
Ne	-12562
lee	-12563
▁Ul	-12564
ront	-12565
▁14,	-12566
▁Syl	-12567
brows	-12568
cular	-12569
ioned	-12570
▁Craw	-12571
▁Gene	-12572
▁Mand	-12573
▁cove	-12574
▁crum	-12575
▁euro	-12576
▁http	-12577
▁verd	-12578
iamond	-12579
▁Swift	-12580
▁Woman	-12581
▁10,000	-12582
▁Global	-12583
▁adults	-12584
▁chiefs	-12585
▁justly	-12586
▁traces	-12587
▁wholes	-12588
▁compact	-12589
▁reverse	-12590
▁glancing	-12591
▁nobility	-12592
▁attempting	-12593
▁intercourse	-12594
▁undoubtedly	-12595
51	-12596
sky	-12597
▁FA	-12598
ilian	-12599
ships	-12600
▁Beth	-12601
▁Matt	-12602
▁Prob	-12603
▁beef	-12604
▁bite	-12605
▁parl	-12606
▁adequ	-12607
▁brisk	-12608
▁bunch	-12609
▁coinc	-12610
▁flies	-12611
▁https	-12612
▁milit	-12613
▁swell	-12614
▁wider	-12615
inating	-12616
perhaps	-12617
▁saints	-12618
▁drowned	-12619
▁removal	-12620
▁Lawrence	-12621
▁simplify	-12622
▁exhibited	-12623
▁traveller	-12624
▁Protestant	-12625
▁discretion	-12626
▁suspicions	-12627
▁affectionate	-12628
/3	-12629
52	-12630
PT	-12631
oz	-12632
3],	-12633
bid	-12634
▁LA	-12635
igma	-12636
ikes	-12637
inea	-12638
▁17,	-12639
▁178	-12640
▁Dal	-12641
▁Hug	-12642
▁Kam	-12643
▁Clay	-12644
▁Mist	-12645
▁Owen	-12646
▁wits	-12647
▁2005,	-12648
▁Final	-12649
▁Janet	-12650
▁harmon	-12651
▁heroic	-12652
▁therap	-12653
▁Chamber	-12654
▁stately	-12655
▁Building	-12656
▁involunt	-12657
▁irresist	-12658
▁bitterness	-12659
▁inclination	-12660
RY	-12661
ml	-12662
cas	-12663
eled	-12664
lain	-12665
onto	-12666
star	-12667
▁240	-12668
▁Mis	-12669
▁tow	-12670
abase	-12671
▁1986	-12672
▁kins	-12673
▁Chair	-12674
▁Seven	-12675
▁liken	-12676
▁theat	-12677
istical	-12678
▁Harold	-12679
▁canvas	-12680
▁corpse	-12681
▁geomet	-12682
▁intrig	-12683
▁quaint	-12684
▁virgin	-12685
▁enlight	-12686
▁shudder	-12687
▁chairman	-12688
▁convince	-12689
▁enjoying	-12690
▁youthful	-12691
▁Tennessee	-12692
▁spreading	-12693
▁willingly	-12694
▁resembling	-12695
▁hospitality	-12696
▁particulars	-12697
3]	-12698
▁PM	-12699
ripp	-12700
▁(1.	-12701
▁jun	-12702
▁unb	-12703
isive	-12704
lings	-12705
▁dost	-12706
▁seam	-12707
▁tiss	-12708
isting	-12709
itched	-12710
▁Liver	-12711
▁Relig	-12712
▁lamps	-12713
ifiable	-12714
ulously	-12715
▁matrix	-12716
▁societ	-12717
▁shocked	-12718
▁warrior	-12719
fashioned	-12720
▁revenues	-12721
▁Determine	-12722
▁locations	-12723
▁withdrawn	-12724
▁bewildered	-12725
▁perception	-12726
VD	-12727
hu	-12728
Was	-12729
sub	-12730
▁54	-12731
girl	-12732
▁Cry	-12733
▁LET	-12734
▁cra	-12735
aders	-12736
▁Iraq	-12737
▁lent	-12738
▁lung	-12739
▁rasc	-12740
▁tops	-12741
haired	-12742
▁Space	-12743
▁diagn	-12744
▁mould	-12745
▁sheer	-12746
▁solic	-12747
▁Hebrew	-12748
▁awards	-12749
▁planet	-12750
▁Dorothy	-12751
▁aroused	-12752
▁divisor	-12753
▁steamer	-12754
▁ascended	-12755
▁inconven	-12756
▁punished	-12757
▁featuring	-12758
▁identical	-12759
▁improving	-12760
▁incidents	-12761
▁injustice	-12762
▁regulatory	-12763
▁exploration	-12764
▁impatiently	-12765
▁innumerable	-12766
Ab	-12767
pg	-12768
irs	-12769
ubb	-12770
▁MD	-12771
aund	-12772
othe	-12773
serv	-12774
▁Arc	-12775
▁vow	-12776
inged	-12777
▁1940	-12778
▁hats	-12779
▁2013,	-12780
▁Homer	-12781
▁Upper	-12782
▁compr	-12783
▁photo	-12784
ameless	-12785
etition	-12786
▁Gordon	-12787
▁organs	-12788
▁Ontario	-12789
▁fatigue	-12790
▁Regional	-12791
▁diameter	-12792
▁attending	-12793
▁whereupon	-12794
▁marvellous	-12795
▁consecutive	-12796
25.	-12797
sum	-12798
▁ME	-12799
ieve	-12800
orig	-12801
▁Lic	-12802
▁Oil	-12803
▁SBI	-12804
aware	-12805
cheon	-12806
comed	-12807
matic	-12808
▁Hong	-12809
▁Prim	-12810
▁bags	-12811
▁scal	-12812
▁shri	-12813
ifting	-12814
▁Syria	-12815
▁chron	-12816
▁nerve	-12817
▁hammer	-12818
▁choices	-12819
▁drunken	-12820
▁procure	-12821
▁terrace	-12822
▁elevated	-12823
▁injuries	-12824
▁mourning	-12825
▁polished	-12826
▁shopping	-12827
▁exclusive	-12828
▁happening	-12829
▁relatives	-12830
▁0$	-12831
angs	-12832
▁bin	-12833
▁bol	-12834
▁barn	-12835
▁hack	-12836
▁stag	-12837
▁wool	-12838
▁Czech	-12839
▁Years	-12840
▁globe	-12841
▁lists	-12842
▁Morris	-12843
▁bodily	-12844
▁expend	-12845
▁bending	-12846
▁organic	-12847
▁outcome	-12848
▁sailing	-12849
▁upwards	-12850
▁murderer	-12851
▁Minnesota	-12852
▁personnel	-12853
▁Westminster	-12854
ATE	-12855
awl	-12856
dri	-12857
pha	-12858
bred	-12859
peak	-12860
▁Bun	-12861
▁gap	-12862
▁1984	-12863
▁Priv	-12864
▁Tony	-12865
▁lane	-12866
center	-12867
effect	-12868
▁2006.	-12869
▁Local	-12870
▁fluct	-12871
▁greed	-12872
▁indef	-12873
▁ranch	-12874
▁troop	-12875
▁Louise	-12876
▁flowed	-12877
▁vacant	-12878
▁crimson	-12879
▁stadium	-12880
▁Franklin	-12881
▁childish	-12882
▁republic	-12883
▁emotional	-12884
▁installed	-12885
▁prejudice	-12886
▁profitable	-12887
▁Netherlands	-12888
▁participate	-12889
56	-12890
Ge	-12891
–1	-12892
amy	-12893
lic	-12894
rah	-12895
▁Ta	-12896
Give	-12897
IGHT	-12898
anor	-12899
helm	-12900
keys	-12901
▁18,	-12902
▁ABC	-12903
▁fib	-12904
ammar	-12905
▁Diff	-12906
▁Herm	-12907
▁numb	-12908
▁Asian	-12909
▁Norwe	-12910
▁Tommy	-12911
▁fiery	-12912
▁Athlet	-12913
▁Bulgar	-12914
▁deduct	-12915
▁Gilbert	-12916
▁Similar	-12917
▁casting	-12918
▁experts	-12919
▁flatter	-12920
▁asserted	-12921
▁cardinal	-12922
▁gigantic	-12923
▁invasion	-12924
▁peasants	-12925
▁trousers	-12926
▁indignant	-12927
▁ingredients	-12928
300	-12929
UST	-12930
rud	-12931
Thou	-12932
lane	-12933
▁Dub	-12934
▁Ted	-12935
cible	-12936
nergy	-12937
otten	-12938
▁unch	-12939
▁wage	-12940
unters	-12941
▁Julia	-12942
▁Treas	-12943
▁flock	-12944
▁fools	-12945
▁olive	-12946
▁scrap	-12947
writing	-12948
▁Argent	-12949
▁Create	-12950
▁Johnny	-12951
▁appoint	-12952
▁compute	-12953
▁dislike	-12954
▁frankly	-12955
▁prudent	-12956
▁remorse	-12957
▁clergyman	-12958
▁desirable	-12959
▁exceeding	-12960
▁treasures	-12961
▁popularity	-12962
/2	-12963
HN	-12964
▁PL	-12965
ippi	-12966
▁Box	-12967
▁Due	-12968
▁Mit	-12969
▁\[\	-12970
After	-12971
uming	-12972
▁Brid	-12973
▁bowl	-12974
▁encl	-12975
▁stub	-12976
▁Croat	-12977
▁Roche	-12978
▁faire	-12979
▁tenth	-12980
▁unity	-12981
idelity	-12982
▁Junior	-12983
▁camera	-12984
▁nobles	-12985
▁pupils	-12986
▁viewed	-12987
▁yearly	-12988
encement	-12989
▁breathe	-12990
▁Portugal	-12991
▁constitu	-12992
▁envelope	-12993
▁printing	-12994
▁severely	-12995
▁welcomed	-12996
▁admission	-12997
▁complaint	-12998
▁monstrous	-12999
▁uncertainty	-13000
Me	-13001
hl	-13002
oys	-13003
▁21,	-13004
▁Abs	-13005
▁Ent	-13006
▁Jar	-13007
▁tram	-13008
Indeed	-13009
azines	-13010
▁Laure	-13011
▁exult	-13012
▁lords	-13013
▁panel	-13014
▁recur	-13015
▁Compan	-13016
▁exting	-13017
▁firing	-13018
▁hoarse	-13019
▁tunnel	-13020
▁Airport	-13021
▁Russell	-13022
▁Section	-13023
▁balloon	-13024
▁glances	-13025
▁fiercely	-13026
▁reporting	-13027
▁terrified	-13028
▁thoughtfully	-13029
▁Administration	-13030
ENE	-13031
iga	-13032
▁Daw	-13033
▁Fro	-13034
guard	-13035
ieves	-13036
▁Belg	-13037
▁woke	-13038
▁clung	-13039
▁verte	-13040
ariably	-13041
▁Kenned	-13042
▁Multip	-13043
▁allies	-13044
▁headed	-13045
▁humans	-13046
ilibrium	-13047
▁Matthew	-13048
▁savages	-13049
▁tremble	-13050
▁survived	-13051
▁consented	-13052
▁registered	-13053
▁apprehension	-13054
ONG	-13055
aza	-13056
requ	-13057
▁(2)	-13058
▁McK	-13059
▁haw	-13060
acted	-13061
pling	-13062
▁grip	-13063
▁slew	-13064
▁minus	-13065
▁allied	-13066
▁spared	-13067
Monsieur	-13068
gression	-13069
▁angrily	-13070
▁shallow	-13071
▁portions	-13072
▁prudence	-13073
▁schedule	-13074
▁guarantee	-13075
▁regardless	-13076
▁superiority	-13077
FC	-13078
\]	-13079
Mrs	-13080
lad	-13081
▁56	-13082
▁RO	-13083
Only	-13084
▁Hud	-13085
▁Obs	-13086
▁dub	-13087
inety	-13088
level	-13089
▁Khan	-13090
iastic	-13091
makers	-13092
▁2016,	-13093
▁Saxon	-13094
▁backs	-13095
▁gleam	-13096
▁ruler	-13097
▁reconc	-13098
▁trials	-13099
▁delayed	-13100
▁listing	-13101
▁Baseball	-13102
▁Ministry	-13103
▁awaiting	-13104
▁rebellion	-13105
▁designated	-13106
▁impressive	-13107
▁electricity	-13108
▁constitutional	-13109
cha	-13110
gue	-13111
rán	-13112
▁49	-13113
____	-13114
unks	-13115
▁Tow	-13116
cules	-13117
rings	-13118
scale	-13119
▁Beng	-13120
▁Exam	-13121
▁Phot	-13122
▁Rain	-13123
▁owes	-13124
▁peep	-13125
▁Satan	-13126
▁layer	-13127
▁Excell	-13128
▁Rights	-13129
▁Territ	-13130
▁armour	-13131
▁horrid	-13132
▁Roberts	-13133
▁Senator	-13134
▁earthly	-13135
▁gallons	-13136
▁washing	-13137
▁defended	-13138
▁duration	-13139
▁monaster	-13140
▁speedily	-13141
▁stirring	-13142
▁extending	-13143
▁constraint	-13144
▁researchers	-13145
EAR	-13146
▁SU	-13147
ilet	-13148
thia	-13149
▁Yan	-13150
▁Bron	-13151
▁Stra	-13152
▁fist	-13153
▁pall	-13154
▁Maxim	-13155
▁Start	-13156
▁downt	-13157
▁lodge	-13158
▁penny	-13159
▁tries	-13160
▁Advent	-13161
▁barrel	-13162
▁hanged	-13163
▁tossed	-13164
▁Edition	-13165
▁Frances	-13166
▁draught	-13167
▁neutral	-13168
▁threats	-13169
▁agencies	-13170
▁removing	-13171
▁scenario	-13172
▁invariably	-13173
▁characterized	-13174
▁administrative	-13175
NL	-13176
ami	-13177
shot	-13178
cling	-13179
utors	-13180
▁Quar	-13181
▁Risk	-13182
▁mamm	-13183
▁mini	-13184
▁pige	-13185
▁rapt	-13186
▁Eight	-13187
asingly	-13188
illings	-13189
▁Afghan	-13190
▁mining	-13191
▁overfl	-13192
outheast	-13193
▁Municip	-13194
▁Swedish	-13195
▁buttons	-13196
▁denomin	-13197
▁fitting	-13198
▁strikes	-13199
ropolitan	-13200
sequently	-13201
▁Magazine	-13202
▁channels	-13203
▁lifetime	-13204
▁likeness	-13205
▁sweetness	-13206
▁attraction	-13207
"—	-13208
NE	-13209
bie	-13210
▁Na	-13211
amps	-13212
anty	-13213
mers	-13214
oded	-13215
▁Fab	-13216
▁Lev	-13217
▁Rap	-13218
▁Urs	-13219
▁mak	-13220
eking	-13221
neath	-13222
▁Stre	-13223
▁ratt	-13224
▁Ellen	-13225
▁Staff	-13226
▁Track	-13227
▁slipp	-13228
▁spoil	-13229
▁surve	-13230
▁width	-13231
icating	-13232
▁Nation	-13233
▁arrows	-13234
▁robbed	-13235
▁sticks	-13236
▁worksh	-13237
coloured	-13238
▁Kennedy	-13239
▁cricket	-13240
▁radical	-13241
▁reaches	-13242
▁routine	-13243
▁purchases	-13244
▁signature	-13245
▁explaining	-13246
▁privileges	-13247
▁descendants	-13248
▁neighbouring	-13249
▁surroundings	-13250
2]	-13251
var	-13252
}$,	-13253
List	-13254
avia	-13255
icut	-13256
ilda	-13257
▁$2.	-13258
▁ape	-13259
ateur	-13260
celer	-13261
venth	-13262
▁1985	-13263
▁Gulf	-13264
▁Past	-13265
▁clad	-13266
▁nigh	-13267
▁sack	-13268
▁tang	-13269
ilised	-13270
▁Bruce	-13271
▁crops	-13272
▁cycle	-13273
▁dated	-13274
▁exile	-13275
rencies	-13276
▁Legisl	-13277
▁Queens	-13278
▁cursed	-13279
▁intern	-13280
▁yields	-13281
▁Gabriel	-13282
▁antagon	-13283
▁drivers	-13284
▁tonight	-13285
▁eyebrows	-13286
▁searched	-13287
▁candidates	-13288
▁controversy	-13289
▁exclamation	-13290
(2	-13291
Ye	-13292
wy	-13293
comm	-13294
folk	-13295
▁Occ	-13296
heard	-13297
▁lace	-13298
▁nort	-13299
▁uint	-13300
▁Corps	-13301
▁Behold	-13302
▁Marian	-13303
▁porter	-13304
▁update	-13305
▁Explain	-13306
▁Mississ	-13307
▁deceive	-13308
▁pushing	-13309
▁tidings	-13310
▁whereby	-13311
▁abundant	-13312
▁swinging	-13313
▁virtuous	-13314
▁Liverpool	-13315
▁intensity	-13316
84	-13317
és	-13318
tar	-13319
▁OR	-13320
▁je	-13321
xter	-13322
▁Eli	-13323
▁Rud	-13324
▁dug	-13325
https	-13326
▁2022	-13327
▁Farm	-13328
▁Juan	-13329
▁Madam	-13330
▁alert	-13331
▁deals	-13332
▁Muslim	-13333
▁breach	-13334
▁chorus	-13335
▁insign	-13336
▁mouths	-13337
▁smiles	-13338
▁Clinton	-13339
▁Suppose	-13340
▁convent	-13341
▁greeted	-13342
▁valleys	-13343
▁Beatrice	-13344
▁dreaming	-13345
▁garrison	-13346
▁lodgings	-13347
▁ornaments	-13348
▁partially	-13349
▁confounded	-13350
▁appreciation	-13351
▁possibilities	-13352
,[	-13353
-6	-13354
ICK	-13355
IVE	-13356
PAN	-13357
nant	-13358
cipal	-13359
enery	-13360
enser	-13361
imore	-13362
▁Magn	-13363
▁Mall	-13364
▁Name	-13365
▁robe	-13366
alties	-13367
rolled	-13368
▁Felix	-13369
▁canal	-13370
▁horns	-13371
▁screw	-13372
▁tough	-13373
▁Danish	-13374
▁discom	-13375
▁enters	-13376
▁tricks	-13377
▁extinct	-13378
▁ringing	-13379
▁workmen	-13380
▁Confeder	-13381
▁Oriental	-13382
▁appealed	-13383
▁disguise	-13384
▁insights	-13385
▁persisted	-13386
▁specially	-13387
▁accessible	-13388
SC	-13389
pa	-13390
)^2	-13391
Poor	-13392
itic	-13393
throp	-13394
would	-13395
▁Bene	-13396
▁Must	-13397
▁XIII	-13398
▁acute	-13399
▁Austin	-13400
▁echoed	-13401
▁stored	-13402
▁titled	-13403
▁broader	-13404
▁harness	-13405
▁mansion	-13406
▁singles	-13407
▁circular	-13408
▁elephant	-13409
▁hesitate	-13410
▁thirteen	-13411
▁attachment	-13412
▁departments	-13413
▁resignation	-13414
▁contribution	-13415
▁conventional	-13416
Ay	-13417
kh	-13418
”,	-13419
15.	-13420
ete	-13421
▁64	-13422
beta	-13423
cile	-13424
mans	-13425
orks	-13426
▁25,	-13427
▁CEO	-13428
▁Hop	-13429
▁Pel	-13430
Would	-13431
human	-13432
ocese	-13433
onian	-13434
▁Late	-13435
▁Mack	-13436
▁dwar	-13437
▁span	-13438
▁surm	-13439
formed	-13440
itious	-13441
▁coron	-13442
▁pregn	-13443
▁decade	-13444
▁hosted	-13445
▁insens	-13446
▁Twitter	-13447
▁happily	-13448
▁nowhere	-13449
▁surgery	-13450
▁travels	-13451
▁advertis	-13452
▁imperial	-13453
▁unworthy	-13454
▁Norwegian	-13455
▁contracts	-13456
▁quantities	-13457
▁technologies	-13458
82	-13459
20}	-13460
OLN	-13461
oil	-13462
pat	-13463
stan	-13464
▁Hom	-13465
▁NFL	-13466
▁Too	-13467
dened	-13468
ourge	-13469
▁1988	-13470
▁Emer	-13471
▁Wars	-13472
▁pole	-13473
▁2017,	-13474
▁Horse	-13475
▁ample	-13476
▁encom	-13477
▁filed	-13478
▁perse	-13479
▁excurs	-13480
▁gasped	-13481
▁shapes	-13482
▁tapest	-13483
▁exhibit	-13484
▁impacts	-13485
▁lasting	-13486
urrection	-13487
▁arriving	-13488
▁breeding	-13489
▁delicacy	-13490
▁frontier	-13491
▁Commander	-13492
▁Executive	-13493
▁defensive	-13494
▁accordance	-13495
▁glittering	-13496
86	-13497
Med	-13498
oga	-13499
bons	-13500
mail	-13501
olds	-13502
▁1.5	-13503
▁Cec	-13504
▁hym	-13505
▁rod	-13506
▁Brun	-13507
▁Sara	-13508
▁bail	-13509
▁beam	-13510
▁peak	-13511
▁ties	-13512
ENERAL	-13513
ulsive	-13514
▁Geoff	-13515
▁eagle	-13516
▁grind	-13517
▁Harvey	-13518
▁barren	-13519
▁indisp	-13520
▁scores	-13521
▁shaped	-13522
▁picking	-13523
▁Previous	-13524
▁dividing	-13525
▁explicit	-13526
▁fountain	-13527
▁musician	-13528
▁exercised	-13529
▁procedure	-13530
▁describing	-13531
▁downstairs	-13532
▁Environment	-13533
')	-13534
,)	-13535
SA	-13536
\\$	-13537
akh	-13538
ppy	-13539
▁-1	-13540
amis	-13541
izer	-13542
mill	-13543
▁Ava	-13544
▁Iss	-13545
▁Plat	-13546
▁eyel	-13547
▁pant	-13548
▁peer	-13549
nation	-13550
▁Analy	-13551
▁Chall	-13552
▁conve	-13553
▁sauce	-13554
▁smote	-13555
clusion	-13556
▁errand	-13557
▁incess	-13558
▁trends	-13559
gressive	-13560
▁crystal	-13561
▁subdued	-13562
▁cautious	-13563
▁equipped	-13564
▁lighting	-13565
▁accounted	-13566
▁elaborate	-13567
▁obviously	-13568
ARY	-13569
dal	-13570
iti	-13571
isan	-13572
ista	-13573
▁22,	-13574
▁Cut	-13575
▁Fac	-13576
▁Hou	-13577
onstr	-13578
▁Lily	-13579
▁cows	-13580
▁Claud	-13581
▁Hawai	-13582
▁mirth	-13583
▁quote	-13584
▁rocky	-13585
▁sweat	-13586
▁Diamond	-13587
▁awaited	-13588
▁revived	-13589
▁conveyed	-13590
▁desolate	-13591
▁affecting	-13592
▁cigarette	-13593
▁sufferings	-13594
▁conclusions	-13595
▁exclusively	-13596
▁transformed	-13597
▁transmission	-13598
!)	-13599
59	-13600
Say	-13601
oks	-13602
0000	-13603
nell	-13604
oirs	-13605
▁Abb	-13606
▁wag	-13607
▁woo	-13608
round	-13609
▁1983	-13610
▁Dead	-13611
▁void	-13612
lihood	-13613
ometer	-13614
▁didst	-13615
ortions	-13616
pection	-13617
▁Member	-13618
▁anyhow	-13619
▁serene	-13620
▁tragic	-13621
▁captive	-13622
▁disdain	-13623
▁outrage	-13624
▁corridor	-13625
▁governed	-13626
▁guardian	-13627
▁revolver	-13628
▁traveling	-13629
▁successive	-13630
▁endeavoured	-13631
▁Substituting	-13632
Fr	-13633
lu	-13634
Any	-13635
olo	-13636
oyd	-13637
ère	-13638
▁(6	-13639
▁46	-13640
▁Saf	-13641
icism	-13642
rians	-13643
▁Conc	-13644
▁mend	-13645
▁thri	-13646
▁cited	-13647
▁mitig	-13648
▁patch	-13649
▁stare	-13650
▁LETTER	-13651
▁Nelson	-13652
▁Nobody	-13653
▁Reserve	-13654
▁Coventry	-13655
▁alliance	-13656
▁desirous	-13657
▁horizont	-13658
▁endeavour	-13659
▁statistics	-13660
▁temptation	-13661
▁determining	-13662
▁philosophers	-13663
yon	-13664
▁GR	-13665
▁wi	-13666
bone	-13667
lace	-13668
rome	-13669
▁Las	-13670
▁$120	-13671
▁Alas	-13672
▁Bapt	-13673
▁soap	-13674
▁stem	-13675
▁suck	-13676
amount	-13677
forced	-13678
iences	-13679
talion	-13680
▁Lords	-13681
▁Speed	-13682
▁cargo	-13683
▁paces	-13684
▁swing	-13685
▁vocal	-13686
▁Ernest	-13687
▁hazard	-13688
▁photos	-13689
▁rating	-13690
ribution	-13691
▁directors	-13692
▁hurriedly	-13693
▁inherited	-13694
▁complexity	-13695
▁repeatedly	-13696
▁underlying	-13697
▁variations	-13698
▁Mississippi	-13699
▁anticipated	-13700
▁consolation	-13701
▁convenience	-13702
▁equilibrium	-13703
QU	-13704
10}	-13705
IND	-13706
due	-13707
isen	-13708
offs	-13709
▁Bri	-13710
▁Kor	-13711
rimin	-13712
▁Alab	-13713
▁Fame	-13714
▁dusk	-13715
▁rely	-13716
▁rice	-13717
▁solo	-13718
▁wist	-13719
50,000	-13720
verend	-13721
versed	-13722
▁drown	-13723
▁hered	-13724
▁recip	-13725
lasting	-13726
onymous	-13727
▁Dryden	-13728
▁Gerald	-13729
▁Online	-13730
▁boldly	-13731
▁hunter	-13732
▁bishops	-13733
▁ethical	-13734
▁bankrupt	-13735
▁depended	-13736
▁consulted	-13737
▁phenomenon	-13738
▁politeness	-13739
’.	-13740
aby	-13741
▁ED	-13742
gins	-13743
oise	-13744
▁LAD	-13745
▁Lud	-13746
▁McG	-13747
track	-13748
▁Luke	-13749
▁fret	-13750
Option	-13751
uality	-13752
▁creep	-13753
▁roast	-13754
▁scope	-13755
▁beggar	-13756
▁honors	-13757
▁Wilhelm	-13758
▁floated	-13759
▁harbour	-13760
▁relieve	-13761
▁Prussian	-13762
▁agitated	-13763
▁climbing	-13764
▁terribly	-13765
▁prolonged	-13766
fortunately	-13767
▁categories	-13768
▁respecting	-13769
▁supplement	-13770
▁transparent	-13771
:3	-13772
TS	-13773
erb	-13774
jpg	-13775
opy	-13776
▁Et	-13777
Cont	-13778
give	-13779
▁24,	-13780
▁Cyn	-13781
▁Ens	-13782
first	-13783
▁1920	-13784
▁1982	-13785
▁Kenn	-13786
▁ecst	-13787
▁monk	-13788
▁nick	-13789
giving	-13790
rified	-13791
▁Aaron	-13792
▁Happy	-13793
▁etern	-13794
▁snake	-13795
▁squee	-13796
▁Behind	-13797
▁Commer	-13798
▁Parker	-13799
▁ranges	-13800
▁tastes	-13801
▁worker	-13802
iversary	-13803
▁Mediter	-13804
▁chanced	-13805
▁essence	-13806
▁suicide	-13807
▁whistle	-13808
▁Treasury	-13809
▁concrete	-13810
▁despised	-13811
▁heavenly	-13812
▁specimen	-13813
▁inhabited	-13814
▁prospects	-13815
▁ecclesiast	-13816
▁circulation	-13817
▁limitations	-13818
lit	-13819
ilia	-13820
inqu	-13821
isse	-13822
mith	-13823
ools	-13824
{0.0	-13825
▁(17	-13826
▁vag	-13827
eting	-13828
imman	-13829
liest	-13830
▁User	-13831
▁bees	-13832
▁pony	-13833
▁soup	-13834
▁Flora	-13835
▁draws	-13836
ammered	-13837
▁Gerard	-13838
▁ardent	-13839
▁cavern	-13840
▁dating	-13841
▁festiv	-13842
▁triple	-13843
▁Toronto	-13844
▁consumed	-13845
▁pavement	-13846
▁ultimate	-13847
▁strategic	-13848
▁ambassador	-13849
▁suggestions	-13850
▁Mediterranean	-13851
▁simultaneously	-13852
^\	-13853
}.	-13854
gus	-13855
▁ML	-13856
blem	-13857
ping	-13858
||||	-13859
alted	-13860
▁1989	-13861
▁intu	-13862
▁slay	-13863
▁Hills	-13864
▁blush	-13865
▁chast	-13866
▁overh	-13867
idation	-13868
▁incent	-13869
▁offend	-13870
▁notions	-13871
▁Highness	-13872
▁balanced	-13873
▁downward	-13874
▁effected	-13875
▁Political	-13876
▁inconsist	-13877
▁shillings	-13878
▁affections	-13879
▁prosperous	-13880
▁calculating	-13881
▁combinations	-13882
URE	-13883
pin	-13884
eded	-13885
▁Coc	-13886
▁Fun	-13887
▁civ	-13888
▁jaw	-13889
▁kin	-13890
apore	-13891
trees	-13892
urned	-13893
▁Kath	-13894
▁Merc	-13895
▁dash	-13896
▁halt	-13897
commun	-13898
▁Baker	-13899
▁Edith	-13900
▁Month	-13901
▁Rhine	-13902
▁demol	-13903
▁fails	-13904
▁pupil	-13905
▁tires	-13906
immanci	-13907
▁Liberal	-13908
▁Looking	-13909
▁density	-13910
▁execute	-13911
▁magical	-13912
▁presume	-13913
▁stating	-13914
▁Almighty	-13915
▁Jonathan	-13916
▁chambers	-13917
▁interven	-13918
▁decorated	-13919
▁municipal	-13920
▁obtaining	-13921
▁favourable	-13922
▁legitimate	-13923
▁separately	-13924
▁travellers	-13925
▁sympathetic	-13926
▁conservative	-13927
(\	-13928
Br	-13929
—'	-13930
iya	-13931
▁Kr	-13932
▁Ry	-13933
▁gn	-13934
acht	-13935
colm	-13936
prot	-13937
▁28,	-13938
▁Cob	-13939
▁DNA	-13940
▁Lyn	-13941
▁Pin	-13942
▁maj	-13943
\\\\_	-13944
adays	-13945
encer	-13946
idays	-13947
▁Barn	-13948
▁glac	-13949
estine	-13950
utable	-13951
▁Isaac	-13952
▁petty	-13953
▁shots	-13954
conomic	-13955
▁Barbar	-13956
▁Cowper	-13957
▁Energy	-13958
▁befall	-13959
▁equals	-13960
▁subord	-13961
▁traced	-13962
▁unanim	-13963
▁Control	-13964
▁Hundred	-13965
▁cheaper	-13966
▁insight	-13967
▁longest	-13968
▁radiant	-13969
▁weighed	-13970
▁distrust	-13971
▁isolated	-13972
▁networks	-13973
▁Frenchman	-13974
▁commitment	-13975
▁depression	-13976
▁regulation	-13977
▁respectful	-13978
▁congregation	-13979
–2	-13980
rug	-13981
scar	-13982
ygen	-13983
▁Doc	-13984
▁Fed	-13985
▁Ple	-13986
▁rou	-13987
asses	-13988
▁1200	-13989
▁1987	-13990
▁lazy	-13991
▁ungr	-13992
▁vile	-13993
▁Based	-13994
▁Carly	-13995
▁Heart	-13996
▁deter	-13997
▁digit	-13998
idences	-13999
▁drinks	-14000
▁sealed	-14001
▁backing	-14002
▁earning	-14003
▁earthqu	-14004
▁estates	-14005
▁swallow	-14006
▁applause	-14007
▁immortal	-14008
▁register	-14009
▁shrugged	-14010
▁horseback	-14011
▁offspring	-14012
▁oppressed	-14013
▁swallowed	-14014
▁resentment	-14015
▁announcement	-14016
81	-14017
12,	-14018
IUS	-14019
ede	-14020
hot	-14021
ups	-14022
▁CA	-14023
▁pm	-14024
ench	-14025
blest	-14026
gebra	-14027
inted	-14028
oning	-14029
▁(196	-14030
▁Bord	-14031
▁Lost	-14032
▁Troy	-14033
▁nost	-14034
▁scan	-14035
abbath	-14036
▁jolly	-14037
▁reads	-14038
▁recre	-14039
▁stops	-14040
▁Hannah	-14041
▁invite	-14042
▁liable	-14043
▁gaining	-14044
▁pleaded	-14045
▁worried	-14046
▁controls	-14047
▁detected	-14048
▁employee	-14049
▁vertical	-14050
▁Baltimore	-14051
▁specimens	-14052
▁Chancellor	-14053
▁connecting	-14054
▁mahimmanci	-14055
▁Connecticut	-14056
▁conspicuous	-14057
usp	-14058
▁Ms	-14059
abby	-14060
chal	-14061
▁Fou	-14062
▁mum	-14063
arine	-14064
ingle	-14065
▁Cher	-14066
▁JOHN	-14067
▁Pict	-14068
riters	-14069
▁Route	-14070
▁float	-14071
cession	-14072
▁Mutual	-14073
▁Record	-14074
▁criter	-14075
▁fulfil	-14076
▁marine	-14077
▁pollen	-14078
▁shades	-14079
▁Alabama	-14080
▁dresses	-14081
▁oppress	-14082
▁triangle	-14083
▁comparing	-14084
▁practised	-14085
▁proclaimed	-14086
▁foundations	-14087
▁reflections	-14088
ahn	-14089
igo	-14090
owa	-14091
}{2	-14092
▁Om	-14093
arin	-14094
dles	-14095
icia	-14096
rock	-14097
▁$1,	-14098
▁Vir	-14099
▁fug	-14100
▁Hast	-14101
▁syll	-14102
advant	-14103
▁2003,	-14104
▁Honor	-14105
▁abide	-14106
▁beads	-14107
▁panic	-14108
▁thorn	-14109
▁Luther	-14110
▁courte	-14111
▁destro	-14112
▁dreary	-14113
▁prostr	-14114
▁annoyed	-14115
▁comrade	-14116
▁logical	-14117
▁imaginary	-14118
▁selecting	-14119
▁ceremonies	-14120
▁contradict	-14121
▁references	-14122
▁reflecting	-14123
▁submission	-14124
▁fashionable	-14125
▁neighboring	-14126
▁obligations	-14127
74	-14128
▁q	-14129
ods	-14130
say	-14131
Lord	-14132
enes	-14133
have	-14134
page	-14135
▁27,	-14136
▁hob	-14137
▁lyr	-14138
allas	-14139
icane	-14140
tyard	-14141
▁$300	-14142
▁Type	-14143
▁prow	-14144
broken	-14145
▁Chile	-14146
▁coral	-14147
▁crude	-14148
▁tents	-14149
respect	-14150
▁Burton	-14151
▁Gregory	-14152
▁endured	-14153
▁envelop	-14154
▁handful	-14155
▁surgeon	-14156
▁composer	-14157
▁Architect	-14158
▁adjoining	-14159
▁faculties	-14160
▁hereafter	-14161
▁memorable	-14162
▁witnessed	-14163
▁spectators	-14164
▁remembering	-14165
Id	-14166
pur	-14167
try	-14168
▁Ja	-14169
▁——	-14170
====	-14171
HING	-14172
User	-14173
cian	-14174
days	-14175
▁HIS	-14176
▁Kir	-14177
▁Ran	-14178
▁lac	-14179
angel	-14180
atoes	-14181
retty	-14182
▁Bass	-14183
▁Data	-14184
▁Lamb	-14185
▁flut	-14186
▁sour	-14187
itably	-14188
jected	-14189
▁Album	-14190
▁Jason	-14191
▁Kitty	-14192
▁Value	-14193
▁brace	-14194
▁prett	-14195
▁skirt	-14196
▁Career	-14197
▁liking	-14198
▁Atlanta	-14199
▁alcohol	-14200
▁cordial	-14201
▁creates	-14202
▁princip	-14203
▁solving	-14204
▁Robinson	-14205
▁disposal	-14206
▁multiplied	-14207
▁suppressed	-14208
▁whatsoever	-14209
▁discoveries	-14210
▁encouragement	-14211
VER	-14212
also	-14213
were	-14214
▁19,	-14215
▁23,	-14216
▁Tan	-14217
▁mol	-14218
▁nig	-14219
arios	-14220
inals	-14221
plate	-14222
▁1976	-14223
▁1977	-14224
▁Iron	-14225
▁JSON	-14226
▁Swan	-14227
▁pest	-14228
ateral	-14229
▁Griff	-14230
▁prose	-14231
▁punct	-14232
▁vexed	-14233
lington	-14234
▁Fortun	-14235
▁Provin	-14236
▁Senior	-14237
▁awaken	-14238
▁balcon	-14239
▁coldly	-14240
▁radius	-14241
▁despise	-14242
▁dreaded	-14243
▁illegal	-14244
▁worldly	-14245
▁Standard	-14246
▁explains	-14247
▁mistakes	-14248
▁overhead	-14249
▁mysteries	-14250
▁objective	-14251
▁relevance	-14252
▁tolerance	-14253
▁variation	-14254
▁compromise	-14255
▁excellence	-14256
▁impressions	-14257
▁undertaking	-14258
▁communicated	-14259
▁jurisdiction	-14260
▁revolutionary	-14261
53	-14262
Up	-14263
256	-14264
Val	-14265
▁72	-14266
ando	-14267
▁Som	-14268
istle	-14269
seven	-14270
style	-14271
▁1978	-14272
▁bows	-14273
▁Money	-14274
▁Niger	-14275
▁knelt	-14276
▁monks	-14277
▁STREET	-14278
▁catast	-14279
▁Islamic	-14280
▁eminent	-14281
▁heights	-14282
▁sublime	-14283
▁vaguely	-14284
▁dominant	-14285
▁fortress	-14286
▁lingered	-14287
▁morality	-14288
▁preceded	-14289
▁snatched	-14290
▁extremity	-14291
▁mechanism	-14292
▁requiring	-14293
▁compliance	-14294
▁electronic	-14295
$$	-14296
Does	-14297
John	-14298
comp	-14299
iami	-14300
mons	-14301
pres	-14302
▁$40	-14303
▁bee	-14304
▁1972	-14305
▁Jere	-14306
▁Salt	-14307
▁cush	-14308
▁limb	-14309
▁riot	-14310
▁unqu	-14311
graded	-14312
string	-14313
▁2018,	-14314
▁Chron	-14315
▁Milan	-14316
▁Quoth	-14317
▁blade	-14318
▁frost	-14319
▁mustn	-14320
▁vigil	-14321
chester	-14322
▁Proper	-14323
▁impass	-14324
▁oppose	-14325
▁plaint	-14326
▁reigned	-14327
▁winding	-14328
▁enclosed	-14329
▁everyday	-14330
▁formally	-14331
▁greeting	-14332
▁opponent	-14333
▁eagerness	-14334
▁graduated	-14335
▁instructed	-14336
▁preference	-14337
▁Furthermore	-14338
▁transported	-14339
▁implementing	-14340
.’”	-14341
AGE	-14342
dem	-14343
atha	-14344
avil	-14345
ikin	-14346
}{5}	-14347
▁dad	-14348
avish	-14349
ideos	-14350
oming	-14351
▁BOOK	-14352
▁Mull	-14353
▁Shad	-14354
▁outl	-14355
▁Allan	-14356
▁atoms	-14357
▁rider	-14358
▁sizes	-14359
▁solar	-14360
▁tread	-14361
▁|||||	-14362
angular	-14363
▁boards	-14364
▁captiv	-14365
▁franch	-14366
▁wildly	-14367
▁Thought	-14368
▁approve	-14369
▁compete	-14370
▁crowned	-14371
▁rightly	-14372
▁steward	-14373
▁captains	-14374
▁chapters	-14375
▁fragment	-14376
▁unreason	-14377
▁allowance	-14378
▁descending	-14379
▁securities	-14380
/4	-14381
EE	-14382
Wr	-14383
—‘	-14384
—’	-14385
”.	-14386
19.	-14387
gow	-14388
ori	-14389
osl	-14390
rac	-14391
▁AB	-14392
▁AG	-14393
half	-14394
▁26,	-14395
▁Ess	-14396
▁Gas	-14397
▁Tun	-14398
ansom	-14399
arers	-14400
backs	-14401
chell	-14402
odies	-14403
onson	-14404
ublin	-14405
ulner	-14406
▁(?);	-14407
▁Less	-14408
▁Room	-14409
▁spur	-14410
insula	-14411
▁Raven	-14412
▁coeff	-14413
▁crest	-14414
▁impet	-14415
▁intox	-14416
▁manip	-14417
▁overs	-14418
inement	-14419
▁Carter	-14420
▁Fisher	-14421
▁affirm	-14422
▁brutal	-14423
▁decree	-14424
▁muscle	-14425
ceptions	-14426
▁Malcolm	-14427
▁strings	-14428
ufficient	-14429
▁employer	-14430
▁marching	-14431
▁pathetic	-14432
▁severity	-14433
▁contrived	-14434
▁generosity	-14435
▁obligation	-14436
▁occurrence	-14437
▁processing	-14438
▁succeeding	-14439
▁illustrious	-14440
▁restoration	-14441
▁overwhelming	-14442
54	-14443
PL	-14444
1),	-14445
IRE	-14446
ORE	-14447
▁51	-14448
data	-14449
olve	-14450
▁182	-14451
▁Pic	-14452
▁Stu	-14453
▁toy	-14454
green	-14455
inema	-14456
occup	-14457
▁Jenn	-14458
▁cant	-14459
▁feud	-14460
▁nour	-14461
▁Above	-14462
▁blaze	-14463
▁idiot	-14464
▁therm	-14465
uminous	-14466
▁Wright	-14467
▁disord	-14468
▁liquor	-14469
▁strive	-14470
▁tyrant	-14471
▁Clemens	-14472
▁modesty	-14473
▁traitor	-14474
▁Campbell	-14475
▁Harrison	-14476
▁Historic	-14477
▁evenings	-14478
▁ministry	-14479
▁perished	-14480
▁preacher	-14481
▁shepherd	-14482
▁Louisiana	-14483
▁Singapore	-14484
▁abilities	-14485
▁component	-14486
▁courtyard	-14487
▁imitation	-14488
▁streaming	-14489
▁remarkably	-14490
▁underneath	-14491
▁picturesque	-14492
▁demonstrated	-14493
)}	-14494
83	-14495
RAM	-14496
▁SH	-14497
Requ	-14498
inda	-14499
▁bru	-14500
▁mos	-14501
archy	-14502
front	-14503
▁0.05	-14504
▁Born	-14505
▁Pink	-14506
▁Rhod	-14507
▁Self	-14508
▁buzz	-14509
▁gird	-14510
▁navy	-14511
▁Venet	-14512
▁naval	-14513
▁census	-14514
▁costly	-14515
▁deputy	-14516
▁eighth	-14517
▁impert	-14518
▁jacket	-14519
▁lesser	-14520
▁scared	-14521
▁scream	-14522
▁Denmark	-14523
▁haunted	-14524
▁kindred	-14525
▁privacy	-14526
▁sectors	-14527
▁emerging	-14528
▁indirect	-14529
▁stealing	-14530
▁antiquity	-14531
▁apparatus	-14532
▁eliminate	-14533
▁seemingly	-14534
▁inspection	-14535
▁stretching	-14536
▁differently	-14537
▁productivity	-14538
/20	-14539
ACE	-14540
Has	-14541
fts	-14542
may	-14543
▁ah	-14544
cycl	-14545
guer	-14546
open	-14547
▁Ric	-14548
▁gau	-14549
▁ray	-14550
▁yea	-14551
amous	-14552
ieval	-14553
reath	-14554
▁1975	-14555
▁Clar	-14556
▁Glas	-14557
▁orph	-14558
▁rabb	-14559
▁tire	-14560
asping	-14561
▁Youth	-14562
▁basin	-14563
▁lined	-14564
▁Violet	-14565
▁correl	-14566
▁patent	-14567
▁slopes	-14568
▁baggage	-14569
▁exalted	-14570
▁garment	-14571
▁parlour	-14572
▁utility	-14573
▁clearing	-14574
▁defiance	-14575
▁focusing	-14576
▁inventor	-14577
▁tenderly	-14578
▁accidents	-14579
▁particles	-14580
▁slaughter	-14581
▁spectacles	-14582
72	-14583
AA	-14584
10)	-14585
lot	-14586
mus	-14587
nor	-14588
▁Ll	-14589
ethe	-14590
rils	-14591
▁11:	-14592
ensus	-14593
vered	-14594
▁Cole	-14595
▁Grow	-14596
▁Hook	-14597
▁Jess	-14598
▁Maid	-14599
▁hits	-14600
▁plum	-14601
▁ramp	-14602
▁reun	-14603
▁vacc	-14604
▁yell	-14605
estone	-14606
▁Athos	-14607
▁lions	-14608
▁motiv	-14609
▁weren	-14610
▁wrist	-14611
ointing	-14612
▁Hudson	-14613
▁Newman	-14614
▁Walker	-14615
▁herald	-14616
▁resume	-14617
▁Admiral	-14618
▁combine	-14619
▁exclaim	-14620
▁ongoing	-14621
▁pension	-14622
▁theater	-14623
▁whereof	-14624
including	-14625
▁colleges	-14626
▁resemble	-14627
▁traveled	-14628
▁associate	-14629
▁encompass	-14630
▁paintings	-14631
▁complained	-14632
▁healthcare	-14633
▁infinitely	-14634
▁objectives	-14635
▁uneasiness	-14636
▁comfortably	-14637
▁integration	-14638
((	-14639
Te	-14640
Par	-14641
NAME	-14642
azed	-14643
elta	-14644
eted	-14645
isle	-14646
▁Cos	-14647
▁Jay	-14648
▁Jem	-14649
▁Sic	-14650
▁XVI	-14651
▁cho	-14652
ector	-14653
ombre	-14654
owell	-14655
▁Fall	-14656
▁meek	-14657
▁Cyrus	-14658
▁Phara	-14659
▁aspir	-14660
colored	-14661
igenous	-14662
▁Arabic	-14663
▁Jimmie	-14664
▁Things	-14665
▁hinder	-14666
▁bridges	-14667
▁forcing	-14668
ictionary	-14669
▁Subtract	-14670
▁advocate	-14671
▁foremost	-14672
▁Everybody	-14673
▁economics	-14674
▁honorable	-14675
▁magazines	-14676
▁stillness	-14677
▁accounting	-14678
▁possessions	-14679
▁intermediate	-14680
ACK	-14681
kar	-14682
▁ts	-14683
fert	-14684
ignt	-14685
mess	-14686
skin	-14687
▁(10	-14688
▁Byz	-14689
▁Cay	-14690
▁Wes	-14691
▁XII	-14692
party	-14693
ppers	-14694
ystem	-14695
▁Aber	-14696
▁Gate	-14697
▁Gods	-14698
▁moss	-14699
▁rosy	-14700
▁clust	-14701
▁scram	-14702
▁sends	-14703
▁tends	-14704
▁Result	-14705
▁Turner	-14706
▁bounds	-14707
▁closet	-14708
▁towers	-14709
▁adorned	-14710
▁extends	-14711
▁lighter	-14712
▁colonial	-14713
▁deserves	-14714
▁minority	-14715
▁reserves	-14716
▁thankful	-14717
▁detective	-14718
▁magnitude	-14719
▁momentary	-14720
▁venerable	-14721
▁Investment	-14722
▁collecting	-14723
▁conspiracy	-14724
▁publishing	-14725
▁professionals	-14726
KE	-14727
-18	-14728
lon	-14729
▁1$	-14730
fles	-14731
late	-14732
twas	-14733
▁15.	-14734
▁Hil	-14735
▁vit	-14736
▁Crow	-14737
▁Said	-14738
▁bury	-14739
▁pert	-14740
▁zone	-14741
▁Bloom	-14742
▁Medic	-14743
▁Spart	-14744
▁needn	-14745
▁scold	-14746
▁sunny	-14747
thought	-14748
▁cellar	-14749
▁devote	-14750
▁gravel	-14751
▁imagin	-14752
▁melted	-14753
▁merits	-14754
▁parlor	-14755
▁voters	-14756
▁acceler	-14757
▁fertile	-14758
▁grasped	-14759
▁honesty	-14760
▁skilled	-14761
▁survive	-14762
▁trifling	-14763
▁borrowing	-14764
▁expertise	-14765
▁instincts	-14766
▁beforehand	-14767
▁dimensions	-14768
▁presenting	-14769
▁influential	-14770
▁Professional	-14771
▁restrictions	-14772
GB	-14773
eb	-14774
fo	-14775
ggy	-14776
gil	-14777
▁66	-14778
ften	-14779
sett	-14780
▁Dum	-14781
▁FIR	-14782
▁Kan	-14783
▁axe	-14784
athed	-14785
rella	-14786
▁Grad	-14787
▁Pack	-14788
▁Snow	-14789
▁deme	-14790
▁yawn	-14791
String	-14792
arming	-14793
cerity	-14794
▁Annie	-14795
▁Bacon	-14796
▁Define	-14797
▁Malays	-14798
▁Marine	-14799
▁angles	-14800
▁backed	-14801
▁dismal	-14802
▁quarre	-14803
▁robust	-14804
▁Stadium	-14805
▁barrier	-14806
▁locomot	-14807
▁pilgrim	-14808
▁receipt	-14809
▁boundary	-14810
▁decisive	-14811
▁privately	-14812
▁revelation	-14813
▁speculation	-14814
▁increasingly	-14815
('	-14816
1–	-14817
”;	-14818
AIN	-14819
cor	-14820
mel	-14821
▁BY	-14822
▁Bh	-14823
▁CO	-14824
atar	-14825
rade	-14826
said	-14827
▁1968	-14828
▁Node	-14829
▁Shaw	-14830
▁Tart	-14831
▁Vice	-14832
▁cats	-14833
▁fits	-14834
▁goat	-14835
ignant	-14836
▁Cleve	-14837
▁grams	-14838
western	-14839
▁Dublin	-14840
▁Naples	-14841
▁genera	-14842
▁hunted	-14843
▁ninety	-14844
▁prelim	-14845
▁Jacques	-14846
▁rejoice	-14847
▁thieves	-14848
▁download	-14849
▁intimacy	-14850
▁predomin	-14851
▁continual	-14852
▁economies	-14853
▁resembled	-14854
▁Personally	-14855
▁membership	-14856
▁overlooked	-14857
▁encouraging	-14858
▁enthusiastic	-14859
▁intervention	-14860
▁unconsciously	-14861
%)	-14862
HL	-14863
IES	-14864
eda	-14865
ieg	-14866
▁mm	-14867
cock	-14868
eton	-14869
▁30,	-14870
▁Fra	-14871
▁Gon	-14872
▁Pir	-14873
▁Sky	-14874
atern	-14875
illon	-14876
▁Beck	-14877
▁Dora	-14878
▁Word	-14879
▁lamb	-14880
ampton	-14881
▁Patri	-14882
▁perch	-14883
▁Divine	-14884
▁Orange	-14885
▁Policy	-14886
▁reappe	-14887
▁rhythm	-14888
▁rubbed	-14889
--------	-14890
▁Mission	-14891
▁affects	-14892
▁confron	-14893
▁genetic	-14894
▁pierced	-14895
▁portray	-14896
unciation	-14897
▁marrying	-14898
▁settlers	-14899
▁forthwith	-14900
▁fulfilled	-14901
▁precision	-14902
▁forgetting	-14903
▁beautifully	-14904
▁preliminary	-14905
▁wonderfully	-14906
▁unfortunately	-14907
_0	-14908
ogy	-14909
▁(7	-14910
:003	-14911
Comp	-14912
▁Ald	-14913
▁Bul	-14914
▁Mes	-14915
▁Pra	-14916
store	-14917
uracy	-14918
▁Ages	-14919
▁LADY	-14920
▁Mind	-14921
▁Poll	-14922
▁grum	-14923
▁shoe	-14924
aments	-14925
except	-14926
rament	-14927
unting	-14928
▁Maine	-14929
▁nails	-14930
▁pipes	-14931
▁Cooper	-14932
▁shouts	-14933
▁superf	-14934
▁Collins	-14935
▁Harvard	-14936
▁doubled	-14937
▁countess	-14938
▁pursuing	-14939
▁telegraph	-14940
▁discharged	-14941
▁Engineering	-14942
▁challenging	-14943
▁preservation	-14944
MS	-14945
Pr	-14946
ORY	-14947
rape	-14948
▁Abu	-14949
▁Dow	-14950
▁Lyd	-14951
▁aka	-14952
▁pic	-14953
▁Lisa	-14954
▁Soft	-14955
▁Viol	-14956
▁bald	-14957
▁cust	-14958
▁jaws	-14959
▁tube	-14960
atches	-14961
▁Miami	-14962
▁Venus	-14963
▁crust	-14964
▁sexes	-14965
▁Ferdin	-14966
▁coffin	-14967
▁kicked	-14968
▁preach	-14969
▁refres	-14970
▁Detroit	-14971
▁damaged	-14972
▁extingu	-14973
▁tempest	-14974
▁Caroline	-14975
▁Sciences	-14976
▁counting	-14977
▁honestly	-14978
▁proclaim	-14979
▁stripped	-14980
▁Champions	-14981
▁numerical	-14982
▁obstinate	-14983
▁acceptance	-14984
▁negotiations	-14985
zi	-14986
URL	-14987
▁3)	-14988
▁vo	-14989
assy	-14990
iage	-14991
}{12	-14992
▁Dim	-14993
▁Vik	-14994
adors	-14995
grown	-14996
lemen	-14997
oints	-14998
pence	-14999
phony	-15000
▁Brew	-15001
▁Code	-15002
▁clos	-15003
▁doom	-15004
▁hood	-15005
▁knot	-15006
▁slim	-15007
▁2000,	-15008
▁Ghost	-15009
▁bliss	-15010
▁brook	-15011
▁decay	-15012
▁dusty	-15013
▁mouse	-15014
inkling	-15015
lements	-15016
reprene	-15017
urrency	-15018
▁Arnold	-15019
▁Butler	-15020
▁excite	-15021
▁hearty	-15022
▁louder	-15023
▁tasked	-15024
▁tongues	-15025
▁warfare	-15026
▁monarchy	-15027
▁reliable	-15028
▁startling	-15029
▁technique	-15030
▁scientists	-15031
▁intolerable	-15032
cro	-15033
psy	-15034
unn	-15035
▁DO	-15036
urbs	-15037
▁30%	-15038
▁Mav	-15039
▁Saw	-15040
▁ori	-15041
▁ost	-15042
horse	-15043
ilful	-15044
▁Fell	-15045
▁Gill	-15046
▁Hamp	-15047
▁Stri	-15048
▁loop	-15049
▁stam	-15050
school	-15051
season	-15052
▁Keith	-15053
▁Pitts	-15054
▁grove	-15055
▁loses	-15056
▁physi	-15057
▁trait	-15058
▁Lucien	-15059
▁Twenty	-15060
▁Watson	-15061
▁devils	-15062
▁needle	-15063
▁overse	-15064
▁ragged	-15065
▁rulers	-15066
▁ruling	-15067
▁styles	-15068
▁surviv	-15069
PASSPORT	-15070
▁Belgium	-15071
▁Wallace	-15072
▁exasper	-15073
▁quantum	-15074
▁refined	-15075
▁Brothers	-15076
▁Memorial	-15077
▁Paradise	-15078
▁objected	-15079
▁operates	-15080
▁vacation	-15081
▁assumption	-15082
▁embarrassed	-15083
▁EL	-15084
alus	-15085
anas	-15086
athy	-15087
chin	-15088
etta	-15089
plus	-15090
walk	-15091
▁DVD	-15092
▁lag	-15093
ancho	-15094
every	-15095
ignty	-15096
regon	-15097
▁Cord	-15098
▁FROM	-15099
▁Pant	-15100
▁coup	-15101
▁mare	-15102
▁mute	-15103
▁upro	-15104
itness	-15105
▁2004,	-15106
▁Caval	-15107
▁Click	-15108
▁Study	-15109
▁Sweet	-15110
▁amsar	-15111
▁blunt	-15112
▁suits	-15113
▁wiped	-15114
▁dexter	-15115
▁intric	-15116
▁proves	-15117
▁suburb	-15118
▁waiter	-15119
▁Schools	-15120
▁fearing	-15121
▁granite	-15122
▁refusal	-15123
▁treason	-15124
▁disappro	-15125
▁gorgeous	-15126
▁remonstr	-15127
▁dignified	-15128
▁financing	-15129
▁referring	-15130
▁wherefore	-15131
▁pleasantly	-15132
▁wickedness	-15133
▁confidential	-15134
▁organisation	-15135
▁superstition	-15136
CO	-15137
ür	-15138
ucc	-15139
▁IM	-15140
thon	-15141
▁Dau	-15142
▁Hem	-15143
▁Hum	-15144
▁bri	-15145
EMAIL	-15146
throw	-15147
ugged	-15148
▁Anti	-15149
[...]
